#version: 0.2 - Trained by `huggingface/tokenizers`
Ġ e
i s
u m
e r
Ġ a
u s
i n
i t
q u
Ġ s
o r
a t
e n
o n
Ġ p
Ġ c
Ġ d
e s
a m
e m
Ġ n
Ġ m
Ġ qu
e t
u r
i c
Ġ v
Ġ in
a n
t i
l i
e c
a r
Ġ t
Ġ i
Ġe t
u n
u l
Ġ f
a e
o s
u t
o l
o m
i m
e l
Ġ l
a s
Ġ r
en t
Ġp r
Ġc on
i d
i b
e d
qu e
o d
Ġ h
a c
Ġa d
s t
Ġ S
Ġ A
un t
Ġ C
a l
Ġ D
i a
Ġ P
o c
Ġe st
a b
ib us
Ġ I
i p
r a
Ġe x
at i
Ġ ut
Ġn on
u d
i l
en d
p er
ec t
g n
Ġd e
s e
or um
Ġ E
an t
Ġ M
Ġs u
i us
er e
o p
t r
Ġd i
Ġi p
u c
Ġa n
t er
Ġs it
e g
i r
Ġa m
Ġa c
Ġ N
Ġp er
Ġm a
Ġip s
ol or
Ġa li
o t
Ġd olor
Ġ 1
Ġv el
en s
o b
Ġ b
Ġe l
t a
el l
i o
Ġcon s
Ġ g
Ġ V
en ti
Ġe r
in g
Ġs ed
i um
ati on
i v
et ur
ul l
Ġr e
is s
is c
. .
om in
Ġam et
Ġqu i
t e
a p
Ġ L
or em
Ġqu od
Ġc um
i li
om n
Ġ li
it at
Ġips um
em p
es t
Q u
an d
Ġa ut
Ġ omn
it ur
or t
Ġd ic
at ur
Ġ R
Ġ T
l l
Ġp os
Ġi d
Ġc om
or e
Ġ H
un c
Ġ (
i on
Ġ Ġ
i am
Ġf ac
Ġali qu
u g
Ġa t
Ġe n
Ġs e
Ġn ec
Ġqu am
Ġ or
e b
f ic
Ġel it
Ġ F
un d
Ġ Qu
Ġt emp
r is
Ġpr o
Ġe s
Ġe g
Ġen im
a d
i ae
Ġ B
t um
es ti
in c
Ġi ll
ĠD e
Ġm e
â Ģ
Ġ G
Ġv ol
Ġp ar
ĠI n
a v
ar e
m od
Ġqu ae
Ġa b
Ġli b
Ġi m
u p
Ġv er
t is
ar um
Ġqu is
Ġcons ect
Ġma gn
Ġs c
u b
t o
r e
Ġn os
t us
a ec
Ġn e
Ġad ip
er it
an c
ent um
Ġa r
Ġv it
Ġn is
Ġe u
es s
Ġs unt
Ġh ab
Ġs i
e p
l ic
Ġ 2
ar i
ti am
Ġp l
qu am
b us
Ġconsect etur
r i
at is
u it
iss im
Ġin ter
a g
Ġs em
t at
Ã ¦
t or
Ġ o
ent es
Ġadip isc
ul a
er unt
ull a
u i
Ġ O
r o
b i
Ġa p
c c
Ġv en
Ġ U
Ġs ol
Ġqu o
Ġes se
j us
ic i
Ġac c
Ġadipisc ing
it a
Ġ [
in e
.. .
ul um
ti on
Ġaut em
o v
im us
Ġe ius
Ġer at
e o
Ġ un
u e
Ġvit ae
ĠS ed
i i
I I
as s
Ġt u
Ġan te
at us
Ġlib er
L orem
id unt
Ġt r
ur is
Ġnis i
ol l
us c
Ġin c
er s
ull am
Ġ u
Ġm i
Ġc or
t ra
o g
it er
Ġmagn a
Ġs p
Ġeg et
Ġqu id
Ġ &
al es
at a
e x
at e
Ġf r
c i
Ġl ac
Ġt er
Ġ ob
ĠD omin
Ġnos tr
se qu
Ġ ul
Ġp ot
u is
Ġpr op
r um
r ip
l es
c h
Ġe tiam
Ġan n
i g
Ġ J
Ġ -
Ġh oc
a li
er at
Ġv id
Ġne que
Ġqu ia
Ġ op
Ġm in
Ġn unc
ell us
il l
Ġl ab
is que
f fic
Ġtemp or
i is
Ġpr a
Ġl a
Ġe a
Ġ :
er m
i at
en e
on ec
ĠA n
ati o
Ġv ir
ĠE t
d i
ĠC h
is t
ect us
Ġs ec
Ġ âĢ
Ġcon sequ
Ġc ur
Ġ 3
Ġvel it
cc les
f f
u li
h il
Ġt am
Ġ ur
er i
or is
Ġ od
Ġsu b
end um
Ġn ulla
d e
ation e
ĠĠ ĠĠ
Ġqu a
t in
Ġvol up
at um
il is
er um
in t
it ud
Ġan im
an ti
ris ti
Ġr eg
Ġa l
an s
Ġul tr
ant ur
Ġm od
Ġ oc
Ġl oc
ti m
Ġc o
ul is
er v
esti b
Ġpr im
Ġpos s
estib ulum
li g
p r
Ġsu per
Ġs ic
e i
Ġr es
itat e
al is
Ġt inc
Ġcom mod
ĠD onec
an n
Ġe um
Ġtinc idunt
am us
Ġl eg
ob is
ic a
h i
at r
er c
Ġd es
ap i
it us
Ġg ra
Ġa uc
v en
et us
el is
Ġat que
Ġm ul
or es
ĠU t
Ġf ili
d ic
Ġim per
Ġ us
Ġt e
Ġ jus
n a
is se
g o
Ġt ur
it um
entes que
Ġliber o
ell entesque
al l
Ġcom m
Ġod io
in is
Ġ "
t it
Ġsem per
an i
a us
h e
Ġs um
ĠM a
t ur
ul p
os t
s us
ation em
in a
Ġin t
Ġd ec
et er
Ġh omin
u er
Ġpr ae
Ġcommod o
Ġdi am
Ġs api
ip it
Ġa s
Ġ ullam
Ġc r
Ġ 4
v id
Ġl uc
a uc
enti a
Ġ X
ĠC on
Ġs usc
Ġv iv
Ġp or
Ġm on
u x
ti o
it u
it as
Ġs anc
Ġvolup tat
Ġl eo
Ġconsequ at
av it
itat is
unt ur
ass a
Ġr ec
ĠP r
Ġauc tor
ĠR om
Ġm at
Ġqu ibus
Ġdolor e
Ġex p
ar et
d um
Ġa ug
ib h
Ġm assa
Ġre p
Ġn ibh
is us
Ġf elis
p is
ent ur
Ġ ita
Ġsec und
Ġdi gn
Ġcon v
d it
Ġf or
t em
er et
Ġt ellus
Ġar c
Ġp ur
Ġm ol
Ġjus to
itat em
Ġc l
Ġaliqu am
e li
Ġullam c
e at
Ġ ...
Ġpot est
Ġor ci
Ġs im
Ġim p
Ġ is
g r
Ġqu as
ug iat
ĠN am
ar ius
Ġtemp us
ĠA d
Ġver o
Ġcon c
ion e
Ġ .
u ius
Ġdic tum
Ġli g
Ġlac us
Ġc ap
or i
Ġ ,
Ġr isus
Ġpos t
ens is
Ġs t
Ġm oll
Ġin f
Ġg en
Ġe os
Ġs ac
Ġd is
i hil
Ġd u
Ġm etus
at o
Ġm an
r as
Ġb on
v in
Ġl orem
Ġe o
ĠM ar
p at
Ġtur pis
Ġlig ula
Ġaug ue
Ġg r
ĠP ra
Ġma uris
Ġ Â
u ere
ic es
Ġpl ac
Ġcon d
itud in
Ġomn es
Ġmol esti
Ġf id
Ġnis l
Ġ j
Ġcom p
Ġde b
Ġfac ilis
Ġer os
Ġl ectus
Ġma x
ul o
ion em
Ġvol ut
in i
us p
Ġvolut pat
ĠA li
Ġd ui
es c
i e
Ġi us
Ġp ul
Ġoc c
Ġur na
Ġex erc
Ġsusc ipit
Ġcon f
isc op
Ġ 5
Ġap ud
ul us
ene an
Ġh is
Ġarc u
Ġp o
c us
ĠP h
p h
Ġin s
er n
Ġa g
ĠP ro
Ġcor p
Ġf auc
Ġv oc
l and
Ġn obis
ir c
Ġtam en
Ġpr et
Ġpur us
Ġp ec
it i
Ġfauc ibus
t u
Ġp ort
ur e
Ġn um
Ġc aus
Ġap p
ĠC ur
es ent
e h
Ġr em
Ġes s
Ġf e
Ġt ot
Ġmi hi
Ġn ihil
Ġe i
Ġquid em
est as
end i
er t
ĠE x
Ġd omin
an g
ic ae
or ibus
Ġt ort
Ġomn ia
Ġpor ta
Ġel em
ed it
Ġn omin
Ġp h
ad a
Ġtort or
ent is
i et
Ġmin im
Ġsapi en
ort is
p on
d am
Ġ ti
Ġluc tus
Ġin v
ab itur
er is
ic um
Ġs al
ore et
eb at
f end
Ġe orum
ĠD uis
r am
Ġo per
Ġla oreet
ĠA enean
ĠN ulla
Ġsc rip
Ġp op
ĠDe i
ent e
ap ibus
Ġdi x
Ġor n
ill a
Ġp at
d em
ant um
Ġex c
Ġc iv
Ġeu is
Ġc ar
Ġd apibus
ales u
Ġcur sus
Ġeuis mod
ed i
alesu ada
Ġb ib
l e
Ġm alesuada
Ġs oc
ĠC um
d in
Ġe p
inc ip
t es
Ġdi e
ib i
Ġeg estas
or a
Ġann o
Ġa ud
qu i
Ġf uit
Ġb land
s um
or bi
ĠE ccles
Ġpret ium
ed ic
Ġe ccles
m a
and o
ici es
ut ate
Ġv ulp
ic et
ag it
Ġpos uere
Ġven en
Ġelem entum
Ġcon st
Ġvulp utate
en as
im entum
h on
Ġsecund um
v ers
c rip
Ġd om
a ud
Ġultr icies
Ġti bi
Ġbland it
Ġf erm
or per
Ġper s
Ġh aec
Ġd isc
enti bus
ar is
al e
ĠDe us
Ġullamc orper
Ġqu em
ĠAli quam
in ia
Ġi ac
Ġmoll is
o li
Ġfe ugiat
Ġf in
ĠL orem
Ġf u
I n
Ġn ov
ĠE tiam
i os
i as
Ġn atur
Ġd oc
ĠF r
ir e
Ġo ffic
Ġvenen atis
l li
Ġma g
ĠS anc
Ġlab ore
ic us
um s
ic ula
ub lic
Ġr ed
Ġ ub
Ġinter dum
usp end
Ġs erv
ud ic
Ġv eh
Ġd el
Ġferm entum
Ġ _
Ġs agit
it is
Ġf ec
Ġ 6
Ġsic ut
Ġcond imentum
Ġsol lic
Ġf l
ei fend
Ġlac inia
ation is
r erit
Ġultr ices
di et
i x
Ġomn ibus
Ġs int
uspend isse
Ġc irc
Ġh end
Ġel eifend
Ġver b
Ġimper diet
iss et
Ġsc el
er o
Ġv arius
er ra
s i
Ġ ;
Ġhend rerit
Ġmolesti e
as c
ĠA r
Ġdign issim
ĠV estibulum
Ġven iam
all is
Ġsagit tis
vid a
Ġ1 6
âĢ Ŀ
Ġmod o
Ġaliqu et
iv e
ums an
Ġs od
ti us
ĠN ullam
Ġgra vida
) .
Ġe jus
Ġcon g
Ġ1 5
Ġv estibulum
ing illa
vin ar
Ġs ibi
Ġacc umsan
Ġi lli
Ġfacilis is
eg er
Ġr erum
u per
Ġl ob
Ġfr ingilla
Ġin st
Ġpul vinar
ĠE p
Ġorn are
Ġt en
t h
aec enas
or d
Ġpra es
Ġlob ortis
Ġmag is
Ġt risti
Ġg l
ĠN unc
Ġmat tis
Ġpr aec
Ġcon tra
Ġ1 9
ation es
ĠCh risti
it e
Ġub i
Ġp ellentesque
ent em
Ġviv erra
ĠA l
Ġ /
t as
Ġtristi que
enti am
Ġn ot
aret ra
ĠQu isque
Ġsod ales
Ġph aretra
Ġpr incip
v is
ĠC om
Ġe am
tit or
Ġ w
Ġsollic itudin
Ġh um
ut rum
Ġport titor
ĠS uspendisse
Ġal ter
Ġip se
Ġus que
Ġcong ue
ili a
ti bus
Ġbib endum
0 0
Ġquo que
Ġomn is
hon cus
er isque
Ġveh icula
Ġconv allis
Ġr honcus
r ae
Ġse p
an us
as ellus
ic is
. ,
Ġf am
Ġiac ulis
Ġr utrum
ĠIn t
ĠA p
ĠPra esent
Ġe ffic
en i
f er
an a
Ġsu p
ent a
gn i
re h
Ġquas i
Ġ W
usc e
ĠM orbi
ĠM aecenas
Ġl it
Ġaliqu a
Ġ 7
Ġpl ur
Ġc as
Ġ und
ol og
iv ers
Ġplac erat
Ġm is
Ġscel erisque
p e
ĠMa uris
t orum
il e
Ġd uc
Ġin d
Ġer go
1 0
iv amus
us t
Ġ 8
r et
Ġi am
u a
Ġeg o
op h
ĠP ellentesque
ion is
ĠCur abitur
Ġmax im
ĠCh ris
Ġh ac
em us
ĠA m
ĠC ras
Ġips a
Ġs ine
Ġco gn
Ġp en
r ib
Ġur b
Ġd o
Ġtemp ore
Ġqu os
Ġs tat
Ġtr ans
Ġpec c
v er
ĠPro in
ĠInt eger
ic o
o qu
Ġp on
Ġm al
al em
ĠDomin us
t am
an o
Ġde f
on is
Ġp ublic
ĠPh asellus
ir m
Ġ1 7
g itur
ĠA t
ĠF usce
tion e
Ġm or
Ġs ive
Ġvoluptat em
Ġm il
Ġinc id
p os
Ġm ort
tion em
v i
ĠĠĠĠ ĠĠĠĠ
Ġn am
or m
Ġm em
y m
Ġla ud
Ġcomm un
enti um
end a
ĠO r
Ġt ra
Ġess et
Ġt he
in o
ili um
Ġcon t
Ġf i
Ġv is
on g
ar ia
ĠV ivamus
Ġadip is
II I
Ġsu a
D e
ĠI I
1 6
an um
ad em
X X
Ġf ug
Ġc h
Ġh ic
Ġ1 8
v it
Ġv ic
ĠT h
Ġme a
i ent
Ġ '
Ġp a
om en
t ae
Ġexerc it
ic ing
n e
Ġeius mod
et r
1 5
es tr
ĠI s
er a
Ġp atr
Ã ©
ti um
ĠDomin i
ĠâĢ ľ
Ġpr oc
anti um
ti fic
at or
Ġt um
ion es
at ibus
Ġadipis icing
1 2
Ġqu in
at h
U S
Ġh on
Ġill a
Ġnostr ud
Ġnec ess
Ġm ed
Ġfac i
in um
Ġma i
end o
Ġsu is
1 7
Ġe is
ĠR eg
T I
ar ium
qu it
o h
p l
) ,
ĠN on
qu id
Ġe d
Ġi udic
Ġsu o
on iam
it o
enti ae
on e
it t
Ġhab et
ut a
t ic
ĠS i
Ġomn ium
Ġp ed
Ġill e
ost ol
Ġn o
ĠH is
ĠC ar
Ġe m
Ġprop ter
reh end
Ġi gn
Ġ 9
a es
ĠC l
Ġsp ec
E R
and um
1 8
Ġs ing
s c
ĠL at
n o
an e
Ġc oll
Ġpro f
Ġ K
Ġc up
ae l
Ġacc us
ari i
Ġc uius
Ġt antum
o ann
ect o
ra ec
em o
ĠL ib
et uer
ac h
Ġill o
Ġill um
h ib
Ġi r
Ġdic it
y p
s it
u ti
Ġund e
1 3
Ġincid idunt
Ġm und
v e
Ġm us
Ġi gitur
us tr
Ġv ul
Ġu ti
y r
Ġim m
os c
1 4
Ġn eg
uis se
ĠDe o
er ent
u um
U M
Ġl at
Ġcaus a
on i
Ġdolor em
an is
Ġs en
in us
Ġsp ir
Ġconsect etuer
Ġn asc
Ġaliqu id
Ġ1 0
1 9
Ġer r
ant es
Ġre gn
Ġsu um
Ġf er
Ġill ud
Ġcr ed
t ut
li us
Ġp ut
in ae
ect um
ĠU n
m n
p lic
Ġun ivers
ĠI ta
ĠR e
ĠQu od
ĠA c
Ġsu am
id ic
st r
ip i
Ġint ell
im o
Ġl ong
Ġc el
Ġep iscop
Ġa per
ation ibus
Ġm un
qu is
in de
y s
Ġ2 0
ur g
Ġor din
eb ant
id er
Ġp et
Ġcon tin
Ġ1 2
eb r
Ġv os
t os
Ġst ud
Ġer it
Ġdic itur
Â »
Ġmagn is
ĠS p
at u
ri g
Ġdix it
Ġse u
id it
Ġeffic itur
I S
ic e
Ġs ae
ĠP l
Ġb ell
Ġpr ob
im a
um que
ĠA ug
um m
ĠG raec
ent er
Ġn omen
Ġdu o
om o
Ġb ene
Ġh os
Ġaliqu ip
Ġt o
an ae
Ã ¡
ĠFr anc
Ġmon tes
Ġc ui
end is
Ġr atione
u o
Ġc u
ĠA b
hil os
Ġad m
at em
r it
Ġc er
id e
Ġres pon
ab o
e qu
ar d
Ġ q
ur a
and i
Ġv obis
er d
Ġun um
Ġc an
Ġn ato
emp l
Ġnos tra
Ġp ac
Ġprim um
Ġm ar
Ġh uius
Ġnomin e
Ġter ra
ect a
Ġp u
ĠâĢ Ķ
Ġtu a
Ġn ull
is i
ent o
ĠQu i
Ġs ent
ot h
i gn
Ġd um
ens i
on s
ĠÂ «
Ġf ort
Ġc ol
âĢ ¦
Ġsoc iis
Ġloc o
Ġe ff
Ġali a
. "
ĠP a
Ġse qu
Ġnato que
Ġfin ibus
ĠP at
ĠE r
Ġali is
Ġ1 4
Ġv al
Ġlit ter
Ġm ut
1 1
Ġar g
Ġpen atibus
ĠT he
qu a
Ġfor m
Ġi bi
it ia
ĠCom m
Ġmin us
Ġin ven
Ġob s
2 0
S ed
Ġpar tur
Ġvir tut
on em
ul os
ĠT r
Ġc ulp
Ġper f
Ġan ti
y n
ĠP ar
b er
Ġomn i
Ġa ff
Ġc eter
Ġsu i
e que
Ġsol um
Ġper tin
Ġqu Ã¦
s a
Ġr idic
Ġcup id
n um
Ã ³
Ġrep rehend
Ġpartur ient
Ġd em
ĠS c
Ġill is
ep it
Ġvol unt
ĠG r
Ġs ens
i atur
on um
Ġcons ul
Ġnasc etur
on es
u v
Ġ 0
in am
Ġab s
od em
Ġr el
Ġapp ell
Ġl ing
Ġp ag
li a
Ġfac ere
Ġ it
Ġsum m
ion ibus
Ġre li
Ġsim ul
Ġridic ulus
O N
Ġsal ut
id em
Ġ1 3
er etur
ĠAn g
ut us
or ia
ĠI m
ra g
ĠC aes
Ġmax imus
ere a
ab at
ic am
Ġexercit ation
Ġlab oris
in em
ic h
Ġnostr um
Ġpar te
tion is
u erunt
Ġt ant
Ġmis er
Ġn atus
it io
f r
ar io
Ġfu erit
od o
ĠC or
Ġv estr
ab it
hilos oph
Ġs aec
Ġvoluptat e
i es
Ġ tim
im um
C C
Ġd ist
Ġe v
es se
Ġar ch
ĠEp iscop
A E
Ġqu oniam
Ġc re
Ġsup ra
Ġtr ib
end it
Ġc og
A N
Ġpr Ã¦
Ã Ń
ant e
Ġpr od
E t
Ġdic ta
Ġexp lic
ĠDe um
Ġpr i
Ġpr om
Ġullamc o
Ġmaxim e
Ġd ed
anti bus
Ġt h
e v
ec ti
al iter
Ġsc i
Ġre x
Ġgr ati
Ġdi es
Ġcon tr
ĠV ir
Ġse x
ĠP et
O R
Ġun a
ĠI II
Ġn oc
Ġre bus
ol a
Ġh anc
un ti
tion es
Ġa it
ur r
il icet
issim a
Ġl oqu
Ġculp a
Ġid em
p ici
Ġad vers
Ġer ant
Ġreprehend erit
ari is
Ġm ir
E N
Ġb eat
ĠG al
Ġoffic ia
Ġre i
ili o
esti m
a x
Ġc ael
Ġtu um
i er
Ġprim is
en a
p ut
v inc
Ġsi gn
li m
Ġdi lig
oh ann
Ġsp ect
a ur
Ġme i
Ġfec it
ĠP er
im is
Ġin g
Ġprop r
Ġan g
Ġo f
Ġh er
Ġfr at
is ti
p et
ic orum
Ġfr atr
id ent
A n
at ae
Ġsac erd
ĠP on
Ġor d
Ġhab ent
ol um
at ia
Ġre lig
ĠC ap
v a
ux ta
ĠN ov
Ġhomin es
ali bus
Ġh omo
ĠEccles iae
Ġad h
Ġposs it
Ġis te
Ġqu orum
Ġpra et
en edic
Ġips o
Ġnostr i
Ġf ugiat
Ġs atis
ĠI es
an orum
Ġsc ilicet
Ġvit a
Ġu x
r os
issim i
ĠO mn
Ġtra d
Ġi ure
i orum
en us
D F
Ġter ram
Ġgen er
at orum
Ġfi eri
Ġt unc
Ġqu ando
e per
Ġin i
ĠQu id
Ġt ab
Ġnum quam
ac t
Ġ *
Ġm et
Ġm and
Ġc al
u et
un g
Ġl icet
L I
Ġdolor es
Ġme um
ĠS ac
Ġfac ta
Ġsc rib
Ġips am
Ġas per
ali a
us tin
Ġvolup tas
Ġre f
en se
Ġas s
c ep
V I
Ġmagn i
n on
ec und
ul ae
C an
Ġcorp oris
n i
Ġdi v
Ġet c
Ġi is
Ġpar iatur
Ġcon i
itat ibus
Ġe adem
ĠS ic
Ġs erm
Ġ ost
ill um
Ġv ix
Ġips i
ĠG erm
A d
Ġd et
Ġvid etur
ili us
o x
. )
Ġad d
Ġb e
issim um
Ġdisc ip
id i
Ġdes erunt
Ġa ur
u erit
Ġh u
Ġop us
Ġop p
Ġhomin um
Ġe odem
Ġhis tor
Ġhab it
Ġilli us
Ġt est
o ti
issim e
ul g
ess us
it ut
Ġad i
Ġsae pe
av i
Ġar b
Ġin quit
Ġm ens
Ġfili us
Ġmil it
li b
Ġm uli
Ġh unc
Ġtot am
Ġr et
end am
Ġd il
Ġips ius
Ġdi em
cc e
Ġqu e
Ġloc um
Ġlab orum
Ġqu ad
on a
Ġc a
il es
te a
ul orum
Ġd iss
ĠDomin e
Ġf ut
E S
A R
ali um
x it
Ġdi vin
en it
Ġper m
Ġp ass
Ġpar s
Ġsu cc
ir i
Ġ iter
el li
itudin em
el lig
Ġmat er
Ġter r
p ect
l et
Ġhab ere
. ]
Ġc op
Ġpos se
U t
ĠÂ §
Ġprae dic
in ta
ra ph
Ġd im
r up
Ġid eo
ae d
2 2
l o
Ġex empl
m us
Ġmul ta
Ġt ac
Ġped e
Â Ń
Ġin dic
ĠD ec
umm y
er us
av erunt
Ġcirc a
ĠI oann
gni fic
ĠSanc ti
t on
ĠS al
Ġ Ã
er em
ess it
Ġpo ter
and a
Ġin de
ang u
er r
ĠX X
Ġd ub
p ar
Ġvid e
Ġmin is
Ġpar tem
ĠDomin o
ĠSp ir
ĠâĢ ĵ
2 5
eb us
Ġb re
ĠS crip
Ġv i
Ġsu ae
Ġnon ummy
Ġa equ
Ġnatur a
Ġcon ven
2 3
en ae
anti a
Ġaut e
at am
Ġali ud
2 4
ul it
ra h
u us
Ġver itatis
Ġc ust
Ġe dit
ĠAp ostol
Ġadh uc
Ġn ob
Ġre v
Ġ x
Ġint ellig
u ae
Ġp hilosoph
Ġocc aec
Ġ Z
Ġin tr
Ġred d
Ġv ig
Ġa eter
Ġlib ri
u am
and ae
Ġd ol
ac ob
Ġdi ff
Ġqu antum
Ġa et
Ġfac tum
ĠI ll
i ens
Ġprae f
ĠN os
Ġf uisse
Ġprim o
Ġpor ro
Ġfili i
ĠL e
or g
Ġmem or
Ġex s
ĠIn ter
Ġl ic
itud ine
Ġap ostol
Ġreg is
n am
Ġpr es
Ġo ff
ĠA s
qu ae
Ġ Q
Ġerr or
il iter
eb atur
h et
t ent
Ġt ui
Ġdeb et
Ġita que
i unt
ĠS t
Ġir ure
Ġm ot
Ġcorp us
N on
Ġdi vers
ĠH oc
Ġt ex
E x
ĠI d
Ġanim i
Ġ on
Ġun us
at os
Ġsanc ti
f ac
Ġinv ent
Ġman u
Ġop tim
Ġpr ec
Ġ1 1
ĠV en
b is
Ġw isi
Ġbon um
Ġm iss
im i
er ant
itud o
itat es
ĠQu ae
c e
ĠI ud
ĠB r
qu ir
Ġtu am
ti a
Ġquis quam
ĠI V
in qu
Ġali i
Ġd edit
iss ent
Ġtempor a
Ġper pet
I N
ĠL uc
and em
Ġdi u
A T
ĠM on
3 0
Ġr ect
as t
Ġf und
2 8
Ġposs unt
Ġpro x
gr eg
ĠV er
er int
Ġc illum
Ġgr atia
Ġprim a
ĠC r
ath ol
Ġpr os
Ġc unc
Ġvit am
ĠF l
ĠDomin um
m i
ĠEccles ia
Ġmul ti
ec um
Ġh od
ĠE st
ot e
Ġn emo
os s
ud i
y st
Ġop ort
Ġfug it
Ġper ic
Ġpr iv
Ġcust od
Ã¦ c
ĠCon s
am p
Ġs er
ili i
Ġt or
en n
ur i
ar r
Ġ k
l us
Ġquid am
Ġcel ebr
Ġea que
Ġoper a
ab ant
Ġqu ar
p p
Ġdes c
Ġqu ant
Ġam b
Ġpra est
s u
um us
Ġcon dic
Ġc ub
Ġcirc um
es ci
" .
2 6
2 7
ĠÂ »
Ġpos tea
issim us
ĠHis tor
ang eli
ĠGerm an
P DF
on ium
Ġverb a
er es
om odo
Ġsi gnific
ĠV I
l ar
Ġpr ius
Ġfac it
] .
ol it
l in
Ġpro vinc
Ġver um
Ġe qu
Ġali as
Ġp auc
Ġp al
Ġintell eg
Ġex t
ĠV ic
ar ch
ur um
o ed
Ġme us
Ġn av
o k
Ġf it
Ġconst itu
Ġ <
pr ob
Ġm ov
Ã ¢
d us
tor es
i arum
Ġacc ep
Ġt it
b r
Ġde inde
e a
Ġc ul
at ores
it ionem
Ġus u
Ġv im
i or
Ġcog it
e ant
Ġprop ri
Ġg aud
Ġman us
as ter
Ġme am
Ġdom um
c um
2 1
ent us
Ġmul tis
ĠM at
n is
Ġf ab
ul as
ul am
ĠCon c
I V
Ġprop os
Ġe arum
il em
ro g
Ġomn em
li ae
Ġaper iam
Ġver s
pr et
n atur
Ġep ist
Ġcl ar
pici atis
s al
Ġven it
as se
Ġquibus dam
ĠJ es
Ġdoc tr
Ġconsequ atur
ic em
Ġd on
tr um
Ġann os
Ġpat er
Ġqu at
Ġsu os
Ġpar tes
mod um
ic os
Ġfid em
it r
Ġpec un
Ġmagn am
l is
Ġcomp l
Ġfr uc
Ġbon a
Ġdi ebus
Ġpu gn
Ġi ud
Ġn esci
mod i
Ġas sum
Ġill ustr
Ġgra v
ĠS ch
Ġf ere
Ġim ag
Ġbeat ae
te ur
Ġe lig
iv it
I C
Ġobs erv
Ġa ux
Ġtu o
ĠAn no
Ġar m
Ġtr es
Ġfam ili
eb it
Ġeius dem
2 9
ori os
pr ess
tr ib
Ġh as
Â «
ĠIm per
ĠH ier
Ġis ta
ĠN ec
Ġf uer
Ġcor am
I T
it h
on d
ĠJ ohann
Ġse qui
Ġal t
oc h
Ġhomin is
Ġr est
Ġf al
Ġpers on
b ris
Ġeccles ias
E M
Ġre per
Ġann um
Ġexc ep
Ġcogn osc
em a
Ġarch it
ĠC ic
ĠQu am
Ġper c
Ġpraec ip
p ic
Ġnostr is
Ġpop uli
en um
Ġpl us
Ġas c
A li
b a
Ġin im
om m
Ġdist inc
Ġint eg
v o
Ġin gr
issim o
Ġpers piciatis
at at
iss a
cep teur
Ġquae dam
Ġmod i
Ġr atio
Ġtempor ibus
Ġex tr
it ae
Ġloc is
Ġ ist
ĠV ol
ell a
" ,
Ġfid e
Ġinvent ore
Ġill am
Ġpop ulo
Ġm atr
as ti
Ġoccaec at
ĠCon st
Ġpra eter
Ġmul t
Ġpro ident
oc r
am entum
Ġmiser ic
C ap
tr i
ar etur
ĠN e
Ġ um
ep s
l em
ar ent
at es
id um
Ġi uxta
ĠH aec
Ġanim a
P r
ar em
et is
ec im
Ġpro vid
qu od
ĠD av
Ġqua er
U L
ab ilis
u gn
Ġs oli
Ġmund i
Ġun o
. :
Ã ¨
Ġ ?
ĠTh om
Ġvir i
Ġl ap
Ġspir itu
Ġcupid atat
ul c
Ġ[ ...
ant em
Ġd en
im e
Ġaccus antium
âĢ Ķ
Ġv inc
o gn
Ġeg r
i it
Ġlaud antium
Ġsub st
li um
Ġadipisc i
âĢ Ļ
ĠS ecund
C um
Ġsc h
ĠD i
Ġeccles ia
es ta
Ġdomin i
lib et
l a
ut um
Ġpo tius
ĠHis p
Ġj am
ar iae
d o
Ġf irm
ĠS uper
ĠI p
ec it
ĠS ep
ĠT er
Ġdic ens
Ġi b
ux it
Ġdom us
ul t
ĠPon tific
Ġs angu
uet ud
it ione
Ġmort em
Ġe as
Ġan d
ĠEp ist
Ġod it
Ġspec i
at oris
Ġomn ino
Ġi uris
3 5
un i
m o
ĠUn de
Ġhomin em
Ġcap ut
S i
Ġrespon d
Ġtam quam
ĠA cc
Ġarchit ecto
on iae
b um
Ġf ur
Ġgra ec
Ġfam es
o ok
Ġs ti
3 9
Ġsu as
Ġ Î
Ġme o
Ġp uer
Ġconsequ untur
Ġdolorem que
Ġnostr o
Ġdic ere
3 4
Ġr og
Ġreg em
ĠChris tum
ĠChris to
ĠEr go
ib li
ĠG en
ol is
eni que
c on
Ġips is
Ġher ed
Ġfili um
Ġpar tic
Ġp ati
O M
Ġin tra
Ġsac ram
i ores
an os
Ġd am
ec tio
et h
Ġb y
end us
Ġmoll it
Ġgl or
ĠĠ Ġ
Ġess ent
ĠR es
Ġter rae
Ġanim o
Ġomn e
on ia
ot a
Ġa v
Ġqua esti
ĠChris tus
Ġann is
Ġch risti
Ġinter pret
ar a
Ġat t
est um
er ibus
ĠF ac
V II
l um
Ġing en
oth ec
Ġm erit
Ġplur a
ep h
Ġl e
ect is
ĠVir g
ĠDav id
Ġh a
ĠAn ti
ĠQu a
ib er
Ġfin em
Ġprop het
Ġanti qu
per a
A M
Ġexplic abo
Ġvir g
m in
Ġverb um
Ġfacilis i
Ġfor te
Ġit em
it ter
Ġper d
Ġpraec ep
ec es
ec h
tion ibus
Ġf ig
3 6
ĠEx cepteur
Ġhod ie
Ġrep ell
Ġeccles iae
Ġquin que
Ġfid ei
tat em
and am
inis tr
ĠAr ch
en r
om us
Ġcl am
Ġaud i
Ġex tra
Ġ os
Ġconst it
Ġbell um
Ġmod um
um en
r on
Ġnos ter
Ġ2 5
Ġmolesti ae
Ġf re
Ġ y
Ġs tr
Ġc ens
Ġius to
al og
ĠQu o
ĠA eg
Ġgen us
Ġconf irm
Ġnesci unt
ĠN eque
4 0
ili bus
Ġpr imus
Ġam p
ĠP atr
Ġc ant
ĠI uli
un a
er entur
ĠE dit
Ġcu jus
Ġpa uper
ol ae
Ġcr uc
p us
ĠE n
Ġsu bi
Ġtot um
est is
ĠAn ton
Ġm edic
Ġdic endum
Ġex is
Ġl ud
] ,
ĠAl ex
er ci
âĢ ľ
ĠE v
it ati
Ġasper natur
Ġtot a
s is
D onec
ob us
Ġh or
ĠB ar
Ġa ll
3 1
itat um
Ġapp ar
.. ..
Ġpos ter
Ġtor qu
ac tat
Ġper ven
ĠP etr
Ġverb is
Ġsacerd ot
ĠRom ani
ĠRom ae
Ġinc idunt
Ġregn um
fic i
ĠFranc isc
Ġr ationem
Ġfratr es
d a
Ġhomin ibus
Ġc ert
Ġdomin us
Ġmiseric ord
ic it
ĠM ag
Ġdis put
C on
Ġnatur ae
Ġs il
et a
3 8
ul li
Ġut rum
Ġ Ã¦
li bus
Ġto tius
Å ĵ
ation um
Ġb enedic
i Ã¦
Ġt em
ĠâĢ ¦
Ġsol uta
Ġcaus am
Ġ z
Ġre fer
Ġsum us
es e
Ġann i
ĠQu is
ap tis
ĠJ oann
3 7
l am
ĠC oll
Ġab b
Ġ2 4
el ic
b e
an am
en is
ani f
Ġcorp ore
edi fic
an u
\ \
Ġad v
s o
ab atur
Ġul tim
inc eps
Ġop in
ĠU r
it am
Ġdem on
Ġceter is
r uc
Ġposs et
o w
Ġs or
Ġstat im
ed ia
Ġali o
ĠAc adem
ep iscop
Ġn ol
Ġv ari
ar es
ĠMar iae
ant is
Ġ om
ĠS oc
n ae
Ġtu ae
Ġcor rup
Ġu el
Ġt estim
Ġpop ulum
ĠLib er
Ġc od
ris t
et e
Ġex per
ĠG e
V III
Ġhu jus
ĠIta que
Ġarb itr
Ġcap it
Ġill os
5 0
id is
Ġo lim
Ġqu omodo
Ġm er
id a
o u
Ġlib ro
Ġa qu
Ġmed io
Ġcons uetud
ĠAug us
i fic
Ġfac tus
ĠO c
Ġcomm ent
ĠComm un
Ġqu ic
ĠPet ri
Ġreli qu
Ġposs ess
eb antur
Î ½
Ġarg um
Ġh ora
Ġius tit
gn um
Ġus us
a ut
Ġdef in
olog iae
ĠP ol
Ġoport et
ĠV al
i f
Ġali os
Ġabs ol
Ġoffic iis
Ġtu us
ar g
Ġlab or
ens es
r orum
ere b
Ġurb e
Ġtr act
ap h
Ġinc ep
ĠE d
Ġs usp
iet atis
r em
Ġex erci
Ġv est
in ti
Ġsim ili
O S
ĠAlex and
ic arum
ar n
ĠMa x
k e
Ġi ur
Ġiter um
mod o
ĠI tem
quid em
Ġad eo
Ġdes ider
ĠG u
r im
Qu od
3 3
Ġcum que
Ġacc ip
u isset
Ġnon n
Ġsoc ios
M a
at im
et erum
Ġmul to
Ġqua es
Î ¿
tat e
Î ±
ti g
Ġdec em
Ġp as
ĠA g
Ġor ig
id es
Ġost end
Ġalter a
Ġsing ulis
Ġminim a
issim is
per e
Ġ Ð
Ġmon aster
tr o
Ġgrati am
. '
ĠP ap
ĠO b
ĠL eg
Ġa edific
u f
N am
Ġe cce
Ġcons ec
Ġde x
Ġin n
Ġpr edic
Ġdes crip
ĠH enr
Ġgen ere
ĠP ost
ed ere
re p
ĠI N
pect u
in d
er tim
Ġsum ma
ĠA ut
m at
ĠD E
atu or
Ġtempor is
y l
av erit
ol arum
ĠE go
og raph
Ġm anif
ĠIn d
uc h
ĠS im
Ġs per
Ġe ven
Ġpop ulus
Ġd onec
Ġurb em
ati v
Ġdi ffic
ĠIes u
Ġadvers us
ĠAug ustin
Ġpul ch
b y
ĠIs rae
Ġpr ot
esc rip
Ġv ia
Ġt ation
ent orum
l ud
i episcop
Ġmal um
4 5
Ġm ore
Ġsep tem
Ġinst itu
ĠN um
Ġfu erunt
Ġtu is
Ġa gn
Ġmort uus
ec tionem
ti i
en am
ĠC at
Ġex ter
Ġde p
Ġob l
Ġh arum
Ġn un
ĠN ic
Ġpot enti
ĠE l
ĠH ic
Ġpl ate
Ġus um
A TI
Ġpat ris
esti g
ĠC an
tr is
Ġling ua
ion um
Ġm el
Ġcan on
el icet
Ġfor ma
Ġcomp os
Ġcl ass
Ġ2 6
7 8
ili pp
ĠC al
Ġv eter
on ym
Ġspir itus
ĠAeg yp
Ġre gni
ĠT e
¿ ½
ar t
Ġj udic
Ġleg it
ĠIn c
Ġh i
in es
Ġdom o
ï ¿½
Ġad ul
Ġ[... ]
ĠV II
Ġexis tim
Ġl ect
enti us
ĠPr incip
tur a
Ġl o
Ġd ux
Ġlit ora
d is
h t
3 2
Ġrec us
Ġp ere
id o
an ia
Ġvirtut e
ĠAn d
Ġd a
ĠCl ass
Ġtr ibus
Ġse a
Ġaliqu ando
A L
ĠE ur
ĠM o
ĠE T
ation i
, âĢĿ
Ġ2 8
Ġleg e
h or
Ġh inc
t ore
Ġsac ri
Ġm ensis
Ġr ad
an iae
Ġv ere
m en
R I
Ġgl oria
ĠC iv
ĠD oc
ĠLat in
ĠS e
end as
Ġpra em
am ur
et erea
Ġanim am
Ġf em
Ġex hib
ĠP aris
Ġsucc ess
Ġm ori
Ġpra esent
Ġauctor itate
n us
Ġign or
at orem
Ġexp ed
Ġ3 0
A r
Ġconv ers
Ġme lius
Ġfac ile
um p
Ġ2 00
is it
c om
Ġqua erat
Ġde i
Ġmai ores
ĠIsrae l
Ġpr ud
Ġc athol
Ġord ine
in ibus
Ġsal v
Ġstat u
Ġpost ul
ĠX II
Ġma j
Ġdec ret
Ġsanc tus
Ġscrip ta
Ġimp edit
b o
enti o
Ġdic unt
s crip
ĠB rit
itas se
Ġnec esse
Ġcomp ar
Ġdi vis
Ġtac iti
gn a
Ġpro hib
r ed
Ġnecess itatibus
Ġem end
Ġ2 1
Ġt oll
Ġcub ilia
Ġcons ilio
Ġv t
A S
ĠM D
. âĢĿ
Ġhu ic
Ġv ac
ĠS en
r ic
Ġm it
Ġf on
P ro
Ġbene fic
ĠB enedic
Ġa lic
Ï Ħ
a z
Ġm erc
ĠAd d
Ġ2 7
r es
en iti
Ġsum p
Ġer ud
Ġecclesias t
it ium
ĠD ic
Ġd enique
ĠSpir itus
Ġad hib
es te
XX X
Ġap tent
Ġdes er
Ġn esc
A t
Ġmagn o
Ġcon ub
Ġg ub
Ġ2 9
Ã º
ĠS ent
eg or
Ġme li
s ed
Ġam pl
ell um
. [
Ġloc us
Ġquod am
Ġi i
o f
on om
g a
Ġsanc t
Ġsim plic
us s
Ġa qua
u ven
Ġgl ad
Ġpar tibus
Ġ ^
Ġpar um
4 4
Ġnum ero
Ġ2 2
il eg
O L
ti di
ol us
Ġmul tum
Ġfid el
ĠT emp
itud inis
Ġven er
Ġre ver
est in
ĠC as
Ġun ius
Ġc ae
Ġpost quam
Â °
pr im
Ġaliqu o
ĠG l
Ġsing ul
ĠCur ae
Ġini qu
Ġsocios qu
Ġrep udi
ĠN emo
Ġme is
at as
Ġt andem
Ġsanc torum
ir et
Ġla et
Ġqu atuor
Ġali orum
Ġfug a
E T
ur us
Ġc ad
ut e
Ġplate a
Ġpon tific
Ġn im
ĠI acob
Ġdic o
Ġcr im
ar di
ĠGe org
Ġcon greg
Ġcur a
os a
Ã «
i u
Ġalter um
ĠB ibli
ĠMar ia
ĠP os
Ġlib ris
Ġver a
in s
Ġpl eb
Ġsequ itur
ĠC ol
enti arum
Ġhab eat
Ġde v
Ġman um
Ġelig endi
c umque
Ġrelig ios
Ġh aud
Ġc olor
E C
6 0
ĠB as
Ġconub ia
w w
ĠV ide
Ġnomin a
Ġdi o
Ã ¼
Ġlong e
ĠPh ilipp
Ġten etur
Â §
ĠPr op
Ġrec ep
ĠPetr us
Ġven i
Ġvid elicet
ĠCaes ar
Ġcon dit
Ġde us
h o
Ġm are
4 8
Ġuti l
ur am
Ġplur es
Ġv iam
ĠT ur
ati us
Ġdec lar
rah el
Ġaliqu is
by ter
Ġfre qu
ĠS am
eli um
Ġcommod i
ĠQu ia
ol o
E p
em or
Ġcons ider
s unt
ĠV III
Ġd up
Ġp ap
Ġocc as
and is
ĠUn ivers
Ġdu obus
ĠL ud
Ġn unti
an tiam
Ġpecc atum
Ġul tra
Ġcons ilium
ĠPr ae
Ġinter f
enae os
Ġhab itasse
ens em
Ġtorqu ent
Ġh ost
atur a
Ġcl er
Ġfili os
Ġspect ant
A c
Qu i
tor is
ag e
Ġ =
on ibus
Ġloc i
y c
Ġinf ra
Ġincep tos
Ġs in
Ġ2 3
Ġsu orum
Ġ ort
tur i
Ġd ia
end ere
Qu id
h a
orios am
ec tione
ĠX I
Ġquam vis
ĠAn n
und em
ĠB e
Ġfu erat
ab ili
Ġm ale
Ġdiff er
ĠO p
Ġdel ic
Ġnostr ae
ĠP om
Ġm edi
ard us
5 5
ur sus
u as
Ġsalut em
Ġsu ffic
Ġsent entia
Ġm orbi
_ _
Ġin di
Ġbell o
ĠA th
U R
Ġch ar
Ġfili o
Ġreg ione
ĠM in
Ġleg em
ect u
Ġurb is
ĠA fr
Ġpag ina
Ġsimili que
Ġinf irm
Ġfac ul
Ġdio eces
Ġ ull
Ġs on
od i
Ġc at
ĠV id
ĠIs rahel
ab ula
ac ta
Ġdomin o
Ġminis ter
t y
ĠBrit ann
Ġh im
Ġdemon str
á ½
ĠAm en
4 6
Ġi ub
< /
os eph
Ġprop e
Ġsup plic
ag inta
ar ibus
Ġamp lius
4 7
ill e
Ġfili is
Ġv in
4 9
Ġpraes id
Ġspec ies
Ġvic tor
Ġdol orum
Î ¹
Ð °
Ġpot uit
Ġexerc itu
Ġprincip es
Ġnov a
ion i
Ġf iat
Ġglor iam
eg it
V ic
in as
ĠP ers
Ġdi g
Ġcer te
Ġnull o
5 8
e um
ĠâĢ ĺ
ĠOr d
Ġcor de
Ġman ibus
Ġvoluptat um
li am
Ġfuer int
Ġrec ens
Ġdictum st
ĠIud ae
Ġocc id
ut is
ra v
Ġpraes ertim
Ġciv itatis
- -
Ġl iter
Ġocc up
Ġgen eris
iv i
Ġex ig
ĠPra eterea
a u
Ġad f
Ġl ev
Ġdiscip l
Ġ â
Ġdel ect
Ġdeb itis
ati ve
Ġbon is
ab unt
Ġdu os
Ġr en
Ġsuper i
Ġposs imus
at oribus
Ġhab uit
Ġfrat er
U N
Ġtant a
et i
Ġhum an
Ġejus dem
Ġnull um
Ġun am
ĠC ant
it es
Ġtr an
Ġs ese
ĠOr din
P ra
ĠA rist
ĠP al
end ae
ĠJ ud
Ġc ib
itt ere
ĠPat er
Ġ {
Ġcons ens
) :
Ġg entes
tion um
en c
Ġstud io
Ġdu od
Ġs yn
Ġad j
Ġoc ulis
ĠH er
) ;
ĠEur op
p end
Ġpotest ate
ĠM ed
Ġer unt
or n
ĠC o
l ex
Ġre quir
Ġang el
Ġmor te
ari orum
an quam
Ġsu ff
N ov
Ġval de
am en
Ġde fend
ip s
ĠÃ ł
ĠComm ent
Ġqu ot
Ġal iter
Ġs an
Ġluc em
Ġordin em
Ġmatr im
ĠJes u
Ġvid it
Ġ ore
Ġpublic a
Ġmis it
âĢ ĵ
ĠI o
Ġob tin
ĠP o
Ġnoc te
ĠM or
Ġvul g
Ġnatur am
Ġaccus amus
ĠS ol
Ġpac em
ur ae
ber g
ĠĠĠĠĠĠĠĠ ĠĠĠĠ
Ġepiscop us
Ã ²
l eg
ĠO pera
Ġl ine
Ġm ilia
Ġiudic ium
Ġtr ium
Ġcupid itate
Ġlab oriosam
Ġn em
Ġm o
Ġins ign
Ġtot o
Ġnot e
E tiam
T h
Ġu ir
et um
ĠN o
Ġpotest atem
ac ula
ens ium
tu or
ip pe
ĠX XX
in ere
Ġlib ros
ip ot
ar b
ab ile
Ġpraes entium
Ġop tio
Ġanim ae
ĠV el
Ġnostr am
Ġmot us
Ġv es
Ġdel eniti
Ġs enti
Ġa ed
Ġcas tra
Ġconc ess
Ġpat et
e am
Ġthe olog
ĠD om
Ġhuius modi
Ġord inis
7 0
Ġmal a
e f
C I
t erea
ĠS te
ĠIn st
Ġpropr ia
Ġquis que
L at
Ġm ox
O mn
Ġcar n
ab is
ĠRom anorum
Ġprae d
Ġcommun e
Ã³ m
Ġt ut
Ġhim enaeos
Ġeccles iam
gr ess
Ġconf ess
Ġplac eat
trib u
Ġciv itatem
Ġex ist
itat us
ati um
Ġdic i
c o
un que
Ġbon orum
Ġf oed
Ġn ullam
Ġhabit ant
D omin
ĠR ex
ĠAm er
Ġrect e
Ġqu um
ac ulum
Ġdis pos
Ġ ]
Ġdiv ina
i alis
Ġscrip tum
ĠS ub
Ġded uc
ĠM an
Ġexercit ationem
Ġnon um
t orem
ĠP hil
Ä ģ
ĠPa ulus
em bris
ix it
ĠThe od
Ġsim il
ti f
Ġn arr
Ġciv itate
end os
m um
r ius
Ġvoluptat ibus
ot um
/ /
Ġex st
Ġdu as
ĠD uc
ĠIes us
Ġdam n
Ġfu isset
Ġbre v
Ġpublic ae
Ġdel ectus
ed unt
Ġloc utus
Ġv as
Ġvir tus
ĠR h
e unt
ti or
Ġsep ar
Ġneg oti
en o
Ġtur b
Ġdistinc tio
at ic
ot is
us tra
om e
Ġc it
D I
Ġduc imus
reh ens
Ġab st
8 0
Ġp p
Ġprod uc
el a
9 0
ĠCon f
Ġ ol
Ġmagn um
ass et
i j
ĠPa uli
Ġsecund o
ĠM iss
ar iam
Ġali us
T it
ĠJ acob
L iber
ĠEv angeli
ĠCommun ia
it em
ta v
i que
Ġvir um
Ġinf in
Ġsacri fic
er g
Ġoc ulos
Ġexerc itus
Ġr ap
E L
Cap ut
Ġadm inistr
Ġs omn
Ġsol us
4 1
Ġprae b
6 5
ab antur
ĠT est
Ġsep tim
Ġsent entiam
Ġl ex
Ġepiscop i
Ġar d
Ġm ans
Ġlitter is
Ġtrib un
Ġl ux
ic on
r ac
ĠQ U
ĠF ab
u ers
I m
Ġfaci em
it iones
Ġvul t
ĠM ac
tur ae
= "
Ġill orum
Ġacc id
Ġgl ori
e as
Ġd er
im edia
ĠI t
ĠD iv
ec tionis
Ġsecund a
ĠQu ibus
ĠB ern
ĠReg is
Ġs ustin
en im
ĠP or
o ur
Ġposs int
4 3
Ġm ortis
Vic imedia
Ġ ~
or io
Ġnov um
Ġsign um
Ġoc to
Ġpat ri
Ġrespon dit
im ur
ir um
C h
ĠL a
Ġob lig
O r
ari os
Ġinter rog
Ġsep ul
Ġreg e
ti v
Ġmoll itia
Ġvel ut
Ġexped ita
Ġpatr em
I B
Ð ¾
Ġserv i
Ġmai or
H aec
Ġmolesti as
is ter
Ġd are
N unc
Ġor atio
Ġconc ed
ac i
Ġcorp ora
s s
b urg
Ġquat tuor
6 7
Q U
Ġp ol
Ġpertin et
Ali quam
g raph
issim ae
Ġsol v
Ġceter a
V estibulum
4 2
ĠAt que
ĠA uc
Ġdic untur
Ġvid entur
d iv
Ġsae p
ĠM ich
Ġib idem
Ġnum er
Ġinst it
othec a
Ġrepudi andae
ĠE cce
Ġnull us
eper unt
y th
ab or
on ii
it ionis
ĠB on
Ġinf eri
Ġrec ogn
Ġacc ipi
Ġj uxta
ul e
il li
ĠH e
Ġmagis tr
Ġi ri
Ġg em
erm in
Ã© n
Ġi uv
Ġd ata
ĠB o
or ium
Ġtant o
Ġaliqu ot
Ġvest ra
ar unt
Ġvig inti
ĠN ihil
A C
Ġleg is
Ġmund o
ĠGr egor
Ġr om
8 8
Ġtra dit
Ġ- -
Ġfl um
Ġprovid ent
Ġcoll eg
d u
Ġpar v
on io
ĠEccles ias
ĠA N
Ġqu arum
ĠM et
Ġp isc
Ġexp l
Ġs ane
Ġor i
ĠS em
6 6
qu o
ĠAp ud
Ġimper ium
b ra
e atur
Ġg entium
Ð µ
Ġdix i
ĠH ab
ĠI us
erum que
Ġc ess
ĠPra es
Ġc entum
Ġfid es
ĠA pr
ĠR ec
Ġinst rum
Ġco el
5 9
ti z
us que
Ġme ae
v el
Ġl um
v m
Ġamb ul
Ġvoc em
Ġter m
ĠR erum
Ġrel ic
Ġmater ia
ib ile
pr op
Ġsumm o
ul arum
ĠA qu
ĠP R
Ġdic am
Ġcael o
s ch
c r
ĠE a
Ġma li
ĠI ohann
Ġsoc iet
und i
Ï ģ
at er
un ic
Ġsac ra
Ġips os
Ġar ma
tat um
est atis
Ġabs que
ell o
p i
el mus
Ġh ort
Å ¿
Ġux orem
âĢ¦ ]
it orum
Ġa ure
t t
Ġt ecum
id erunt
ĠH eb
P h
Ġsol a
ĠMa gn
a y
Ġips orum
es aur
Ġcons erv
Ġmon ach
ĠL ic
Ġoffic ium
ĠS unt
on te
Ġsen ectus
Ġling uae
Ġ_ _
Ġpl ant
ĠA D
er ius
F r
enti is
Ġadm ir
Ġel oqu
Ġpa ulo
ĠH el
Ġb ap
ĠC od
Ġcomm end
Ġoper e
5 7
Ġsec um
Ġleg es
ut h
Ġvin dic
s ic
p it
ĠOmn ia
Ġm yst
Ġrel inqu
Ġver sus
Ġini ur
Ġblandit iis
Ġexp os
ent u
Ġcons pectu
Ġo v
im ae
Ġmul tos
Ġposs id
ann o
Ġ Y
5 6
Ġprof ess
Ġsanc to
ĠC a
ĠO ri
Ġb elli
Ġdignissim os
Ġ ui
Ġloc a
Ġc av
est o
ĠP as
Ġh Ã¦c
Ġc Ã¦
Ġvoluptat es
Ġvir is
Ġante a
Ġdub it
ĠArist ot
on dam
Ġcorrup ti
Ġcont ing
y ri
ĠRes pon
em n
Ġanim um
Ġali um
ĠS u
Ġsanc tum
is tis
ort un
Ġdi r
Ġimp ed
N ulla
Ġterr arum
Ġob i
Ġa u
ĠSanc to
C ur
Ġper fer
Ġqu ippe
Ġel eg
ĠE m
ip ere
A P
ul ta
Ġeven iet
Ġbon i
Ġpr or
Ġf ine
Ġexcep turi
ĠCor n
ad modum
Ġl up
ĠI un
Ġdomin um
Ġcomp et
Ġtex t
Ġs ur
Ġv ariis
m ina
Ġcap ite
at ore
ĠP hilosoph
Ġ 00
ĠE ius
ae i
D uis
Ġsol et
Ġind uc
Ġn up
in n
a i
Ġfaci unt
ĠEpiscop i
Ġadd uc
icum que
Ġhon or
Ġiudic io
r op
Ġtrans l
Î µ
Ġbe ati
Ġf elic
Ġter tia
Ġf ore
ĠLib ri
ab us
Ġnun quam
ar entur
ĠSte ph
ac ia
ĠI X
erunt ur
Ġplur ibus
ĠM us
Ġtr actat
anti ae
ĠC athol
Ġalter ius
Ġfac to
Ġnon dum
Ġc ec
ex it
ĠG all
ect ae
Ġn orm
ĠEccles iam
ĠCap it
Ã ł
m is
u erat
ic as
ĠS a
Ġcael um
ad ip
ĠS ab
ing u
ĠQu in
Ġsub s
ĠRom anum
Ġh om
ĠT u
Ġconi unc
Ġcunc tis
Ġconst itut
om mod
Ġsen atus
Ġcon gr
Ġet si
Ġfratr ibus
Ġab sc
6 9
Ġa quam
ot us
Ġa gr
Ġpere gr
Ġac tus
Ġali am
Ġmulti plic
R e
7 7
6 8
Ġacc epit
t yr
Ġtr ia
ĠIoann is
Ġin u
Ġtab ern
Ġsanc ta
ĠIoann es
Ġag ere
ĠA ur
Ġad s
on us
an em
Ġpot entia
Ġconc ep
it tit
Ð ¸
Ï Ĥ
ens ibus
st antibus
Ġam ic
Ġpl en
Ġter tio
ĠO ffic
Ġdolor ibus
Ep ist
Ġapp et
Ġmilit es
ĠMar tin
am ento
it iam
S anc
Ġten eb
isc um
Ġubi que
b at
Ġob sc
Ñ Ĥ
Ġhab ebat
Ġpar iter
Ġlitter as
Ġpro fic
Ġt alis
ĠIn s
Ġn uper
and us
Ġdix erunt
ec c
Ġad or
Ġt anquam
Ġcogn ov
l y
Ġ[ âĢ¦]
Ġv etus
ĠDe inde
Ġpro v
a k
Ġform am
Ġqu al
Ġdeb ent
Ġvoc e
n es
ĠD is
ĠS erv
Ġverb o
Ġfili a
Ġsol is
S T
uis ti
ĠV olum
ĠR ep
ĠT unc
ol v
f l
p ir
Ġcor r
Ġinter c
Ġan c
er am
ĠS ax
Ġb r
im am
Ġnec non
m on
ĠD Ã³m
ell ae
Ġgen era
lo ad
Ġdes ign
ĠR ob
Ġassum enda
Ġmem oria
ĠâĢ Ŀ
Ġsim iliter
ĠB aptis
Ġped es
or o
Ġa eg
Ġm ense
= âĢĿ
Ġn imis
ĠT um
tor ibus
Ġu id
Ġpon d
Ġfut urum
Ġfac iam
Ġux or
aed ia
9 9
Ġinst itut
Ġconsec r
ac tus
Ġhon orem
Ã© r
ĠSanc tus
Ġvir o
f t
Ġacc ur
si gn
Ġ )
y ll
â Ĩ
Ġreg i
H is
Ġac tu
Ġa st
Ġsem el
5 3
iss ert
Ġvi ol
Ġill ic
ell is
p ens
um entum
ii i
Ġpartic ip
Ġg est
Ġdic ti
ess et
ĠEpiscop us
Ġag it
Ġpar tim
und um
ut o
Ġn etus
Ġregn o
as i
Ġ +
Ġsec ret
Ġprop on
Ġob li
5 4
Ġquad rag
Ġcl aus
Ġad dit
x x
Ġquin qu
5 1
ici endis
ĠS er
Ġsu av
Ġob t
Ġval et
ĠC am
Ġsc ire
Ġimp l
ĠP ublic
Ġde pr
Ġqu ondam
Ġcur r
Ġsapi ente
Ġeffic i
um b
Ġoffic io
Ġacc ess
i erunt
ici is
Ġsp l
Ġc and
Ġscrip sit
Ġveh em
Ġvul n
iss um
Ġpro ut
Ġminim e
Ġfruc tus
ĠB al
Ġdoctr ina
Ġhos tium
ĠInter dum
n load
Ġomn ipot
s erv
ĠL oc
Ġproc ur
c irc
Ġrest itu
Ġscrip s
ĠB el
A enean
p ro
Ġsign a
ĠS ex
ĠCar din
Ġmaxim a
Ġbap tiz
y d
Ġam ore
atur ae
Ġtestim onium
Ġco epit
I X
Ġcol lig
Ġt yp
l ine
Ġcon j
Ġmet u
ili ae
Ġter tium
Ġd ur
Ġm om
ĠPat ris
id us
Ġasc end
Ġann orum
Ġcons ci
Ġfort un
ĠM el
Ġsci entia
Ġexp et
ĠD em
Qu isque
ĠX III
Ġpac e
Ġpoter it
ĠV UL
Ġ4 0
it os
Ġdi vid
ĠConst ant
ia li
Ġv et
Ġiri ure
Ġn ub
Ġmuli er
on t
ĠSep tem
olog ia
5 2
Ġleg ibus
Ġvirtut em
Ġvolunt ate
ĠS it
Ġdesc end
Ġconi ug
Ġlib rum
ĠFl or
ĠAr g
Ġconf er
Ġpers ec
Ġqu are
Ġhab emus
t atis
enti as
Ġsal tem
ĠAn t
ĠS ci
Ġm ur
Ġcaus is
Ġf av
ĠVic ip
Ġpro eli
am enta
re v
ĠAnd re
ar c
ĠLud ov
ĠJ o
Ġor bis
Ġpres byter
Ġd ulc
Ġed uc
I M
Ġinv idunt
isc i
Ġtex tum
Ġhomin e
Ġi uven
Ġrepell endus
Ġprincip io
Ġd etr
Ġspl end
ĠAng el
Ã ¹
Ġinst ruc
iss is
ri x
issim am
Ġv end
ir mod
eb am
ĠV erum
tu a
Ġpraecip ue
R om
Ġmed ium
Ġvid ere
Ġg er
Ġminis tr
Ġvol umus
t ob
7 9
Ġa estim
Ġt rig
ĠS yn
I ta
emp e
' .
u os
Ġpat re
Ġpo et
er im
Ġign is
erus alem
esc it
j s
Ġp unc
et etur
Ġsens us
eli us
ĠRom anae
: //
Å į
Ġf oli
Ġoper ibus
re x
H oc
7 5
Ġpot es
Ġcommun i
Ġcae li
Ġsti p
Ġd at
Ġh orum
Ġconst at
ĠIt al
Ġnomin is
uer int
Ġe idem
ĠRom ano
Ġdef ens
ol am
ĠH or
Ġextr em
Ġan t
A l
ĠS umm
Ġrecus andae
Ġver itatem
Ġ ulla
Ġd orm
sc ing
Ġquad am
Ġor b
ĠCon greg
av imus
in os
ĠB er
Ġleg ere
ĠMar c
Ġpr inceps
Ġgub ern
Ġnonum y
ĠEdit io
Ġt ent
Ġer ga
Ġdef unc
el es
te x
Ġvir tu
A m
ĠS S
ĠOrd inis
9 8
Ġf inis
Ġde o
ĠGerman iae
Ġrep et
Ġexerc itum
Â» .
Ġverb orum
Ġin vid
ĠPro vinc
em at
Ġarm is
Ġh uc
Ġfac ti
Ġpecc ata
Ġcaus ae
Ġrev oc
Ġmund um
Ġhomin i
Ġdic at
ĠPar s
Ġsusc ep
Ġquid quid
erit is
Ġe irmod
Ġmod os
ĠU bi
Ġnob il
Ġpraet erea
Ġmun ere
ar o
6 4
Ġneg o
f i
adip scing
ĠSanc torum
Ġmemor iam
Ġc am
ar s
ĠS yr
âĢĿ .
Ġu er
Ġcompl ect
ĠS tat
Ġdomin e
av erat
Ġhost es
Ġreg es
Ġin itio
Ġcas u
est us
Ġlitter arum
Ġex cus
Ġmil itum
Ġlo qui
Ġrec ipi
Ġsac r
ĠM os
Ġind ig
op olit
und us
Ġver itate
u imus
or te
ili is
Ġp iet
Ġfili orum
ĠL itter
Ã ¶
Ġfac iat
C or
ab iles
ĠH om
Ġm ari
ĠVicip aedia
ĠĠĠĠĠĠĠĠ ĠĠĠĠĠĠĠĠ
re xit
Ġaux ilium
Ġs adipscing
Ġe c
ac c
Ġcondic iones
l av
Ġposs umus
Ġproc ed
Ġpr on
Ġinv icem
Ġin quam
Ġ uit
ag es
Ġs a
Ġm alis
ĠF ilius
Ġarch iepiscop
Ġgr eg
ĠMat th
Ġaliqu od
Ġf ra
ip sum
Ġre iciendis
Ġm ente
Ġduod ecim
Ġter min
eb unt
Ġinven i
d uc
Ġvoc atur
Ġper cus
Ġcondic ionibus
Ġtemp lum
b et
ul erunt
Ġsent entiae
T A
Ġopp idum
Ġprop or
tit ia
to li
ĠAb rah
Ġm oribus
Ġinc olarum
Ġde um
od uc
Ġsaec ulo
Ġloqu itur
Ġelit r
6 2
ra vit
Ġaliqu em
Ġsu pr
alog us
Ġost endit
Ġanim ad
ant er
Ġaet atis
Ġnum erus
Ġconc lus
ĠLat ine
Ġb arb
Ġdilig enter
ĠCl aud
ter a
Ġquae que
l oc
p x
Ġperfer endis
Ġf rig
Ġad ol
Ġmod er
Ġsalut is
ĠAl b
Ġprincip ium
ĠVirg inis
Ġr ob
Ġpropr ium
ĠRom am
Ġviv ere
] ;
Ġnum erum
] [
em ur
Ġvirtut is
Ġfratr em
Ġhab eo
Ġdet ermin
Ġper sequ
ul ari
Ġbon o
ĠP sal
Ġcr edit
Ġdec ima
Ġindi gn
Ġtract are
n ec
Ġcommun ic
Ġab und
Ġvol uit
ĠP DF
Ġad modum
Ġcas t
Ġad ven
tif ex
T he
Ġt ris
Ġmun us
8 5
Ġm ecum
Ġvir orum
Ġante quam
ĠOmn es
Ġn ut
Ġquad r
Ġa e
Ġvolunt atem
el e
Ġquem admodum
E G
ad e
or us
Ġnecess aria
N ullam
am m
ĠX V
Ġm entis
h er
Ġfer re
Â ª
Ġciv itas
Ġc amp
ĠCaes aris
Ġpl ane
Ġu ol
Ġvoc ant
Ġd atur
ĠSpir itu
Ġvul go
6 3
am i
Ġintr o
ac k
or s
8 7
ĠK al
ĠIta liae
on am
Ġmal o
Ġe andem
n os
in arum
á ¼
ĠL iv
Ġbre vi
Ġasper iores
Ġt ene
Ġu ero
Ġfl or
ĠC el
ur rit
ĠAug ust
m ann
C ras
ĠX VI
Ġf un
Ġdec ern
Ġserm o
n ot
6 1
ĠTr in
ĠLat ina
Ġm itt
ab ilem
ro que
Ġel ect
Ġsangu ine
ĠD olor
ĠP ot
Ġut rius
ĠC ON
Ġproc ul
Ġe undem
Ñ Ģ
Ġsaec ula
Ġde pos
Ġexempl um
Ġam or
Ġter ris
Ġ3 1
Ġvolup tua
Ġst ul
ĠL aur
Ġbib li
um ma
Ġrepell at
Ġhon ore
C L
8 9
on ae
Ġr ursus
um enta
' ,
Ġcons etetur
rag m
Ġs emp
Ġcel eb
ĠH a
l u
Ġuti que
li o
Ġp ic
ĠIs a
Ġquant o
Ġspir itum
Ġconc ord
Ġres p
ul aris
Ġfec erunt
Ġgrati as
n as
ĠQua esti
7 2
ĠF er
Ġsacerd os
c a
Ġoper am
Ġtrans m
Ġrev el
Ġpecun iam
ot o
in orum
ĠV ita
ug ur
ĠColl eg
ĠM il
Ġcunc ta
S h
Ġa re
Ġc ern
es is
r u
È ©
Ġunivers a
Ġquam quam
Ġpauc is
ug a
Ġcons crip
tur b
Ġpec uli
an as
Ġde os
ĠMD CC
Qu ae
ĠAng lic
ol as
ĠH ung
ĠAb b
Ġmod us
ĠAugus ti
Ġmin or
Ġcop ios
ĠT ra
ac e
9 5
Ġsapi entia
Ġl arg
Ġv ox
Ġpoter at
Ġf all
ĠSal v
ĠL ab
Ġcons ol
Ġpri or
ug d
Ġac tum
itur g
esti bus
eper it
Ġdic tus
Ġpra escrip
M orbi
ĠIn f
Ġmagis ter
ĠCic er
Ġs ust
C re
ti ae
Ġsub j
Ġpriv ileg
Ä ĵ
u ia
Ġfin es
Ġpos tr
Ġtra h
tent r
ĠD el
ĠThom as
Ġpr ol
c is
Ġexs pect
Ġc api
ĠA ll
Ġd uis
ens um
Ġrelig ionis
Ġimper io
Ġpers ona
Ġaud ire
Ġa quae
Ġaeter num
ab iliter
ĠF ebr
Ġdic eret
p s
at rum
ĠG er
Ġp olit
Ġoff er
Ġstud ios
y am
ĠD ie
I A
Ġvir os
C ons
Ġsaep ius
ĠL aud
Ġpatr es
Ġref orm
ĠRom a
Ġ ic
Ġin qu
y pis
Ġn ig
ect or
Ġtem per
ĠGal li
Ġutrius que
Ġintell ectus
Ï ĥ
Ġvestr i
ar m
Ġcons ist
s p
Ġhab eant
Ġplac et
7 4
Ġin m
Ġe quit
it ibus
Ġob st
ĠV atic
Ġar te
Ġserv us
8 2
Ġexp on
Ġdup lic
h ab
8 4
ĠGal lic
ĠThom ae
Ġsanc tae
ĠM ari
ar y
Ġm entem
Ġc ent
I tem
Ġfac ie
Ġhab ens
ang el
ĠJohann es
Ġfort asse
Ġins id
Ġsp es
Ġpublic e
est ate
Ġnostr orum
Ġb aptis
ell e
p ta
Ġmed ia
Ġimp os
ĠAcadem iae
at ori
u jus
Ġcont emp
Ġdia b
oc i
ĠM erc
Ġnot a
Ġquat enus
ed e
ĠM al
ĠA ch
R es
Ġret in
l as
Ġposs ent
Ñ ģ
ib ern
er os
I L
Ġor a
ĠQu are
am enti
ĠAegyp ti
Ġoper is
Ġsens u
O P
eo graph
Ġdix imus
ici i
Ġn ud
Ġpen itus
id io
Ġnot is
Ġdem um
Ġmagni fic
Ġhum ana
Ġpo enit
i ensis
ĠAt t
Ġhistor ia
Ġco tidi
Ġn atum
Ġlaud em
Ġr ub
Ġv ill
ĠC irc
id ium
ĠPro f
E D
I AE
ic ulum
7 6
que b
ĠFr ider
Ġpecun ia
ti as
Ġsuff rag
ĠO cc
ĠHier onym
U T
z e
O C
7 3
Ġpror sus
ĠCh r
Ġ ....
ĠPat ri
Ġcr ud
Ġc ali
Ġum quam
Ġmor s
Ġre vers
ov ers
Ġimper ii
anu arii
Ġt ale
ĠSic ut
ĠM ul
Ġsanc tific
Ġst et
Ġprim i
esc ens
9 4
Ġvid eri
ess i
Ġan imus
g en
v ol
Ġh e
ect e
Ġvide atur
os toli
M aecenas
P er
Ġt ali
Ġb eni
Ġres urr
ess um
ĠI dem
ĠâĢĿ .
esc ere
Ġpos uit
Ġquar ta
Ġpropri et
âĨ ĳ
ip p
Ġserm one
Ġcommun is
ĠSanc tae
Ġrest it
Ġbon us
Ġeccles ie
ĠT it
ĠThe olog
ĠD ixit
Ġsac ris
8 1
Ġdic entes
Ġmyst er
tam en
Ġvoc ab
Ġsacerdot es
ĠA ud
Ġm aris
Ġsusp ic
Ġar tic
9 2
ĠR em
Ġquic quid
Ġi ug
tribu tion
Ġs eri
Ġpac is
ĠL ing
t enus
Qu a
8 6
Ġmisericord ia
Ġsp em
Pra esent
Sh are
Ġaccus am
ĠPet ro
Ġprop terea
9 3
h ort
i ac
it or
H ic
Ġred uc
ĠOc tob
Ġsol lem
ir ent
ti l
Ġperm an
ĠP ri
Ġius sit
d om
c rib
Ġut roque
Ġp ud
S ic
ĠComm ons
Cre ative
ĠPl in
Ġven ire
ĠVol up
ob stantibus
Ġalt are
Ġagn osc
Ġev angeli
Ġfort una
Ġt om
Ġsemp iter
Ġimper ator
Ï Ģ
Ġang us
ĠAt tribution
Ġacc ed
8 3
us us
ĠF oed
issim os
Ġacc ommod
O D
Ġe b
ĠLic ense
Ġex am
ĠMich ael
di u
Ġex press
Ġt ang
Ali ke
Share Alike
Ġper g
Cur abitur
Non obstantibus
Ġquic quam
Ġfi unt
ic ibus
Ġexp ect
9 7
A B
Ġcoll oc
Ġnam que
pl ex
al t
ĠVen et
Ġvir ibus
ec tiones
Ġlib rorum
Ġdeb eat
A p
Ġid que
ĠAugustin us
Ġmagn us
0 1
Ġplur imum
ĠE u
ĠCum que
Ä «
Ġp asc
Ġdic to
A b
Ð ½
Ġnostr os
Ġ #
ĠSoc ietatis
Ġgl orios
Ġm ores
Ġgr at
h el
Ġpertin ent
Ġtrig inta
ĠArch iepiscop
circ o
Ġca eter
Ġsusc ipi
Ġpr em
Ġc iu
ĠE ph
Ġpecc ato
up let
Ġn empe
9 1
ab b
Ġa str
omin us
Ġhab etur
Ġgra vi
Ġhos p
Ġpl erumque
Ġvolunt as
ĠprÃ¦ s
Ġv ali
ĠC ui
un e
Ġcas tris
, ...
or ta
ĠL ex
Ġaet ate
Ġi ra
Qu am
Ġvid eb
Ġv ent
ĠE s
Ġrev ert
ĠAp oll
ĠU l
T r
i ani
C H
Ġposs um
Ġnonn ull
Ġcont enti
ĠUr b
er tus
E P
Ġciv itates
Ġfrat rum
ĠS tr
Ġar tis
Ġfam a
ab untur
ĠIn dic
ĠHistor ia
Ġest is
Ġr ation
ĠJ uli
Ġvestr um
u tio
m ine
ĠRom anis
Ġhum anae
Ġw h
ĠN ot
* *
ac tum
Ġprovinc ia
ĠD uo
Ġinv oc
ĠA ustr
i em
C at
Ġde orum
enti i
Ġpl ag
Ġco ep
Ġsim ilis
7 1
V ivamus
ar us
f orm
Ġman e
ĠI am
Ġocc urr
r eg
ĠD es
0 9
Ġtrib u
Ġar tific
Ġimm o
Ġpo ena
T emp
Ġexc ell
Ġpatr ia
Ġven erunt
Ġm end
Ġvestr is
Ġprae par
Ġfaci es
Ġreg um
ĠB ab
ac ter
od us
ol d
Ġed ita
ĠB eat
Ġspec ie
h oc
Ġmat ris
ĠT omus
Ġgrati ae
iti as
Ġsi g
v et
Ġcaus as
OR UM
it te
al a
Qu is
m e
Ġim it
Ġj ure
Ġu oc
Ġto ti
eli bus
Ġhab eret
Ġaliqu yam
Ġind ustr
Ġcontin u
Ġinn oc
Ġhac tenus
ĠJ oh
Ġa eque
Ġr ationibus
Ġdivers is
ĠCap ut
Ġor atione
i ant
Ġsp e
Ġdic tis
Ġpublic am
Ġb as
Ġpotest as
Ġj ur
on ius
p ot
Ġpur g
Ġmar g
Ġin op
Ġcert am
Ġa tr
Ġsuper b
ell am
it iv
Ġdu ae
0 5
Ġnov i
Ġver itas
Ġis ti
Ġdesc rib
Ġper se
ae v
ĠRom anus
ect am
Ġex aud
Ġcor dis
ĠP op
Ġcal c
Ġn at
ath ed
C omm
ĠB ook
k i
Ġcorp or
ĠEcclesias t
Ã Ł
Ġauc tore
9 6
ĠG o
Ġpar tis
Ã¡ n
Ġdi ei
Ġmedi ocr
Ġtemp orum
Ġmerit o
ĠIp se
Ġi re
ĠCl ar
Ġpat rum
ĠNic ola
ĠRom ana
Ġhum il
ĠCon tra
0 3
ect etur
Ġpas tor
tur am
Ġcomm emor
ur sum
ell as
Ġag itur
ĠPet rum
ĠM e
Ġam icit
Ġf o
Ġquo ad
Ġsi ue
Ġnatur alis
ĠN obis
ib ilis
Ġcom ed
" >
ĠF ilium
Ġcor n
. âĢĶ
Ġoccaec ati
Ġhistor iae
Ġg entibus
EN T
Ġf ol
Ġb esti
Ġput ant
E st
Ġsumm um
Ġmut atio
ĠâĢ ¢
Ġanim al
Ġsaec uli
Ġtu os
Ġinc or
Ġ á¼
Ġb is
ĠS il
Ġconsens u
Ġargum entum
ĠR ed
ĠS ar
Î »
E go
In c
S S
a in
Ġnesc io
ĠL ugd
Ġs at
orum que
Ġor ationem
Ġt yr
it iae
Ġm ille
ĠAc ta
eli x
ĠH inc
ab ilia
ur n
De us
Ġv an
ĠIs ra
ur s
ĠChris t
Ġins crip
ĠGen er
Ġinc lin
Ġsangu inem
r il
D E
ĠHistor iae
ĠL ips
Ġanim os
ĠPom pe
Ġcar c
Ġhum ani
ĠJoann is
Ġdic imus
Ġn it
Ġmod is
Ġcer ta
s que
Ġnav ig
Ġ3 2
op oli
ĠV is
N eque
id erat
y g
Ġglor iae
Ġmisericord iam
Ġali en
Ma uris
av e
ĠBel g
ĠI oseph
Ġde li
u tionem
ĠI ov
Ġdes tr
Ġli gn
Ġcirc iter
Ġfra ud
Ġm enti
Ġcont empl
0 2
Tit le
Ġreli qui
ĠEurop ae
ĠF ilii
Ġsol o
et eri
Ġins uper
ĠIuli i
a h
ĠPr oc
Ġd issim
ĠApr ilis
Ġinter im
C ar
Ã« l
Ġrem iss
Ġqu er
tor ia
x i
Ġegr eg
ac ulo
ĠIta lia
anc ell
er ti
T ER
Ġcon tig
es i
Ġloc orum
Ġs el
ĠT ab
ĠAs s
ĠQu em
g u
ra que
Ġcl em
on o
P ellentesque
Ġprim am
n s
Ġexp edit
Ġl umen
Ġpl ena
ĠCr uc
Ġcom es
Ġdis per
fer re
ĠI st
Ġlitter a
ĠPra ec
Ġb ook
Ġperic ulo
Ġpraef ect
ĠV itae
Ġ3 3
ĠMa ii
ens a
Ġloc uplet
ĠIes um
I US
Ġling uam
Ġpa x
m ata
Ġv ices
ar on
Ġconc up
ĠCan on
Ġre qui
c f
Ġsol ent
Ġme os
Ġvir es
ĠTr ans
Ġperic ulum
Ġviv it
ĠMar tii
t ing
Ġh eb
et o
ĠFebr u
ĠSal om
und a
ĠIn v
Ġalter o
Ġped ibus
ad is
Ġor ient
iss em
å ½
Ġpraecep ta
am b
Ġr u
Ġsignific at
Ġurb s
qu isque
Ġv ex
ĠS ec
ens us
Ġfl uv
Ġliber tatem
ĠFrancisc i
Ġmon te
Ġcar din
Ġnunc up
ĠÃ Ĩ
iam us
ĠQu oniam
uc ius
Ġim pr
Ġfili am
Ġs is
o per
Ġ3 5
ĠP P
issert atio
Ġver i
Ġinc ipit
Ġcr as
ĠT im
v s
Ġconstit uit
^ ^
Ġnorm am
Ġpecc atorum
Ġsanc tis
ĠJes us
ac hi
Ġre bum
Ġc Åĵ
ĠSac ram
Ġtrium ph
Ä Ļ
Ġdeb ere
0 6
Ġgra dus
Ġp end
Ġappell antur
Ġv inum
Ġvel uti
Ġcirc uit
actat us
oc in
ĠX IV
Ġvis um
ĠCl em
Ġperpet uum
ĠAm b
Ġn ata
Ġv eterum
Ġvid i
ae us
Ġsc r
Ġrec ip
ĠMag is
r ia
or sum
P ost
ĠAr ab
Ġvit uper
Ġr ationes
Ġcap ita
S uspendisse
Ġth esaur
ĠGraec i
Ġutrum que
Ġprof ecto
Ġb en
und o
ĠSt ud
Ġc f
Ġvol o
Ph asellus
Ġdepr ec
os e
Ġscrip tis
ĠCh ron
0 4
Ġalic uius
Ġp sal
S t
' s
Ġmar ty
P l
Ġd atum
Ġis to
EN S
Ġliber a
Ġcar nis
Ġsing ula
tim us
Ġsacerd o
Ġspeci em
Ġsecund us
an iam
Ġvis it
ĠM edic
Ġ ..
Ġeff ectus
ati i
Ġdom i
Ġtur p
Ġph ys
n er
Ġexc el
Ġocc ul
Ġali ae
Ġv estig
Ġbeni gn
Ġit inere
å½ ©
N ec
Ġmai orum
id ia
ur o
er ere
ac um
Ġs eni
0 7
I O
ĠprÃ¦ c
Ġfrat ris
ĠVolum e
Ġcar o
Ġdivin ae
ĠEx c
im as
Ġem p
Ġhab itat
ĠPl at
Ġsoli d
ĠSecund um
Ġput o
itt itur
Ġr ationis
tin et
Ġop orte
Ġperic ulis
ur ia
Ġpropr io
C l
ard o
ĠPrae f
ĠRom anos
Ġtu as
In t
Ġquaesti o
id ere
Ġcur am
Ġpol lic
et u
Ġli m
E r
0 8
it iis
Ġapp aret
ĠAugustin i
Ġres ist
Ġadm on
al d
Ġadi uv
og le
Ġno x
Ġcap tiv
el uia
ann i
Ġciv ibus
Ġcontin entur
ĠCaes are
Ġaut h
Ġten et
Ġhab ita
ĠR o
Ġap prob
Ġoc ta
In ter
Ġfam ilia
Ġind ulg
Ġcond ita
v ae
Ġiustit ia
ĠAbrah am
Ġpa enit
Ġmal orum
Ġnecess itate
Ġord o
N ote
Ġreg im
n de
ĠMa gni
Ġpropri e
Ġlic eat
Ġred emp
ĠA v
ĠMat er
Ġposs im
V S
tat es
In d
Ġtrib ul
Ġs Ã¦c
ĠInd ex
Ġf ic
Ġingr edi
Ġj uris
Ġ3 4
Ġvirtu tibus
Ġquo ti
ĠOmn is
Ġbe atus
ĠApostol icae
Ġfec erit
Ġepiscop o
ym b
h um
Ġfid elium
ed o
and os
. ;
ĠPatr em
Ġp oll
ĠGr ati
od ie
Ġphilosoph ia
ĠCh ar
Ġvirtut es
Ġali enum
Ġmatr em
Ġmon str
u orum
Ġdoctr inam
Ġit in
ĠB a
Ġon line
e k
An no
Ġordin es
on ensis
Ġr edi
Ġs urg
id ens
Ġconven it
ĠPr imum
A D
Ġut raque
Ġprincip is
Ġsubst antia
Ġper icula
Ġdoc et
ac to
Ã¹ m
Ġfi ant
ĠS equ
u ic
Ġaur um
Ġmot u
Ġcer tum
Ġdi erum
iss o
Ġlat ine
at que
Ġ !
Ġstud ium
ĠE um
Ġvol um
Ġprovinc iae
und e
t s
in it
P a
tion i
Ġperpet ua
enti or
Ġregn a
Ġop pos
Ġdec lin
Ġk al
ĠMo ys
Ġf asti
Ġquadrag inta
Ġproc ess
Ġed idit
Ġpecc atis
Ġe quidem
in ter
ĠP s
Ġanc ill
CC L
p a
Ġe dic
Ġtit ulo
Lat in
Ġn ulli
ĠH on
Ġpro gr
Ġi ura
Ġfruc tum
Ġcon tem
Ġapp lic
ac us
c ons
Ġs ter
ĠIsra Ã«l
ĠH erm
eper at
ĠIll ustr
ĠB en
Ġpu eri
us quam
Ġcomp on
Ġis tis
Ġcol um
Ġpatr iae
ĠD ion
Ġsub ito
Ġcontr overs
p ell
Ġir r
ec onom
ĠPas ch
c l
Ġeis dem
Ġpar ti
Ġde fic
u en
Ġsing ulos
ĠN or
Ġp ell
Ġdiffic ul
Ġfl umen
ĠEr at
Ġfac ilius
Ġign em
Ã³ n
I ll
ĠGraec orum
Ġha eret
Ġscrip torum
h ic
ĠSc ip
Ġsens um
Ġconv ert
Ġdiss enti
Ġvid eo
eb as
Ġappell atur
ĠB l
Ġm ac
Ġorb em
ĠM is
id am
Ġlib enter
Ġref ert
i z
ul lius
us alem
od um
Ġvoc ibus
Ġnecess arium
y le
Ġoc uli
Ġmanif est
Ġiud ices
Ġv ine
i entes
Ġf a
Ġneg leg
, "
Ġi uc
qu ia
Ġpa ene
Ġfl ag
Ġinven ire
ec a
ĠSanc tum
Ġin itium
ĠBab yl
th ag
ĠP ic
i orem
Ġsub lim
Ġde inceps
Ġcomp rehend
Ġexempl o
ĠP is
m et
ĠIud a
ĠMac ed
Ġqu alis
ĠC f
ĠC ass
t arum
ĠVer g
ti is
put atio
itat a
Ġd estin
Ġdisc rim
l d
Ġdu abus
Ġconv iv
ĠC amp
Ġhab es
Ġrec ord
gr en
ĠH ug
Ġquant a
eb o
Ġquo tidi
Ġgub er
Ġsatis fac
Ġcons umm
Ġqu oc
... )
Ġserm onem
Ġid one
ĠPat re
ub i
Ġl in
Ġspect at
Ġcon tum
ber tus
et iam
Ġinc on
Ġsit um
Ġu en
Ġoport ere
ill o
Ġmun era
ĠD isc
Ġsed es
Ġin num
Ġw ith
Ġhos tibus
ĠThe ologiae
Ġvel le
re vi
Ġpraes ens
uc c
Ġpatr iam
Ġreli quis
Ġdign um
ĠIoann em
ĠH ibern
ĠS up
Ġsp onte
Ġluc e
Ġg entis
Ġtran se
Ġprae pos
u tione
ĠSac erd
Ġdi vit
Ġmet h
Ġalter i
Ġsub m
os que
Ġgr am
Ġdi rig
eli i
Ġj ud
itat u
Ġter rit
ĠX L
as que
Ġcomp rehens
ĠDec ret
g e
Ġus ur
er ed
ĠHier usalem
t en
Ġa er
Ð »
Ġep ic
op hi
di fic
ĠM i
Ġl atr
ĠInst itu
Ġcor rum
Ġfid uc
e amus
us a
Ġaccip ere
ĠA sc
Ġcas us
Ġob sequ
Ġs yst
Ġim press
el mi
Ġleg itur
Ġaud it
Ġpa ul
omm unic
ĠV oc
Ġda em
Ġsci entiam
ĠIm p
ĠPap a
Ġac adem
ur es
Nov issima
Ġali bi
Ġtum ul
ww w
ĠI gitur
ĠAnti och
Ġn i
Ġfor o
Ġist ud
Ġscrib it
ĠP ort
ĠB ib
Ġpraec ed
Ġill as
ĠR uss
Ġrespon s
AN C
r ich
Ġfac iet
Ġlong a
Ġsp ons
Ġciv ium
Ġcl ita
al lic
Ġfuer ant
Ġmand uc
Ġpropos itum
Ġsumm am
id ibus
Pro in
Ġrem an
are at
Ġam ici
Ġguber gren
ĠE i
Ġt ol
Ġtemp lo
Ġquar to
Ġ >
Ġst up
und am
ĠAng liae
id ie
Ġinf er
ĠT ro
Ġopp ortun
ĠW il
Ġac tio
Ġcop ia
Ġob edi
Ġmund us
ol e
ac o
Ġoptim e
Ġmun ic
Ġvirtut um
ri i
Ġcarn em
ĠV it
unc ta
Ġ3 6
Ġscrip tor
Ġconc lud
Ġmem bra
Ġr ecta
EN TI
ac ch
ĠT abula
ĠConst itu
Ġv estim
ĠH i
ĠNos tri
eb is
Ġpublic o
Ġpraet erit
ĠOb serv
Ġex prim
Ġhod i
Ġaff irm
Ġmult itudo
ari as
Ġund ique
ĠG a
Ġred dit
Ġperson ae
s am
Ġmon tem
l er
ĠOri ent
n oc
Ġmilit ibus
ĠAcadem ia
Ġciv es
ĠHenr icus
Ġtr ip
an im
ĠT ac
Ġcal am
Ġmar tyr
Ġp un
ĠE odem
all e
Ġtu orum
Ġsens ibus
Ġconcup isc
ĠS ive
i oris
Î ¼
Ġfidel es
Ġconst ruc
ĠH ann
Ġbell a
c aec
Ġh ec
it y
Ġlup tatum
Ġfac eret
n ic
ven it
Ġman et
ĠAmer ic
Ġg erm
Ġid circo
ĠI bi
Ġac ta
f id
2 00
t emp
Ġdis pon
Ġp ect
ĠH os
Ġsc io
ĠFranc iae
Ġel ev
ĠM er
Ġt alem
ĠB at
Ġt ri
v erit
ĠJ un
ios a
Ġdi ac
Ġmult itudine
Ġop t
ĠEpiscop orum
ĠEpiscop o
Ġmai orem
R eg
Ġt ulit
ĠJ oseph
âĢ ¢
ĠDec embris
D ic
a uit
Ġeius que
Ġinter ret
Ġecclesias tic
Ġcon se
y ch
Ġden uo
eg et
Ġfr ustra
Ġperpet uo
ĠE os
Ġreli qua
p o
Ġinven it
Ġd edic
ov it
Ġins ula
ĠT yp
Ġun i
O G
ĠV ulg
Ġmil les
ĠCic ero
Ġvel let
Ġdom est
os um
Ġimp on
Ġ \\
Ġv aria
n it
er tum
ĠRe lig
ĠId eo
ot he
Ġn ati
ĠPor ro
ĠÂ ·
Ġam orem
Ġsac rae
Ġquaes umus
ĠD ani
Ġdis pens
ĠF am
ĠCon tin
G r
Ġsuper ius
ĠGal lia
F usce
Ġunus quisque
Ġsp atium
ĠO d
ĠâĢ İ
et ae
t ol
Ġam oris
Ġne f
Ġsaec ulorum
ĠSoc iet
Ġadul ter
Ġ3 7
Ġsapi entiae
Ġfamili ae
ĠR a
Ġdoctr inae
Ġpl an
ab il
Ġth is
Ġexc it
isc e
Ġquin ta
ĠA et
ĠApostol orum
Ġqu aec
. -
ĠNov a
, ]
Ġc ito
Ġperd uc
Ġann ot
Ġint enti
Ġf at
ant o
Ġunivers is
L ib
ĠS api
. </
Ġlat ere
or di
Ġphilosoph iae
Ġinc end
Ġmor ta
Ġdign itate
ĠFrancisc us
ĠM C
Ġi ii
Ġper v
ĠJoann es
Ġvolunt atis
Ġcre atur
Ġist am
ĠG ra
Ġprof ectus
Ġd og
ĠAr n
d es
Ġp anem
ĠIn de
ep t
T O
Ġiustit iae
Ġfr om
ĠS ig
Ġper p
em per
Ġproc essus
Î º
Ġc aes
Ġin p
ĠGraec e
D ec
ĠH ol
Ġintell ectu
Ġn a
Ġv ale
Ġfl u
hilos ophi
Ġsupra dic
Ġingen io
Ġingr essus
and as
Ġanim arum
Ġplac uit
iv is
Ġlab ores
ĠL ond
ĠHel vet
Ġm atur
g yp
Ġfec i
ĠJohann is
Ġvid et
ang uis
Ġcons c
ĠIll e
M ar
Ġeff ectum
ĠIp sum
Ġob v
Ġves per
oli a
Ġamic itia
ĠRe gni
Ġins ol
Ġtrad idit
T R
Ġ( ...)
Ġhodi ern
ĠE b
Ġn usquam
ĠE uch
Ġinv estig
Ġstat um
E ccles
Ġpot issimum
Ġint end
AN N
ĠNov embris
Ġpap a
Ġas p
Ġcar ne
ĠOctob ris
Ġminim um
Ġhab itus
ĠE ras
ĠAd am
Ġquinqu aginta
Ġprae v
Ġfi eret
Ġp om
Ġre pr
ĠGal liae
Ġcer to
Ġc t
uli bus
ip l
ĠI os
E X
Ġvari et
Ġu ic
Ġmatrim onium
il a
Ġmer idi
ĠRe ad
Ġc ed
ĠâĢ ŀ
Ġqu andam
ed a
Ġpass im
Ġn il
Ġ å
ĠS erm
o que
Ġv entur
á ¿
es que
Ġdel enit
Ġim prob
ĠD um
ut em
ĠGraec is
ĠC aus
ud um
Ġpos ita
Ġquod dam
ĠFr atr
Ġd onum
Ġr ot
itat ur
Int eger
Ġsacram entum
ĠA B
Ġreg io
c or
Ġgra du
u el
Ġal b
uer is
ac ulis
Ġnomin ibus
ac tis
Ġsub dit
ĠI uris
ĠQu ar
Ġter ras
Ġf ov
ac em
Ġ3 8
m os
n unc
r ium
im os
on iis
uga it
Ġhum ili
a ugur
Ġquos dam
Ġer ip
Ġm en
Ġmuli eres
ae pe
Ġsen atu
D is
Ġm edit
Ġd eter
Ġmul tas
Ġt alia
ĠS in
Ġmir um
Ġetiam si
v am
Ġa ere
Ġtur ba
" :
ec erunt
Ġam icis
Â ł
li i
ab am
Ġvehem enter
Ġpar tium
ĠPr ima
Ġre ad
ĠF id
Ġceter os
ĠIta liam
entes imo
Ġc aec
av is
Ġdub io
ĠC uius
e is
ex t
Ġor be
Ġstat us
ĠM ath
ĠI b
Ġsub l
Ġ5 0
Ġlib id
A G
Ġiustit iam
Ġsub d
Ġpropri is
l orum
N e
Ġduc e
P ag
Ġmal edic
Ġadul esc
ae que
Ġl un
Ġvol uerit
Ï ħ
Ġf estum
ĠW ill
ĠVen er
Ġsem en
Ġrem ed
ĠSp ec
Ġd ona
Ġs o
ili orum
Ġinim icus
ograph ia
ĠMa j
c ap
Ġs abb
ĠM edi
Ġinc ipi
Ġill uc
E n
or ig
Ġsangu inis
ĠS umma
it arum
er p
ĠQu omodo
ug it
ĠJ erusalem
Ġv ad
Ġtab ula
d f
esti um
tit iam
Ġexpl or
Ġtim ore
Ġfig ur
ĠN omin
Ġpron unti
Ġm ach
Ġd abo
Ġfut ura
Ac ta
ull us
er emus
Ġun quam
Ġlaud e
, '
Ġ/ /
Ġanti qui
ati va
Ġasc endit
ĠDion ys
Ġnov o
ĠAnton ius
Ġprincip um
Ġprincip em
Ġper fic
Ġanti quis
C om
Ġvig il
Ġf el
Ġex im
Ġgaud ium
ae um
Ġfe ugait
Ġaur o
Ġmunic ip
Ġglad io
Ġf as
An g
Å «
Ġcl ari
Ġpropr iae
Ġd ari
Ġpatr ibus
v um
Ġf ing
ĠEdit ion
qua quam
issim orum
Ġs ta
on c
ent issime
usc rip
Ġscrib ere
v ir
ĠQu ad
ĠO l
Ġdef ini
Ġexper i
Ġcons p
Ġver bi
ĠX VII
Ġpers pic
Ġsem in
Ġs ax
it ionibus
Ġvid ebatur
Ġdex ter
Ġob caec
Ġpro u
Ġme as
ĠPr imo
Ġperven it
ĠG uli
Ġde g
Ġor ationis
er te
ĠBibli otheca
ĠI anuarii
Ġsed em
Ġmul torum
Ġt ales
Ġid est
ent os
Ġexempl a
ra esent
Ġconf it
tur us
I oann
Ġintr oduc
us it
ĠT H
ĠVer bum
Ġreg ionibus
Ġsalut e
ĠS atur
Ġf ir
Ġas sign
Ġfid elibus
Ġin j
Ġurb es
Ġcap itis
Ġsimplic iter
Ġign e
ae qu
Ġalic ui
iss i
Ġant ec
Ġdec imo
Ġl iturg
ĠB y
or din
Ġfruc tu
u at
ĠCar olus
Ġdign itatem
it it
Ġ ï¿½
um entis
Ġmater iam
ereb at
er imus
Ġh tt
Ġmemor iae
Ġopp ido
Ġull o
Ġprincip ibus
ĠCaes arem
ĠE X
Ġalter am
Ġin ius
Ġacc idit
ĠK ar
ĠPl ac
Ġpossess ionem
ĠD on
Ġstud iis
Ġe ur
ĠCar thag
Ġepist ola
S c
ĠL ac
ar iter
ĠB ur
anc ip
Ġdo w
Ġd edi
Ġf esti
Ġreli quit
ĠFranc orum
Ġliber is
Ġdis trib
Ġis tius
ie w
Ġcons ilia
Ġcom per
an es
Ġiud ex
r b
ow nload
Ġdic ebat
Ġab iit
Ġserv itut
Ġfer ri
Ġin quis
Ġdiscip ulis
ĠE ST
Ġr ite
Ġduc em
Ġr ust
Ġdiscip uli
er er
ul s
ĠHenr ici
Ġmult itudinem
Ġexc ommunic
ros anc
Ġv eli
Ġcl aud
Ġsol e
P ER
Ġv illa
ĠM en
ĠG ab
Ġm ent
er ii
Ġdivers a
Ġclar itatem
Ġaliqu i
Ġmil es
ĠF or
Ġhost em
ĠSeptem bris
II ae
Ġveter es
Ġamp li
Ġsequ untur
u arum
Ġsimil itudinem
as d
ĠFebru arii
âĢĿ ,
ĠT ar
Ġecclesiast ica
Ġnostr as
Ġ3 9
Ġproeli o
ä º
ĠV es
l at
ĠM ore
Ġs ap
ĠB ene
Ġdiscipl ina
ĠRespon d
Ð ²
uc tus
ven i
ĠCor pus
Ġvid eretur
ĠBenedic ti
Ġauctor itatem
Ġa a
Ġper ag
Ġ4 5
Ġull um
Ġadvers um
ub r
Ġim o
Ġmonaster io
Ġprincip ia
it ti
Ġserv um
Ġin tus
ab imus
ĠImper ii
d ibus
Ġcontin et
Ġl ep
ĠLips iae
h us
Ġfre e
Ġgram mat
Ġconven ire
Ġthe ologiae
Ġcor on
Ġsuper st
Ġprec ibus
Ġm etr
Ġvir go
Ġqu icumque
Ġpecc ati
Ġmat h
Ġaeter nam
ine at
Ġde fer
Ġcond emn
Ġdesc endit
Ġcor rig
Ġob iit
e u
Ġhab entes
Ġf ragm
Ġim b
Ġegr edi
Ġinc arn
Ġconf us
ap ud
ter ius
ter um
c unque
am entis
ĠS at
Ġcas tig
ĠO pus
Ġad ep
Qu o
ĠMartin i
Ġaeg r
othec ae
Ġinter fic
ĠChr ys
Ġd imis
ĠPr oph
c at
Ġp ietatis
Ġimag inem
ĠTest amentum
Ġnov em
Ġfec isti
Ġsci entiae
ĠOr atio
Ã ¬
Ġmens es
Ġquar tum
Ġ1 00
Ġleg imus
Ġimper atoris
ĠH anc
z a
Ġtot us
Ġcred ere
Ġad uers
am que
Ġliber um
Ġhujus modi
Ġir ac
Ġvel oc
Ġsc and
Ġcont end
tentr ion
ĠCor p
Ġsanc te
al li
sc rib
Ġy ou
ĠPr es
ĠE cc
Ġobs id
ip itur
ect orum
Ġmot um
Ġfrat re
Ġdisc ere
Ġcomp let
ĠScrip tores
ĠN ob
Ġsim ile
Ġadi ut
onum enta
ec us
Ġcons s
Ġdet ra
Ġoptim um
ĠLat inae
Ġpop ul
ĠH erc
Ġat tinet
ac ul
ĠJ us
ĠEccles iÃ¦
tat ibus
Ġsec ur
ord ia
Ġl av
ot t
P sal
ĠN atur
Ġabb as
Ġcons enti
Ġcr esc
Ġpar och
Ġimp etr
ĠA di
Fr anc
os is
V en
Ġform as
ent ini
Ã ¤
Ġf ulg
er b
os us
Ġdub ium
S ecund
h ac
Ġfac tis
Ġpar i
ĠV inc
Ġper i
Ġerr oribus
ĠChrist oph
i anus
Ġam bi
Ġpr ist
yn am
Ġmonaster ii
Ġ osc
Ġrec enti
Ġliber os
Ġm isc
Ġpublic um
Ġprec es
Ġsaec ulum
Ġtrans f
Ġhistor iam
g g
Ġtyr ann
arum que
Ġmil lia
Epist ula
Ġg esta
Ġmaxim um
Ġobli v
Ġaur i
Ġde put
Ġp anis
ag og
Ġx x
tur um
Ġimp etus
ip ublic
Ġd uxit
Domin us
ĠO s
ĠL in
Ġfili ae
Ġth at
ol ym
y ph
Ġpertin ere
? "
Ã ®
V M
Ġr ip
ol aus
ĠAlexand r
ĠSpir itum
Ġnon ne
Ġpro gress
Ġi ei
em que
ĠV i
Ġnov ae
Ġnego tium
Ġsu ad
Ġmi x
Ġma ius
sch ema
ĠVUL A
Ġg e
Ġimper f
p ra
ĠSac rae
ĠH um
i ore
Ġprom iss
ĠI III
Ġres erv
e antur
Ġmat eri
Ġs ect
Ġcirc ums
Ġher es
Ġperson am
Ġg enti
ari e
Ġoper um
N os
ĠPa ulo
v c
Ġanim alium
Ġmov et
Ġnot um
Ġau fer
Ġcap ti
d ec
Ġf ui
Ġduc es
Ġcomm ut
ĠCar oli
Ġv ias
Ġiis dem
Ġaut hor
ul es
est atem
ab le
Î ·
Ġstud ia
Ġpraefect urae
Ġinter est
ic ia
Ġper t
qu in
Ġad im
Ġvoc avit
Ġplant arum
ĠSa ul
ic io
Ġlib ere
Ġinter v
Ġepiscop um
oc hi
m an
Ġchar acter
Ġdi oc
Ġter tiam
ĠD a
Ġpass us
Ġillum in
ĠNov i
al dus
Ġor g
Ġmonaster ium
O T
Ġprox imo
ab ilium
Ġius s
Ġultim a
it ius
ĠR ad
Ġacc essit
. >
Ġd idic
Qua esti
prop inqu
eb ris
Ġaur es
Ind ex
Ġat trib
Ġmiss us
ĠConstant in
Ġsapi ens
ac ti
Ġsapi entiam
rop ter
p hi
Ġam icus
ĠVir go
LI C
all o
ar it
is m
Ġ20 16
n atus
Ġur g
Ġiub et
Ġliber i
ĠD escrip
no x
Ġprofic isc
Ġaux ilio
Ġsem et
t Ã¦
v erunt
Ġpro per
, [
Ġincor rup
Ġh ym
h aec
s ec
ĠA str
im enta
Ġt orm
id ae
Ġsit a
Ġfig ura
Ġper turb
, ,
av isse
Ġdow nload
Ġsec us
Ġgraec is
ĠC ast
ĠConc ilii
Ġperse ver
Ġop tion
Ġ4 4
ĠO per
Ġnot itia
Ġhi em
Ġhos tis
Ġprov oc
unc tis
ĠMa gna
Ġdic ant
Ġinc red
Ġag ro
Ġ[... ].
c it
Ġf estin
Ġleg i
Ġdoc t
Ġpet it
. Â»
Ġc athed
ĠX VIII
Ġres id
ĠAp p
ĠP ub
ap ropter
Ġdeb emus
Ġrelig ione
Ġsup pl
Ġteneb ris
Ġcib o
Ġren ov
Ġp up
atur um
itur um
Ġcar itate
ur b
Ġomnipot ens
Ġar tem
os i
Ġpon it
er u
Ġin quir
ĠInc ipit
am ini
Ġa usp
Ġgener alis
X L
ot am
ĠM ol
Ġcontin uo
Ġdign a
Ġcred o
Ġin tim
Ġsi quidem
Ġcomplect itur
Ġorig in
ĠPr imus
Ãł m
Ġinf ern
Ġprop inqu
ĠD am
Ġm ob
Ġc entur
tra h
Ġform ae
Ġn ativ
ĠMar ty
eri que
Ġsub scrip
Ġ unc
Ġde pon
E cce
Ġperegr in
om i
Ġsacerdot um
Ġexp ugn
Ġgraec e
ad es
ic ul
Ġac tionem
en ce
Ġis tum
ne que
ĠMar cus
Ġcar itas
Ġo econom
Ġintell ectum
Ġcomp ut
Ġter tius
p ote
Ġpot entiam
Ġdes per
an arum
ĠT usc
c n
ĠCon v
Ġacc ipit
Ġvic e
ĠAristot elis
ĠD an
Ġnem inem
ed em
Ġh ae
Ġmand ata
Ġinf orm
ĠAr c
ĠD u
Comm ent
atur us
Ġscrip tores
Ġpr e
Ġliber tate
Ġt anti
ĠApostol ica
Ġnecess ario
Ġsubst anti
Ġper dit
ĠB oh
ĠC u
Ġd abit
ess erunt
Ġper n
Ġsu arum
Ġanti qua
li x
ĠC re
Ġnov am
Ġpraes enti
B ibli
Ġindic e
d er
am ent
ĠL X
Ġopp ugn
ec tionibus
i oribus
qu ot
Domin e
Ġpal am
ĠD n
Ġhtt p
es ter
Ġprom p
Ġprox imum
Ġpar iet
Ġsu us
ĠAmb ros
f us
ĠM od
Ġd est
Ġux ore
Ġsp atio
ĠO x
Ġmilles imo
Ġab i
V ol
i ora
ill is
Ġdic atur
Ġfidel iter
Ġten ere
ä ¸
Ġcar itatis
Ġhab eri
Ġprae l
Ġhab itu
Ġbre vis
ĠR og
ĠD enique
Ġpac to
ĠL ong
ĠMar tyr
Ġcontin etur
Ġcontin ens
Ġvoc es
L A
Ġv ag
Ġi u
Ġne x
Ġ4 1
Ġmand atum
Ġt el
Ġsuper sunt
ĠB eth
Ġpublic is
Ġde vo
ĠV eter
ĠMedi ol
ĠConf ess
an ensis
Ġtest es
Ġexercitu um
t uris
Ġmend ac
y si
Ġauctor itas
Ġultim um
Ġcond uc
Ġs inc
ĠR os
ĠI gn
al itas
Ð º
ut am
Ġr ig
Ġpret ios
Ġam icos
N emo
ĠOmn ium
um n
ĠAth eni
ĠH omin
ĠCicer onis
ĠProf ess
Ġquaec umque
Ġpot uerunt
ed itur
en ia
Ġu is
Ġleg um
Ġquin to
Ġcruc is
Ġre b
Ġapp areat
Ġredd ere
Ġcui que
Ġiei un
er ta
Ġpropr iam
R E
Ġt ak
Ġappar uit
Ġc erv
Ġfaci endum
Ġp ign
el em
uer ant
Ġpar entes
ec i
ip e
Ġadv oc
ec r
ĠXX II
Ġc epit
Ġdist ingu
C AP
Ġcognosc ere
Ġ ÏĦ
Ġp ess
Ġcorp orum
Ġtab ulis
Ġr um
Ġsu Ã¦
Ġquaesti ones
ĠA C
Ġoccas ione
ĠGregor ius
itur us
Ġconsul es
Ġplur ima
ĠB urg
ĠA ene
Ġinc om
Ġ20 17
ĠAn im
ane a
Ġpleb is
ĠF ilio
Ġver t
m ae
Ġpr ef
tr ic
ff er
Ġcommun em
Ġst yle
Ġdic is
Ġnihil o
Ġunivers i
S crip
el ch
Ġ4 2
ecc les
Ġinven itur
ag o
Ġsacrific ium
Ġt eg
Ġs ort
Ġrep ugn
Ġf ortis
Ġreg ibus
ĠC aec
ĠJes um
Ġcontra dic
Ġpo enam
ĠTr actatus
ĠPat rum
ĠUnivers itatis
st er
ĠAl t
Ġmai estatis
I d
it tam
Ġex emp
Ġhab itum
Ġcoll oqu
Ġmem in
Ġmeli or
Ġsing uli
Ġgaud io
or ld
Ġfr um
Ġdol o
id erit
Ġfaci ant
fic a
Ġaeter na
ĠSecund o
c fr
Ġc eteri
Ġquo libet
Ġrep ut
eb itur
Ġfal sum
ĠIun ii
ĠQu orum
> <
end e
Ġput amus
ĠL IB
u itur
ht t
Ġexam in
Ġf ung
b iter
Ġut er
ĠprÃ¦ dic
Ã ´
Ġv on
ĠAg rip
P ar
Ġel abor
Ġor ator
ĠScrip turae
Ġindustr ia
T OR
Qu ia
ĠG oth
Ġpraec lar
Ġciv itatibus
Ġleg ati
Ġsc it
Ġb ov
Ġmagn itudine
Ġirac und
ant a
OM IN
Ġdemon st
Ġorig ine
Ġs anguis
ĠD io
Ġcr it
Ġimp oss
Ġimm ort
Ġequ itum
ĠT o
Ġf erv
Ġdilig entia
ĠU trum
an z
ĠM em
Ġsti r
ĠPontific is
d ecim
ta x
ĠSt et
tat us
ient er
enn ium
Ġtr it
Ġv ob
Ġdisc ret
Ġt ypis
ĠPr Ã¦
ĠM atr
iv a
ĠN isi
ĠT iber
L E
ĠSanc ta
Ġint eger
Ġdix erit
ĠPhilipp i
Ġconsuetud inem
Ġcons um
Ġdi ut
Ġp ate
r us
ip idis
m ent
Ġfer tur
N ihil
Ġcustod i
Ġne quaquam
Ġpag es
Ġdoc tus
Ġcircum d
ect os
Ġtest is
eg o
ig it
Ġne quit
Ġseptim o
Ġf oris
og it
Ġcontem n
Ġhuman itatis
Ġa go
ĠG re
Ġoffic ii
Ġfid elis
ĠEp ic
Ġa us
ati l
Ġt et
Ġeccles iis
ĠAlexand er
Ġinter dic
ĠEpist ola
Ġpar va
Ġcer ti
od e
Ġnim irum
Ġdu orum
h am
Ġper tr
Ġsol em
oc c
Ġcontr arium
Ġfr ug
V er
ĠIohann es
n em
Ġlic entia
Ġnatur ali
Ġex or
Ġhered itatem
at enus
Ġc aed
ĠHier os
Ġatt ing
Ġqu ali
ia b
N um
ic ere
UN T
Ġpat ern
Ġcontr aria
ĠO rig
å Ī
ĠS ion
Ġqu aliter
ĠC n
el d
ber ti
Ġdec et
I p
ec tion
Ã ª
ĠR eli
Ġaqu as
Ġam o
Ġvul tus
Ġhor r
Ġt ub
Ġb al
Ġl ate
ĠA aron
ipublic ae
Ġpop ulis
ĠQu ando
ĠNov um
r ing
Ġfacul tatem
Ġex pr
Ġsal us
Ġ4 3
Ġsign o
ĠPon tifex
Ġinter m
ĠHeb rae
H ab
Ġp av
ĠM ea
IB US
Ġstud iorum
Ġinteg re
Ġapostol orum
R IS
Ġint u
Ġpoter ant
Ġhum anum
Ġest o
Ġnot are
Ġnoc tem
Ġs yll
Ġoporte at
ĠGu ill
Ġr os
ĠAn te
L e
Ġut inam
Ġf esto
ĠN at
er ae
Ġprom ov
Ġabst in
ĠDe f
Ġcorp oribus
ĠIacob i
Ġreper i
Ġess entia
Ġrep ente
ati ae
ic Ã¦
Ġcons ue
Ġass id
Ġvit ia
ĠC H
al c
Ġaet as
an itas
Ġveter is
pon d
Ġrep raesent
Ġlong ius
T er
Ġobcaec ati
Ġsusc epit
Ġtrans fer
ym p
ĠH uius
ĠVid etur
Ġvoc at
Ġanim alia
erc it
Ġa ffic
Ġmath emat
Ġhab ebant
Ġag ens
e us
Ġfor et
Ġlac r
Ġm os
s on
Ġlib r
tr am
Ġaet atem
im ento
Ġdeli ber
ĠP el
Ġl en
ut ae
Ġpauc a
ĠL XX
Ġm asc
Ġquando que
ĠJ os
Ġaur ibus
z im
ab ilibus
Ġimm ut
Ġbr ach
O b
itudin es
Ġcuius que
ĠHisp ania
S al
ĠÃ¦ ter
Â º
ĠChristi ani
Ġnim ium
Ġangel us
Ġab l
Ġassum p
Ġg eograph
ĠV os
ess u
Ġimag o
ĠSac ra
ĠR ic
aph ys
Ġf ul
ĠAuc tor
Ġsen atum
Ġinteg rum
Ġbrev iter
ĠE us
av erint
Ġfal sa
Ġinc lus
ĠGl oria
o od
Ġdivin o
e ius
ĠH as
ĠS yst
Ġprim ae
Ġass er
Ġh yp
Ġem in
Ġduc is
r at
Ġa quis
Ġnob iscum
ud o
Ġmul tae
Ġcogn itionem
v ert
Ġres pici
Ġv isus
Ġh ol
Ġlac rim
ĠR ich
ĠÂ§ .
Ġmagis tri
Ġpartic ul
e j
Ġgen uit
er ic
Ġanim as
ĠA M
Ġserm ones
Ġprud entia
u issent
Ġcop iis
Ġperf ecta
ex us
ĠV ind
Ġf ix
ĠT en
Ġpraes entia
Ġeos dem
Ġpro inde
v oc
ĠGraec a
queb atur
Ġvictor ia
Ġpu erum
ĠEuch aris
Ġaqu il
ra d
ĠE li
Ġmagn itudinem
Ġpotest atis
ĠPh ys
Ġnav es
Ġmerit is
Ġin l
Ġw elch
V ir
ĠReg em
Ġha eres
ĠMC M
Ġg ens
Ġf asc
ĠMon t
ĠMa ur
ĠBas ile
ĠTur c
G en
Ġauc ta
Ġtant am
N I
Ġv endit
ĠSed is
on os
tex t
Ġconf und
Ġaqu arum
Ġpraec ipit
Ġpulch r
pend ium
Ġleg atos
Ġing ens
ĠL ig
Ġregn avit
ĠO R
Ġplur imis
Ġsep tu
Ġm ora
p ost
Ġfec isse
em iae
Ġpro fer
ĠPr ob
Ġmut ationem
ip h
Ġnov is
Ġnob ilis
Ġt omus
ĠE g
og en
Ġpraesid ium
Ġiudic ia
Ġtim or
ĠTh is
Ġm ic
I LI
uer et
Ġed itum
enc ia
Ġp ene
erit as
Ġlud us
en ob
Ġv ino
Ġme orum
al itate
Ġ4 8
Į Ĺ
ĠHann ib
Ġpecun iae
ĠGerman ia
ĠS T
Ġmort uis
Ġdetra xit
ac is
ĠP ass
Ġpop ulos
et as
ons ul
I D
Ġmanif estum
Ġconv oc
. /
Ġac tione
Ġeccles iarum
Ġtantum modo
Ġimm ol
ĠH il
ĠPres byter
b orum
Ġmaj or
M at
Ġcul tus
Ġpar t
ad i
ĠSc oti
ĠM ort
ĠReg es
Ġtest amentum
ĠIuli us
Ġi oc
Ġmom enti
Ġneg lig
Ġpraec epit
ing s
Ġut itur
ot es
Ġperson arum
A cc
Ġad op
I s
äº ¬
al itatem
ic ium
Ġsoc ietatis
Ġconv entus
ĠPr ael
on go
Ġterr estr
Ġux oris
Ġaud ivit
Ġsim iles
Ġfec erat
i ano
Ġmand amus
Ġvid emus
ib ili
sum p
Ġinc rem
y t
Ġp uta
Ġmon tibus
Ġpret io
Ġius tum
ĠGo ogle
Ï ī
Ġconf id
Ġm orum
Ġher b
ĠMon aster
pic it
k s
Ġill ae
P s
Ġapostol ica
Ġer is
Ġop es
Ġdic endi
Ġsi gni
ĠB ell
k a
Ġomnes que
Ġconv er
Cor pus
Ġcar mina
Ġdom os
Ġpers uas
P age
Ġunivers um
ĠPa ul
Ġdiv inis
per et
Ġter re
Ġab hor
ĠScrip torum
Ġceleb err
Ġutil itatem
ĮĹ äº¬
Ġf us
Ġnoc tur
rav erunt
Ġconsuetud ine
Ġs et
Ġvestr am
ĠQuaesti ones
gr essus
Ġgra dum
f ord
h inc
ĠSci entiarum
Ġqu ing
ĠSecund us
gn o
Ġver am
ĠM ei
ux erunt
ae o
Ġhon ori
all us
Ġorn atus
Ġsign is
ĠW al
ĠChristi anorum
Ġapostol us
Ġc li
Ġd omn
Ġap ostoli
ur ibus
Ġpar entibus
Ġinstit uta
Ġves ter
Ġp hilosophi
ĠBenedic tus
Ġaff ectus
ĠAnti qu
ens io
Ġquaer ere
Ġequit es
Ġcontum eli
Ġn oli
ell arum
Ġsim ilia
Ġc ense
im ata
Ġco oper
Ġcrud el
in ensis
s ub
Ġius ta
Ġj ub
et arum
. ).
ĠP L
Ġciv ilis
Ġpet ere
Ġs ord
Ġius su
th ol
Ġpos itum
Ġqua est
Ġocc ident
o ut
L uc
ĠP tol
Ġpraecep tum
Ġtol er
ĠAmer icae
ĠH ar
Ġinteg r
Ġline a
Ġpar c
Ġnecess itas
Ġinv is
Ġposs is
ĠE o
issim as
Ġegr essus
Ġingen ii
Ġt end
ĠM ir
Ġdefin itionem
ull um
T u
Ġk asd
ĠT om
om etr
Ġceter o
Ġfac il
Ġali ena
Ġinst ar
Ġr am
Ġor is
Ġminister ium
itut um
Ġund ec
ĠV ers
ĠMar ch
Ġgr and
ĠPrae dic
Ġvestr ae
TI T
Ġcon fic
Ġmort ui
Ġdiss ert
f o
Ġin uti
Ġg oth
ĠL uth
Ġven isset
and ri
Ġabsc ond
Ġom itt
Ġi un
Ġfab ulas
Ġling uis
Ġsep ulc
Ġadol esc
Ġn ic
ess a
Con c
oni ensis
Ġex ac
S ch
Th is
ĠT or
Ġprox ima
Ġh ar
s ecund
Ġcomment ariis
Ġdign us
ĠA P
Ġmat re
Ġpo ti
ĠNicola i
Ġprophet a
Ġlegit ime
ĠEpist olae
ĠGraec ae
S p
ĠGeorg ius
Ġdel eg
Ġam icum
TI ON
P rae
Ġjudic ium
Ġpugn a
Ġinf id
Ġren unti
Ġer ig
ĠAfr ica
Ġg estis
Ġrelig ionem
Ġdecret o
Ġs id
ĠB or
und is
Ġcul tum
ter r
Ġf iet
anti us
Ġqu endam
Ġten uit
Ġcruc em
Ġextrem um
Ġocc idit
ar dum
ĠPon t
ĠEvangeli um
Ġarg entum
ym ph
Ġsanc tam
Ġedit io
Ġconven i
Ġser p
ĠR ub
Ġel ectus
Ġj ac
Ġimm in
Ġarbitr io
ot an
Ġvix it
le vit
Ġlong um
Ġfac er
Ġe ver
Ġop pon
Ġfer ro
Ġtak imata
Ġuti le
htt p
Ġvob iscum
i ori
Ġen s
uc id
Ġrem ans
Ġexempl ar
Ġphilosoph us
in io
Ġi ras
Ġcons ump
Ġlitter ae
ĠAnton io
Ġ4 9
Ġun itate
ĠH ac
Ġprop in
Ġterr Ã¦
Ġf erunt
Ġpop ulorum
ia libus
ATI ON
Ġvis a
ĠH Ã¦c
Ġrec epit
Ġanim is
Ġpulch err
Ġcib um
enti Ã¦
Ġob j
ĠAlexand ri
esc at
Ġquaes o
c k
Ġsp oli
Ġfi erent
Ġs inistr
Ġingen ium
ĠHisp aniae
ĠIn noc
Ġvid isse
QU E
Ġ6 0
Ġpu ella
Ġcons on
iv id
Ġpers onis
Ġov es
Ġpon itur
ĠGregor ii
Ġ4 6
Ġeg it
Ġpros per
el o
Ġp df
ĠTr ident
) ]
al di
Ġman uscrip
ĠProp ter
Ġrec it
U D
Ġinst r
Ġsubst antiam
ĠĠĠĠĠĠĠĠ ĠĠĠ
im ini
Ġcl av
B US
Ġrec ed
Ġauctor es
g er
Ġdiscipl inam
Ġe vid
el mo
di xit
ĠIll ud
Ġreg ionem
Ġdescrip tio
P R
ĠMoys es
Ġann unti
ĠEx plic
ov a
S ac
Ġquaer itur
Ġcop ias
u es
ĠV ig
ĠT am
ib ilia
Ġmuli erem
ad d
Ġdi i
Ġillustr ata
ĠĠĠĠĠĠĠĠ ĠĠ
Ġb i
Ġut pote
nae us
em um
gr edi
Ġfrequ enter
b ant
U n
ram mat
Ġdiffic ile
Ġar s
ĠM AR
ĠPl ant
ĠCon sequ
Ġsex to
Ġreg ionis
Ġf unc
ĠTemp oribus
T US
Ġi v
Ġv ota
Ġtran qu
ov e
Ġsing ulorum
ĠC atil
Ġres pectu
ed er
Ġimag in
Ġpar o
Ġput at
ĠMag ister
Ġc i
eri es
ĠConc ilium
Ġreg ina
U C
in ium
st itu
in itatis
Ġ Ã³
Ġiud ici
Ġop usc
ĠM M
Ġideo que
Ġconc ili
ĠW est
Ġconsul atu
Ġlum ine
Ġad n
Ġsust ent
Ġpiet ate
Ġvirg inis
Ġdeter r
u ad
Ġar tibus
ĠImper ator
] :
ex i
Ġdom ing
ĠEt enim
Ġstat uit
pr ae
Ġcul tu
er to
ens u
ĠLex icon
ĠA em
Ġposter um
Ġpraesid io
ass ent
Ġusur p
ĠHisp ani
Ġeur ipidis
ĠÃĨ gyp
Ġ4 7
ĠSteph ani
ĠD icit
ig r
âĢ ŀ
Ġcontra h
Ġreg iones
Ġleg iones
Ġdoc endi
Ġp ub
Ġcons ili
ĠT ol
ĠPos tea
Ġobsc ur
ati g
ig en
tat a
Cl ass
Ġtit le
Ġinc olum
ul erit
Ġtem ere
em atis
Ġali isque
Ġquoc umque
Ġnego tio
Ġcathol ica
ĠLe on
ĠT erra
ages imo
ĠM issa
ĠHisp an
ĠBeat ae
ĠI lli
Ġconsci entia
Ġl atus
ud it
Ġpauc i
all um
am ma
ĠQu os
ĠPom p
ĠMerc ur
X C
Ġbenefic io
Ġven erit
ĠPol oniae
N O
lic e
ac ensis
ĠĠĠĠĠĠĠĠ Ġ
av eris
Ġdecret um
B ER
ĠD I
y b
Ġsup p
IS S
Ġaed ibus
Ġver itus
Ġpertin ax
Ġbe atum
Ġt ard
str uc
Ġcrim en
Ġw as
er ium
Ġfal s
Ġmai ore
ult atis
an Ã¦
ac es
Ġrevers us
al um
ÃŃ n
ili am
Ġdiu tius
iss us
Ġqua erit
Ġport am
Ġa em
h em
Ġdon o
Ġconi ung
onc ili
Ġiniqu itatem
Ġcircuit u
le v
Ġinqu antum
Ġeiusmod i
Ġco eperunt
esti a
Ġtest amento
Ġnum quid
Ġam at
Ġeorum que
Ġmagistr atus
het or
l og
Ġr ud
C ic
Ġperf ecto
Ġserv os
Ġcons pic
Ġnasc itur
ĠN O
f am
Ġinf am
ĠC olum
c m
Ġvit ium
Ġpul s
qu em
ĠC eterum
Ġod ium
Ġver is
Ġam en
Ġag ri
Ġpern ici
Ġhum anis
h is
ĠI r
Ġar tium
ĠO n
Ġde in
ĠAp ostoli
Ġgrav iter
n ote
ph em
Ġtoll it
S a
em ini
Ġex tit
Ġcathol icae
Ġtractat us
ect ura
ĠP ag
ĠVenet iis
. âĢĻ
Ġind oc
Ġancill ae
Ġocc is
ĠMichael is
E v
Ġconstit uta
ĠAnton ii
Ġp s
Ġma zim
ĠParis iis
Ġintelleg ebat
Ġaux ili
esc unt
ann is
Ġfor nic
ĠPap ae
Ġliter is
Ġun gu
s im
ae orum
Ġmilit iae
Ġiniur ia
C oll
Ġgraec o
ĠD ux
Ġocc urrit
ĠXX III
Ġgoth ica
Ġprob at
ĠBe ati
Ġlap ide
sit an
Ġpraest are
ul atus
ĠU su
Ġcre atura
augur alis
U bi
Ġdioeces is
Ġaccep ta
Ġveli m
Ġst are
Ġconsist it
Ġcas trum
Ġall eluia
ĠGeorg ii
Ġvel l
ĠO ce
Ġcruc if
Ġaper iri
Ġperf ectum
Ġcur ia
Ġos sa
Ġfelic iter
Ġfug i
Ġum b
Ġnov it
Ġob itum
ĠRe gnum
ĠMar iam
Ġh Ã¦
Ġcec idit
h es
D i
Ġtemp t
Ġp i
Ġpros equ
Ġpot ens
angeli um
Ġa iunt
Ġsed e
Ġexpet endis
Ġsollem n
Ġdexter am
Ġpres biter
ĠNe ap
V ulg
Ġd ynam
Ġmiss a
Ġimag ines
Ġwh ich
ac ione
Ġsim plex
Ġav ar
Ġepiscop orum
ĠAegyp to
Ġl una
S unt
Ġvid es
Ġsacerdo tibus
Ġcor da
ĠAng eli
el am
ul arium
Ġar tes
Ġdecret a
Ġsed is
Ġla us
Ġmai oribus
m orum
r ent
ĠSecund a
ĠXI X
ĠC L
Ġpro elium
f ol
Ġhab ebit
ĠL ut
em in
Ġspir it
Ġaeter no
Ġprop ag
AR UM
Ġedit ione
ĠL usit
ĠP isc
Ġbenefic ium
Ġi l
ĠC yp
Ġleg atus
Ġgra vis
Ġdim ic
Î ³
ĠFr atrum
ĠPR O
nam e
Â» ,
Ġpac ific
Ġign ota
Ġepiscop is
ĠOr ci
Ġdeb eant
Ġt a
Ġm ancip
Ġvestr o
Ġdiu ers
ĠS ocr
Ġf f
Ġpr av
Ġcas ibus
eunt e
Ġquotidi e
ĠF orm
Ġinv enta
m as
Ġinc ip
Ġt alibus
Ġius tus
Ġtr ec
Ġbon ae
Ġi ram
Ġf il
Ġmem br
Ġret ro
Ġf en
Ġmater iae
ac uli
ĠH eli
Ġded erunt
Ġf uere
c uius
ĠP an
Ġq c
r ec
tor ium
Ġsen ect
Ġfortun ae
Ġac quir
Ġz z
Ġsac rum
tit iae
ĠAugus tus
Ġac tiones
Ġop e
ĠF uit
U B
oc aus
ublic a
Ġpen es
? )
di x
Ġluc is
ATI O
al itatis
Ġserv o
ta vit
ĠF ort
ĠI erusalem
X II
Ġsor or
ed es
ĠE z
ur os
v ic
Ġpraes um
Ġcur ae
id ion
Ġfac tae
Ġcomm or
Ġ... ;
Ġcons ilii
ĠT ib
TI S
Ġven iet
Ġcons ulibus
Ġin h
Ġserv is
ĠIoann e
Ġsu e
ĠPr im
Ġpraet or
Ġquas dam
Ġfac ias
Ġcogn omin
T e
Ġsingul ari
op hon
Ġexc lud
ĠLugd uni
Ġinim ici
aed rum
Ġprod ig
ĠScrip tura
Ġopin ionem
ĠCardin alis
Ġlab orem
v ii
Ġpo eta
Ita li
Ġprius quam
h en
s ol
ĠApostol us
ec k
e z
ta g
Ġnihil ominus
Ġg entem
Ġop press
Ġhos ti
Ġinf l
Ġpatri arch
el it
Ġv ini
Ġglori fic
it tat
Ġcur su
O pera
Ġpur p
Ġne e
ĠP ER
ĠA st
Ioann es
h n
ĠIsa ac
Ġquid quam
Ġvas a
ĠRe ver
ĠAstr onom
ĠMar ci
Ġprox ime
Ġinfin itum
Ġuter que
Ġabb atis
A ug
Î ¯
Ġtem er
l c
Ġl og
Ġvid erunt
Ġe or
Ġcon u
Ġfem ina
A ut
ĠMi hi
Ġet enim
olog ica
Ġort us
f e
q ve
ĠS ANC
ĠG ali
t he
Ġac iem
Ġunivers alis
ĠP yr
Ġsepul ch
Ġmens ibus
Ġfon tem
Ġpres entibus
os sa
ĠG R
Ġpon dus
Ġatt end
Ġsep eli
Ġqu Ãłm
Ġinc ho
er na
Ġad not
ipl om
Ġlat ina
Ġext end
Ġconstitut o
> </
tr orum
h uc
Ġmor bo
Ġval eat
ĠO t
æ Ĺ
Ġoper atur
Ġproc edit
ĠD ist
Ġeloqu entiam
AN T
Ġf orum
r entur
is e
Ġcr ass
F ac
Omn ia
Ġcons iliis
Ġnonn ulli
ĠS to
Ġnic hil
Ġerud iti
Ġconst ant
Ġzz ril
Ġsing ulas
Ġdec us
ĠXX I
Ġa eris
Ġcompet it
Ġdign itatis
Ġpl erique
Ġduc it
Ġsapi entem
Ġ... ,
Ġpauc os
Ġtemp li
D olor
Ġann us
Ġpaul atim
i ebat
s erit
ĠHieros olym
Ġcom itatu
ĠPhilipp us
ĠJacob i
Ġmaxim am
Ġl angu
Ġibi que
b ri
ĠL un
Ġbe ata
ĠAm p
ĠHung ariae
ĠJud a
f uit
Ġcer tis
Ġliber tatis
Ġnonnull is
ĠD atum
Ġer am
Ġfoli is
Ì Ģ
er io
Ġchristi anae
ĠLatin orum
Ġca pere
Ġr itu
Ġscrip si
ĠCaes ari
in Ã¦
oph ras
Ġum bra
ĠCongreg ationis
ol ast
ib il
Ġfin it
Ġperc ipi
Ġpraes es
ĠV ar
Ġfrat ri
Ġamb o
Ġi gni
Ġultr o
ĠI ur
ĠN orm
ul tus
ĠE am
Ġre us
ĠAgrip p
h r
ĠC C
1 00
Ġort um
ĠDÃ³m ine
ĠS aec
n m
erit er
ĠProvinc ia
Ġpas ch
Ġnegoti is
Ġspec ul
Ġsuffic it
ib it
Ġaff lic
ĠAfr ic
Ġfasti d
Ġhon oris
ĠPhilosoph iae
Ġfr u
Ġven iunt
all a
ĠLat ini
ĠQu ir
Ġdivin am
ĠFoed erat
Ġcon l
gn us
Ġver ter
b it
ĠR uf
Ġserv orum
ĠE P
Ġprovinc iam
RI M
Ġn erv
Ġa uf
ĠVic tor
ĠReg e
I dem
Ġhon ores
Ġadm itt
Ġcoll ecta
Ġleg atum
i k
Ġd aret
Ġquaer endum
al m
ĠUr be
ec tibus
ac iter
Ġeff ug
Ä Ń
Inc ipit
Ġcapit ulo
Ġm orem
hi op
at arum
Ġfug am
Ġvit Ã¦
Ġclar am
ĠV iv
Ġips as
Ġsequ enti
un us
ill us
Ġperc ipit
ĠBat av
Ġconc ilio
vers us
Ġnol ite
c as
Ġconc urr
Ġdiss ol
Ġcotidi e
ed um
ti b
li v
Ġf ons
ĠNic olaus
Ġac ie
Ġos tium
Ġamicit iam
ig ur
Ġsic uti
ĠChristi anae
Ġbon am
Ġinim icos
Ġing enti
Ġev angel
ĠXX V
Ġr up
Ġj uv
Ġr ectum
Ġfl agit
Ġprom ulg
Ġdynam icus
Ã³ rum
Ġoff endit
ĠLudov icus
ĠLib r
ĠHistor ica
Ġspeci aliter
Ġm ere
er as
Ġut ero
ic ius
Ġnatur aliter
ĠM ess
Ġqui libet
Ġarg enti
Ġre quis
Ġli qu
Ġcur avit
Ġsimul ac
Ġext ant
Ġius tific
ĠSc ot
d eb
ati or
Ġdivin i
, /
Ġh y
Ġsol emn
Ġrec oncili
Ġimper atorem
ĠTh ess
CC C
ĠEs se
Ġinc ol
Ġviv endum
g i
Ġmar it
Ġr itus
Ġmon tis
Ġh ere
P L
iet is
Ġappell ant
Ġmuli eribus
Ġdic ebant
ĠCar olo
Ġscrips erit
D issertatio
ig ht
Ġrespon sum
n t
ĠÂ» .
Ġnob ili
Ġdivin um
ĠC OM
ĠIohann is
Ġind ex
Ġor ationes
ĠTrin itatis
Ġct etur
ĠTest amenti
Ġmagn ae
ereb ant
Ġd id
Ġv isc
Ġfamili as
v ere
Ġconc ilium
Ġflum inis
Ġi isque
Ġfut uris
an k
Ġtex tus
Ġhered es
Ġaccur ate
Ġang eli
His toria
Ġpostr emo
od ami
Ġmat ut
Ġb ar
Ġpon ere
Ġquam diu
Ġcom itis
Ġcur sum
Ġr etr
Ġsal e
Ġdefin itiones
Ġind ivid
g it
Ġinc lud
ĠN ON
Ġcont entus
Ġut untur
Ġcomm iss
Ġrep ar
Ġdiffer entia
em it
Ġhab entur
Ġ5 5
ĠFratr es
Ġapp os
Ġmor itur
i ales
ĠCom pl
ĠJ eh
ĠAli i
un o
lis h
Ġacc edit
ĠM ur
ĠBar thol
Ġstr en
Ġhab uerit
ĠH uic
ver b
Ġper hib
Ġtermin os
in atis
ul ch
Ġimp etu
Ġw ord
Ġregn at
ĠEpist ulae
Ġscrip to
Ġform id
Ġper itus
Ġbas il
Ġn as
Ġcred unt
Ġq v
Ġer o
Ġdeb itum
Ġmiser ere
Ġhol ocaus
Ġess em
Ġmaxim o
UN D
er ia
Ġc os
u tionis
1 16
Ġex ar
eli o
Ġmut at
Ġpat itur
Ġfort iter
Ġdelic ata
ĠH unc
ĠT ibi
Ġcap ta
ĠCor int
ĠQu as
Ġsec utus
Ġvide antur
ĠA R
ph ab
Ġciv ili
Ġagr os
Ġaeter n
Ġexcep tis
es imo
Ġ( =
Ġam icorum
Ġadol escens
o edi
Ġux ores
en os
ĠHe in
Ġconting it
p or
ĠI Âª
Ġped um
ĠC yr
Ã² d
ĠEius dem
io que
ĠT ypis
âĢ ³
Ġrec ipere
c olum
X I
Ġha ered
pic ere
ĠP oss
Ġven iat
ĠL iter
Ġar t
Ġtrans ire
Ġintellig ere
. ),
Ġhab erent
s erunt
Ġdoc uit
Ġnoc tis
ĠA L
Ġch ron
g l
m ur
Ġitem que
Ġpar entum
Ġfaci ens
Ġaff ert
.[ /
Ġsu gg
Ġl Ã¦
Ġr aro
em entum
Ġiniur iam
Ġqu ac
Ġimpr imis
IS C
Ġexempl is
el lius
ĠMagn us
Ġn ullius
Ġ $
ĠN omen
Dis putatio
ĠN ativ
Ġoc tav
Ġcr eb
Ġph aedrum
Ġmon st
Ġclass es
Ġdeb ita
ĠW e
ĠPa ulum
ĠT aur
ĠPr iv
ui que
Ġorig inem
id isse
Ġdiss ip
Ġne qu
Ġfac tam
Ġmin ores
Ġsil v
ĠEccles iarum
Ġinstit uit
Ġvestig ia
Ġdic tas
ĠEus eb
ĠVen eris
Ġlaud ibus
f a
Ġcre avit
ter et
Ġaud ivi
Ġreg ia
v us
Ġins ulam
Ġsociet atem
ĠFranc of
æĹ ¶
ĠS el
on dit
w n
ĠCr ass
Ġsusc it
ĠLat inum
Ġserm onis
Ġoptim a
ver tit
Ġchristi fid
Ġquaesti onem
Ġali arum
up p
Ġs inis
om b
Ġsen ex
ĠSe u
ĠM irum
Ġnomin ati
Ã³ r
ĠFrancisc o
ĠCl er
Ġman uum
Ġ5 3
Ġdic tam
Ġcustod ia
Im per
Ġap propinqu
pos ita
Ġsuav itate
Omn es
in ius
ĠN er
Ġf ebr
Ġali m
Ġvoc antur
ĠSem per
Ġperpet uam
Ġmor alis
Ġon us
ul are
Pr op
ĠN atura
Ġcom prob
ĠP ent
Ġdi is
Ġc aud
ĠH odie
ĠEn im
Ġreg ula
ĠRh od
Ġl ongo
Ġtoti dem
Ġaliqu ibus
Ġin erm
Ġat om
Ġf eri
ĠT ex
Ġt estibus
ĠDec em
Ġess entiam
Ġcomp ell
Ġdesider ium
ĠO m
ym nas
Ġcuius dam
ĠGraec o
empl um
Ġdup lex
a en
Ġarb it
ĠAs ia
Ġrel in
Ġinteg ra
Ġmai oris
Ġmit tit
Ġb las
Ġag endum
Ġport as
Ġquin tum
Ġdom ic
G l
Ġt al
ĠL eo
Ġglori atur
ĠD issertatio
Ð ´
Ġv ast
Ġcogit ationes
Ġen um
Ġch oro
Ġprincip iis
Ġ Å¿
Ġsepul tus
ac iam
oqu in
at issimi
Ġsusc ip
ul tum
ĠT err
ĠNon ne
Ġi an
aev ola
Ġquem quam
Ġfr onte
er atis
00 0
ĠV ix
Ġbon os
il s
Ġtant as
dom ad
Ġhor am
Ġarbitr or
Ġquodam modo
ĠG eograph
Ġtu Ã¦
Ġpersec uti
ĠD o
Ġpr esent
I UM
Ġhon est
V ide
Ġprot inus
i erit
Ġmisericord iae
ist ae
ĠR E
An n
itter et
tax at
ag i
ur ei
TI O
Ġgest arum
ĠHieronym us
pos itio
ĠFl ac
Ġhum ano
Ġtorqu atos
Ġsumm i
Ġal um
ĠH ort
ĠH ad
in u
Ġi ung
ab eth
Ġtr em
Ġquali bet
Ġmatrim onio
Ġoffic ina
Ġc m
l ing
Ġred im
Ġlect orum
ĠOr do
ĠSed e
us e
Ġstr uc
ĠD ign
Ġmort uum
em os
Ġarbitr ium
Ġsump tibus
ĠBas il
U G
ic ulo
ĠC ancell
Ġdia p
Ġconi ur
Ġpuer is
Ġor ta
ir etur
Ġmeridi em
Ġcred imus
Ġnomin i
g ra
ens ionem
Ġtab ulas
ĠMax imi
Sanc ti
ĠM ass
erit o
p iam
Ġg ente
Ġextr ema
Ġsuperi oribus
ĠS um
Ġdisc ern
Ġpulch ra
Ġf rag
ĠLat inis
Ġgener ali
Ġrec ipit
ĠPr om
Ġev ert
Ġg ign
Ġdisc ed
Ġm ittere
Ġexplic ari
b ur
ĠAd m
ĠSanc t
Ġpublic i
ant as
Ġterm inum
Ġcongr u
ĠR od
Ġprob atur
Ġsacram ento
Itali ane
Ġconc essit
Ex cepteur
Ġqui que
Ġvid ens
ecum en
Ġrec uper
ĠOr bis
Ġfac ili
Ġadv entu
ĠBar b
Ĥ ¬
es ch
Ġprox imi
ĠNum quid
Ġmon achi
Ġrespon de
Ġvolup t
Ġimposs ibile
Ġscrip tura
ĠBasile ae
Ġdem ocr
Ġr edit
c am
ĠVir i
ist ere
Ð ¼
Ġag rum
ĠReg i
Ġâ Ĩ
Ġopin io
Ġaper te
Ġm m
Ġsex us
Ġconf orm
Ġvictor iam
tim a
en ci
os o
ĠPal at
n eri
At que
ĠR EG
Ġliber tas
Ġconsuetud o
ĠD ies
ĠCruc is
Ġqu or
Ġintelleg at
ĠGener alis
Ġmun eribus
C ant
et iae
D atum
Ġlect ores
ĠHeb ra
Ġciv itatum
Ġliber avisse
ĠĠĠĠĠĠĠĠĠĠĠĠ Ġ
Ġcar men
im orum
l ae
Ġinterc ess
Ġprob atus
F l
Ġsociet ate
ĠS eb
ĠNe w
S it
Ġpot entiae
Ġsex aginta
Ġinst aur
Ġpraet erm
Ġr a
ĠPatri arch
oc k
Ġcas e
Ġbenefic ia
Î¿ Î½
ens ione
Ġvit iis
ĠPh ara
oli o
Ġmort uo
Ġper fici
ĠArg ent
Ġcon atus
Ġamicit iae
B e
ĠP A
Ġpro i
Ġtim ere
Ġerip uit
Ġf oss
ĠH omo
Ġw eb
Ġcondic ione
Ġpercus sit
Ġex inde
ĠSyst ema
Ġlaet itia
Ġdilig it
S im
Ġred ig
Ġquoti ens
ĠG aud
Ġdec or
ĠScrip tur
R A
ĠAl p
iss es
Ġeam que
Ġdix isse
Ġrelig io
eces is
ar ic
Ġnum eri
ĠIp sa
id ica
Ġsens erit
Ġnav ibus
esaur us
Ġfrequ ent
w e
An t
Ġe j
ĠCirc a
Ġd ato
Ġr ursum
Ġciv is
Ġv iae
Ġglad ium
ĠLing uae
Ġam ico
ann us
Ġmoder atius
Ġf ert
Ġoff end
ĠIn scrip
ĠEpiscop is
Ġnull is
Ġfab ula
Ġfac is
ĠMar ti
O rig
Ġcael is
Ġinstrum entum
ĠPrincip is
Ġå ĮĹäº¬
tr e
ĠAd v
Ġb o
Ġco hort
Ġred ire
Ġpl at
Ġs ati
Ġv n
Ġs ag
ĠB ellum
ation alis
Ġeo que
ĠAs iae
Ġsecund am
ĠTH E
Ġen arr
Ġ5 2
ĠSu ec
anc e
S umma
Ġredd idit
ÃŃ c
ĠMon ach
Ġperson as
Ġcr u
as on
Ġerr ore
ĠEn g
Ġsac rorum
Ġdiscipl inae
Ġfec imus
d al
Ġdum taxat
ĠR ot
ios us
Ġfor sitan
Or atio
Ġob nox
ĠA quit
Ġdes iderat
Ġcre atus
Ġc oc
Ġcogn itio
Ġcel eriter
Ġex alt
Ġunivers ae
Ġarg ente
ĠAristot eles
Ġpati entia
Ġ( -
Ġsubst antiae
arch um
Ġtran st
Ġadim pl
Ġdec imum
Ġminis tri
Ġpo enas
Ġscrip torem
Ġaud iv
Ġh oris
Ġadv entum
Ġvic tus
? '
Ġsolid os
ĠT yr
ĠprÃ¦ ter
Ġfrat ern
Ġp hil
ĠE jus
Ġpl enum
ac io
Ġver us
Ġput ent
ĠF err
Ġphilosoph orum
Ġec iam
[ /
ar ae
Ġvoc um
Ġimm edi
Ġs eg
M iss
or k
ĠTer tio
Ġn ationes
Ġacc edunt
ĠL ang
Ġurb anitas
Ġhab eatur
ĠO vid
Ġcolor e
Ġintellig i
Ġcod ice
Ġcontenti ones
A s
Ġunivers ale
Ġvid imus
Ġa ustr
Ġfac io
ĠPra em
Ġinsid ias
un quam
Ġcon n
Ġcon p
tin i
Ġdeser to
Ġper cep
at Ã¦
ep os
Ġcogn itione
Ġdiffer entiis
ib ilem
ĠSim iliter
Ġol eum
ĠC os
Ġast ero
ĠA gr
Ġn ar
Ġpauper es
Ġcal umn
ĠC ato
un um
Ġvalet ud
ul ti
ĠAm or
en ius
Ġad esse
Ġmeli ore
en g
est em
Ġman ere
ĠC ae
Ġscr ut
am ina
Ġ20 18
ag s
Ġpugn am
Ġrespond ere
Ġpot ui
ĠS m
ĠBook s
Ġv enti
Ġhom ic
Ġvel is
Ġcod icum
ĠN az
Ġpr isc
ĠJ am
itur a
CCL ES
Ġpost modum
ĠO pp
e ff
Ġconstitut um
Ġse ver
Ġ5 4
Ġsp on
ĠG rammat
Ġ ÏĢ
Ġded erit
ĠLudov ici
Ġhon estatis
ator ia
et am
un x
Vulg ate
ĠH am
AL IS
Ġm ilibus
ĠB revi
ĠEvangeli i
Ģ å
ol f
ĠC ath
ĠPost quam
ĠN aturae
Ġleg unt
Ġlap idem
Ġrespond ens
Ġpraec l
Ġnot itiam
Ġnecess itatem
ĠComment arii
Ġsci entiarum
Ġaeter nae
Ġsec uti
Ġastr onom
at om
Ġ5 1
Ġdev or
Ġresurr ectionem
Ġlaud es
ĠCon tr
Ġcar itatem
Ġ20 13
Ġinstrum enta
Ġimp etum
Ġw ww
Ġdix isset
ĠOc ta
ĠCathol icae
ĠRe v
ĠF el
on str
Ġten entur
Ġnup tias
Ġadvers arium
ĠF ili
Ġflum ine
Ġsit u
Ġeum dem
G erm
ins ecus
ĠSteph anus
Ġaff er
in itate
ĠJuli i
, .
Ġprob o
al am
Ġdic tat
Ġelem enta
Ġc ing
Ġqu ales
Ġnostr e
ul ares
Ġfoed us
O p
âĢ ī
Ġor itur
d olor
ĠCol oniae
Ġfal li
Ġapostol icae
Ġmem bris
Ġpropos ita
Ġserv are
Ġperic ulos
Ġfluv ium
Ġunivers am
Ġpoter unt
ĠĠĠĠ Ġ
ĠM OR
Ġexc lus
Ġl ug
Ġconclus ionem
Î ´
Ġpublic us
ĠQu Ã¦
ol orum
Ġcommun ionem
Ġfili as
Ġcert amen
ur su
Ġconsuetud ium
Ġsub sequ
Ġuir tut
Ġocta vo
Ġsac ro
Ġvener abilis
ator ium
Ġnot ae
ĠCiv itatum
Ġconf l
ĠDoc tr
Ġev ad
ĠCat alogus
9 78
Ġmed iet
Ġres crip
Ġdixit que
Ġecclesiast icis
tor i
Ġsecund i
omn ia
im entis
ĠH ipp
ĠSim on
r id
ĠC ael
Ġcomm ov
Ġel e
Ġfab ric
ĠChrys ost
Ġmuli erum
Ġsil entio
ter n
Ġunivers o
id iam
Ġat qui
Ġcanon ici
Ġw e
ĠA ri
un is
Ġins ulae
Ġinv it
Ġsin u
ĠFer din
Ġp ia
Ġperf ectionem
Ġprincip e
Ġinstitut um
ar orum
Ġr idens
Ġfu issent
Eccles ia
Ġpro vis
colum n
Ġcommun ia
Ġuol unt
od is
Ġag ris
P ub
a que
u z
Ġe cc
Ġgr atis
Ġag am
T abula
Ġlap ides
ĠS ing
or ii
Ġvill am
es es
ĠGraec os
ĠL am
Ġter rib
Ã© s
unc i
Ġdoc torum
l it
Ġli gnum
ĠAugust ae
ĠAndre as
Ġrequir itur
Ġviv ific
idi ac
x is
Ang lice
ĠAng lorum
Pag inae
Ġsoc i
ĠÎ º
Ġfr ang
ĠV eni
isc us
Ġqu ale
ur rexit
ĠAcc edunt
ĠV at
Ġex itus
ĠV im
Ġser en
Ar g
ul d
Ġopp ida
An ti
Ġminister io
Ġrob or
Ġdivis a
ĠBibli othecae
Ġnob iles
Ġdam num
Ġp esti
ĠPar th
Ġsuperi ore
Î¿ ÏĤ
ĠL ev
Ġsex ta
Ġvid erer
Ġiud icii
at ui
ĠIll a
Ġtest amenti
Ġfac imus
ep hi
ĠIacob us
Ġcons urg
Ġiuv ent
Ġdiv es
Ġpect ore
Ġdiv itias
Ġex itum
Ġdi vi
Ġc c
ulis se
p an
Ġconf ug
on ica
Ġpropos ito
Ġ7 0
p ed
Ġtu arum
r om
ĠP il
Ġd ul
ĠG enti
Ġal tum
ĠAndre ae
ĠG od
ĠCom itatus
S ub
Ġput as
Ġultim o
ĠF R
Ġsacram enta
Ġparo ec
Ġf atig
Ġhos pit
Ġs uspend
r io
id as
ar am
Ġmod erat
u y
Ġh isce
Ġqu Ã²d
ĠE adem
ĠBern ardus
Ġul terius
ï »
Ġrem ov
ur iam
Ġn ect
on orum
Ġurb ibus
ep ta
Ġd it
Ġper pend
us ta
ĠLe onis
G raec
ï» ¿
ub ern
ĠP yth
ĠN ab
ook s
ĠAugus to
Bibli otheca
Ġmin orem
Ġfir ma
ĠPra g
Ġn atu
ĠJoann em
Ġaliqu os
Ġ1 18
Ġdex tera
ĠPhil ist
Ġsim ilem
G e
ĠPr ot
Ġsyn onym
Ġjudic io
Ġtestim onio
ut orum
Ġpag inam
Ġd etur
and er
Ñ ĥ
Ġanim alibus
Ġgraec i
Ġgra d
Ġalter n
Ġhum anam
Ġcont ulit
Ġcons or
Ġiracund ia
Ġag unt
Ġnatur alem
ent issimi
t are
Ġcustod iam
Ġun ic
Ġfor ti
Ġmagis tro
ĠL o
Ġerr orem
P os
ĠD il
Ġaud iam
Ġmuli eris
Ġinnum er
Ġpot uisse
ix us
ĠTh em
Ġd ot
Ġbene vol
Ġimp et
Ġdiss er
ATI S
Ġcognov it
Ġven iens
Ġpers uad
ĠD eb
Ġauc torem
H ome
ĠIov is
ĠCorp oris
Ġre prob
ius que
Ġcorp ori
Ġiudic e
Ġsumm is
Ġprom is
ĠAngel us
ic iam
ine ant
P S
ag or
ĠGraec iae
ari j
Ġstet it
Ġhor as
Ġcruc e
Ġnonn ulla
Ġer ub
ven ire
Ġhistor ica
Ġhon oribus
Ġconstit utus
ill am
Ġproced itur
Ġp ig
end arum
Ġoccas ionem
Ġmens ura
Ġiudic abit
p ectus
Ġflum ina
qu ibus
ĠIm m
Ġtabern aculum
Ġcommun iter
Ġmyster ium
it to
Ġcler ici
ĠS or
Ġspec iali
ĠSac ri
qu ando
Ġf ata
Ġoc ulorum
Ġaequ o
Ġcap tus
Ġhonori fic
AN D
Ġdeb it
ĠAn nae
ĠO M
Ġpostul ant
ĠL oth
Ġsal va
s uper
Ġbibli otheca
R erum
ĠS an
ĠM eth
ĠE tr
Ġimp end
Ġsuperb ia
Ġm ess
Ġv e
Ġcael orum
Quaesti o
Ġferm e
Ġae vi
ec tionum
ĠJacob us
ĠC ust
Ġexs ec
er atio
Ġs ymb
Ġcaeter is
ov er
ĠQuid am
Ġl et
Ġfig uris
ĠReg um
Ġfort itudo
Ġduc ere
Ġmir acula
Ã §
Ġc ancell
c em
ĠSalom on
ĠCorn elius
Cat alogus
atur que
Ġcogn ita
Ġrelic ta
ĠM etr
e an
Ġvuln er
Ġded isti
e os
ĠP ii
I G
Ġauctor is
Ġdis tric
Ã »
Ġmort ua
ul erat
ĠCar m
Ġfam e
T H
ĠReg ina
ane um
Ġneg at
Ġpraes ump
Ġser u
ĠI ure
per i
Â Ĺ
Ġredi it
ac ionem
Ġpot uerit
Ġf elix
ĠS yri
ĠD ig
urr eret
j a
ĠQu apropter
Ġfacul tas
ĠMon te
â ľ
ĠC ris
Ġc in
I us
r alis
ĠM as
ĠTe ub
Ġsur rexit
Ġpri ore
Ġprou inc
Ġaccommod are
f or
Ġobli que
D ie
Ġdec ore
Ġu al
re vit
op ol
r en
Ġpertin acia
Ġaccess erunt
Ġs uspendisse
pon s
l os
en na
ĠM undi
ĠĠĠĠ ĠĠĠ
Ġpr idem
Ġcel er
Ġinfin ita
ĠM onumenta
Ġ5 6
Ġstat uta
ĠMa i
Ġiudic o
ĠPatr es
Ġnov us
Ġviv is
Ġfiduc ia
i gni
Ġten eri
qu oniam
Ġcom it
Ġnut r
ic ensis
Ġquod si
Ġmov etur
Ġsol eat
Ġante pos
: ]
Ġcircum st
/ .
ĠSam uel
ĠV ale
ĠB re
Ġvoc is
ph a
Ġabs ur
Ġa f
Ġs ud
Ġess enti
AN I
C aes
Ġnav is
ĠSen ec
di e
pr imis
ĠL XXX
Ġun itatem
en b
Ġt un
Ita que
Ġcrim ine
ur as
Ġs imus
Ġmiss i
Ġnegoti a
Ï Į
Ġscrip toribus
Ġlic eret
ri que
Ġpatr im
Ġargum enta
Ġad est
t ab
Ġpl uv
Ġimp ort
ĠP ius
Ġarchiepiscop us
ĠH ist
Ġdoc tor
ĠMul ti
Ġpac tum
ĠReg iae
z ig
Ġel egit
Ġin ani
Ġsit is
Ġco erc
ĠMax im
Ġtumul tu
Ġperc ipitur
Ġp il
ĠQuad rag
i ensi
u in
ĠRob ertus
Ġepic urei
Ġpet entium
est ra
Ġ6 5
ol ph
ĠPl aut
Ġstip ul
ec ess
Ġsc is
Ġop ibus
Ġt rep
Ġmerit a
c omm
ĠS od
L eg
oli um
Ġoptim us
Ġpuer o
ec erit
ed is
Ġut amur
Ġper it
Ġfl uc
Î ¬
Ġapp rehend
Ġpraedic ta
Ġlic entiam
Ġfl amm
Ġduod ec
ĠT rib
ĠS uet
ĠTer rae
ed am
ĠP olit
F IC
ĠA ff
Ġg ood
Ġconv entu
ĠIudae orum
ĠS EC
it timus
Ġfund amentum
Ġdefini ebas
Ġaure a
Ġiudic em
Ġc he
ĠĠĠĠĠĠĠĠ ĠĠĠĠĠĠĠĠĠĠĠĠ
Ġleg atis
Ġi rae
Ġex sequ
ĠEp it
Ġsustin ere
Ġpl enam
ĠAng li
Ġpraecep tis
Ġp ing
os ius
ĠEb or
Ġnos c
Ġimp lic
ĠGu ili
ĠO st
Ġse ipsum
Ġaccid ens
et ri
Ġfer rum
ĠNos tr
Ġfon tes
Ġfac inus
Ġsol ebat
ĠPr os
ĠS int
Ġ Ã¡
ec om
ĠMari e
ĠBarthol om
Ġhab uerunt
Ġloqu ar
C ol
Ġs es
Ġom ittam
e y
ag is
angu ine
Ġviv endo
Ġb ut
ĠI ustin
Ġinter esset
Ġres urg
ĠMax imus
Ġfac erent
Ġs ob
ĠJoh n
Ġhab uisse
uit as
Ġauctor ibus
v ero
Ġcod icibus
Ġvid isset
Ġinv as
Ġdeclar avit
ĠBritann iae
Ġe quis
ĠAng lia
ĠS o
X VI
ĠU na
Ġcomp end
Ġsub ti
ĠMa gnific
Ġ20 12
in dic
ÃŃ r
Ġfut urus
Ġiuven es
Ġp eperit
Ġeffici antur
Ġmic hi
Ġpri ores
Ġpap ae
Ġinterpret atione
Ġam are
ĠS C
ĠN oc
Ġdissenti unt
ull o
Ġul c
Ġdis plic
Ġdeb uit
Ġexpl an
m ate
eg oria
ĠH al
Ġnoc tu
Ġimp let
Ġp eper
Ġdis tribu
Ġloqu or
Ġp ectus
ip si
Ġcoel o
Ġeas dem
Ġdep end
Ġa ev
Ġvid eret
Ġproc re
m entum
ĠIst e
en orum
Ġserm onibus
D um
Ġed oc
Ġd atis
ĠUn um
Ġexaud i
ĠXX IV
ĠRh enum
Ġiuris dic
Ġpoet ae
ĠRed emp
Ġdiscip ulos
ĠSe e
Ġscel us
tu um
m am
ĠSax oniae
Ġsigni f
on as
ĠT ulli
Ġling uarum
Ġcon tex
Ġsent entiarum
Ġlab oribus
ur ti
ĠAur eli
Ġt este
Ġ5 7
omn es
oli is
Ap ud
ect as
ist it
ub us
Ġtrad ita
ist ens
i an
st e
Ġequ o
Ġsur sum
ĠE lis
io v
ĠDescrip tio
ĠS ucc
Ġpen it
Ġcre aturae
Ġobv iam
ĠE CCLES
Ġa ene
itt unt
Ġfac ete
ĠOmn ibus
Ġdolor is
Ġcred itur
ĠDis put
Ġimp edi
Ġepist olae
Ġign omin
Ġv otum
Ġtrad itur
Ġclass is
atur am
Ġlab itur
Ġa usus
Ġsempiter num
b atur
n et
Ġrefer re
Ġac ies
ĠCon ra
ul sus
ĠEt hic
Ġiras c
Ġimper atore
id ius
Ġres ol
k er
EN D
Ġintelleg am
Ġass ue
ER E
ĠClaud ius
Ġcorn u
Ġambi g
Ġcons uet
iss ione
Ġse q
Ġquin decim
ĠLaur entii
Ġ `
Ġqu om
Ġval ent
e e
el s
Ġmod e
ĠPr inceps
Ġliter as
Ġpauper um
ig ram
Ġins er
ĠNov em
Ġins crib
Ġmatrim onii
åĪ Ĩ
ul aribus
? ?
Ġobs ec
ech n
Ġauctor itatis
L XX
Ġ5 8
ĠDoc toris
Ġv il
ĠF in
Ġeor undem
Ġtrad uc
Ġcrim in
Ġocto g
ĠHenr ico
Ġspiritu alis
ĠÃ¦ qu
ĠUr bis
ĠâĨ Ĵ
Ġd atus
Ġla que
Ġaff ectu
Ġab omin
Ġsingul aris
Ġg essit
ĠE qu
ĠMar g
Ġco eli
em i
ĠS y
ĠC ali
L a
Ġdic es
ac a
Ġmi ra
id ii
Ġpraef ectus
Ġsecund ae
ĠR OM
Ġref ug
Ġostend itur
OL OG
Ġiudic are
Ġnomin avi
ĠQuaesti o
Ġp oc
N A
Ġp ie
ï¿½ ï¿½
uis tis
ĠAut h
Ġac quis
Ġmon s
Ġalt aris
Ġpunc tum
Ġr ati
Ġap e
s ti
Ġvul tu
Ġpos uerunt
Ġal ta
ĠIb id
ĠCyp ri
Ġcomprehens am
Ġin ex
Ġdisput ando
Ġduplic i
Ġport um
u k
Ġn or
ia lium
Ġop prim
d oc
Ã¦ i
Ġj ug
ĠGr Ã¦c
lic i
Ġfab ellas
ĠN av
pr ud
ĠChristi anus
ĠAli a
ĠGerm ani
Ġreform id
Ġdic endo
Ġint est
Ġpu ellae
Ġir atus
ĠC ro
Ġatom orum
Ġsalv um
ĠC up
ili bet
Ġgra ve
Ġinvid ia
ĠS U
Ġfer ia
Ġmort uorum
Ġadh a
ĠMath emat
ĠGre ek
Ġben edi
Ġcon qu
Ġpl um
Ġinim icorum
Ġdomin is
Ġinsol ens
Ġmod icum
Ġquor undam
ur iae
ĠS usc
ent issimus
ĠS aepe
ĠII Âª
Ġnol uit
sic ut
Ġm entio
el ae
ĠPomp ei
Ġremed ium
Ġm oli
on din
u ari
Ġreg r
Ġsacerd oti
Ġreliqu um
Temp oribus
Ġan ath
Ġtant is
Ġius ti
âľ Ķ
Ġnol uisse
Ġcop iam
Ġfortun am
ĠMos es
Ġremiss ionem
Ġpo enae
Ġcomm erc
ĠCathol ica
X V
Ġcontig it
ĠP S
Ġ" .
Ġe ft
Ġag atur
Ġcael estis
r iae
ĠI oh
ĠPh o
Ġinv enti
Ġcoel um
Ġf ini
Ġperf ecti
Ġev as
Ġmand ato
ĠAuc tore
Ġmenti onem
em ata
Ġinv ol
Ġmonach is
S en
Ġsanc tos
Ġfec isset
Ġmaxim i
Ġfor as
Ġpond ere
Ġtibi que
Ġmis erunt
Ġperven ire
Ġbenedic tionem
ĠVeter is
Ġfam am
Ġprovinc ias
om a
en berg
ĠMar t
Ġx v
Ġfur or
Ġecclesiast icae
eda em
Ġo ti
Ġconc ub
ĠPontific e
Ġdet rah
Ġcomplect ens
Ġal ti
Ġmun eris
t ui
num quam
ĠPompe ius
ĠU sque
ophras tus
i fer
Ġsubi ectum
Ġpraesent em
Ġag i
ĠPR AE
Ġori entem
Ġcon fici
enn ae
Ġexst ant
Ġdom ibus
Ġpro j
ĠF re
ĠS olis
Ġacc edere
ĠChristi an
ĠPontific atus
Ġedit ionem
irc a
ĠSer en
ĠHibern iae
Ġexpet enda
Ġver ecund
EL L
I R
Ġprod est
Ġmai ora
Ġc ep
ĠGal liam
ĠIs id
Ġis dem
Ġgener ationem
Ġcand id
ĠM A
Ġdoc ere
ĠHieronym i
z i
Ġsit us
Ã¦ s
ĠTemp ore
Ġinc rep
Ï Ĩ
Ġinstitu ti
I am
tic e
Ġd rac
Ġinc l
ĠSi gnum
ut or
Ġmut uo
Ġin sequ
Ġcal li
Ġvol ens
ili g
Ġprim ogen
Ġinterpret aris
min ibus
ĠSe ver
Ġcor onam
Ġsac rosanc
Ġol eo
Ġerr ores
Ġpond erum
ĠD ownload
Ġcant us
E dit
Ġs q
ĠEpiscop um
ĠI c
Ġinven iri
Ġprod esset
Ġsuccess oribus
Ġd as
ĠN ol
Ġcad av
X III
Ġappet ere
Ġseptu aginta
Ġ1 12
Ġlib ellus
Ġtest atur
Ġeff ig
Ġcarc ere
en arum
Ġsuper ior
â ĸ
Ġcomm is
Ġdec ep
Ġfragm enta
Ġcom itatus
Ġsem ine
ĠTer tia
f n
Ġdefend ere
ir em
Ġor ationibus
un s
Ġstip ula
Ġdic te
Ġconj ug
Ġtit ulus
ĠC ogn
ĠFrider icus
V ita
Ġort h
Ġgrat ul
Ġu ers
m ore
Ġj uven
Ġconstitu am
ĠAcc us
Ġali eno
Ġment itum
Ġsolv ere
ĠS ine
Ġlaud is
Ġann u
Ġuti lis
Ġinterret e
Ġf est
Ġsol am
Ġantepos uerit
Ġconst r
ĠM S
Ġeff und
Ġaduers us
op p
L XXX
Ġl ast
Ġvoc atus
Ġex h
Ġdi al
Ġinim icis
Ġpos c
tin o
Ġsuscipi antur
olog us
Ġvestr as
Ġx xx
Ġno w
Ġdex tra
Ġdef orm
ha er
ĠColleg ii
Ġnov issima
ix a
Ġpraest ant
ĠLat inam
ĠP RIM
ĠR ei
ĠR ud
TI C
Ġdum modo
ĠP AR
Ġimp ugn
ĠA e
Ġfem inae
T E
Ġvestim enta
Ġt ela
Ġsc iat
ix i
ĠAr m
z o
ĠT ER
Ġin qui
Ġpon tifex
ecti g
ĠProvinc iae
Ġs atur
Ġper inde
ĠL y
Ġindic at
Ġpri u
r etur
Ġcommun ione
Ġexc ipi
c yc
iss ae
Ġt esti
upp iter
m ar
ic al
ĠÃ¦ dific
Ġv o
Ġpoter is
iv um
Ġ8 0
sum us
estr i
Ġconven iunt
ab itis
ĠChris te
Ġe ae
io graph
ĠRom anam
Ġ6 4
ĠB oni
iri an
ip zig
ĠB os
Ġsent entias
Ġad u
av erant
m inis
al o
Ġtyp i
P ater
Ġ5 9
Ġconcep tam
m p
Ġostend ere
Ġurb ium
ĠPers arum
Ġinsign is
ign e
Ġex ord
Ġopin or
Ġargum entis
Ġeccles iÃ¦
Ġfon te
nes archum
ĠAmp li
eb ri
Ġips ae
Ġher edit
Ġap t
Ġfut uri
Ġm eret
Ġinter n
ĠIo an
ar ist
Ġu os
Qu oniam
y a
et ica
ĠCam er
Ġpropor tion
ĠAn s
Ġplac ere
Ġterrit orio
Î ¸
Ġclar a
ĠFrider ici
Ġoc ulus
l aus
ĠE sa
Ġmus ica
ĠConc ilio
ĠB ud
ĠPl ut
aut em
Ġinter esse
Ġle vi
queb antur
Ġhered em
Ġdimis it
Ġpersequ eris
n ihil
s en
at rix
ĠPraec ip
Ġcommun es
ar os
ic itur
Ġmo enia
et ia
urr iculum
Ġmed ii
Ġcur ios
ĠOc tav
iu ers
Ġt og
Ġur bi
Ġanti quae
Cons ectetur
Ġintell ex
isc o
Ã©r unt
Ġmem ori
Ġsapi entes
Ġf um
ell es
inc tio
Ġadd idit
Ġcogit are
Ġal ac
Ġal lig
Ġedit i
Ġsub til
Ġpraem ia
Ġeffic it
es op
Ġn oll
c t
Ġeffic ere
Ġvic it
Ġaccus ata
Ġden unti
Ġdep rehend
ĠLac edaem
Ġdes in
Ġquadr ing
Ġre ipublicae
Ġsp ei
Ġort u
Ġsomn o
Ġduc i
Ġimmedi ate
ĠAnton ium
Ġc en
ĠPraedic atorum
r unt
Ġpontific um
Ġpl erisque
ern is
ĠQu inti
Ġ20 15
Ġcomment arii
op am
Ġut ram
Ġ0 1
Ġvari as
Ev angelium
w s
Ġi unc
Ġdesider io
ĠDÃ³m inus
ĠB av
Ġduc ibus
ĠH ebr
Ġr is
Ġcon turb
re ant
Ġsenti re
ĠS ti
Ġten ebr
Ġsup pos
Ġconstruc tio
ĠAegyp tum
ĠM emor
Ġtrans it
C o
Ġgen erum
Ġsalut are
ĠEurop a
ĠDomin ica
Ġblas phem
Ġinc umb
Ġep it
s em
Ġsep tentrion
Ġtant ae
Ġpredic ta
Ġf ate
ĠJ er
Ġpri oribus
Ġmur os
Ġepic uri
Ġcorrum pit
il us
Ġdomin a
ĠL ep
ĠDem ocr
ip so
Ġintellig itur
Ġ up
Ġincid erint
Ġeffici endi
Ġsc aevola
Ġcit ra
Ġd udum
Ġsal ub
Ġver ae
enn io
Ġfesti v
ĠCanon ici
Ġdiscip lin
Ġconfer re
om et
Ġleg endos
Ġrecogn ita
es im
Ġagr ic
Ġgen u
Ġreliqui as
es a
ĠT ub
TI N
Ġprof it
c olor
Ġinu en
Ġviv um
estr is
ĠAnn ales
O pus
Ġret rib
Ġtor r
Ġobi ectum
is a
Ġpauper ibus
r ica
Ġnef as
im en
ess erit
Ġdoc umenta
Ġnub es
ort us
Ġconsul em
Ġe uch
ugur th
ĠH o
Ġsequ ens
ĠNos tra
ĠLIB ER
ib ilium
Ġconcess a
ĠG ot
Ġliter arum
or ius
Ġiuc und
ativ um
et si
Ġconsequ ens
Ġcon ter
Ġang elis
Ġpleb em
Ġcor ona
Ġac tis
ĠEph ra
ĠT andem
Ġtit ulum
ĠBaptis tae
Ġiuven is
odo x
Ġhos te
ĠM and
Ġfor ensibus
Ġreg ulam
L ex
Ġ1 19
ĠMD C
ĠD C
ĠSent entia
Ġvell ent
B enedic
isc ere
ac ium
Ġp e
Ġquis quis
ĠFoederat arum
Ġsplend ide
Ġinvent us
ĠD omus
Ġac er
ĠL ap
Ġd ere
Ġam ar
Ġaccep imus
Ġapostol icam
Ġpers p
ĠHad ri
ur t
Ġdel ine
Ġmer uit
Ġmagis trum
Ġreg ionum
Ġmetr opolit
Ġlegit ima
Ġm nesarchum
us ti
el us
Miss ale
Ñ Į
Ġcor rip
Ġdic as
our ce
os am
Ġvit io
Ġno u
Ġab est
Ġmai ori
Ġvulg us
om ach
ĠL up
Ġequ os
ĠAut em
Ġv bi
! "
it z
Ġ200 9
Ġ20 10
Ġmand atis
or vm
Ġh il
L aud
ĠprÃ¦ f
ĠXX VI
Ġsanct itatis
Ġveter ibus
Ġdoc toris
ĠFr ater
Ġrecens ere
Ġape irian
ĠD r
Ġsequ entibus
Ġdiut ur
Ï ĩ
ter o
ĠIll um
Ġnem ini
ĠMet aphys
Ġdivin itus
ĠLe vit
Ġnon o
ĠF ragm
Ġmal us
ĠP u
O ffic
Ġpos itus
Ġvoc ari
r icus
Ġinstruc tior
Ġfr on
Ġy our
e ae
ĠL iturg
Ġdomin ica
ĠVal entini
ENS IS
J o
Ġag imus
Ġemend ata
A LI
Ġprec ep
Ġantiqu o
Ð° ÑĤ
ĠDixit que
Ġlap idibus
Ġsch ola
Ġmarty rum
Ġnem ore
i anum
ri ed
ĠJ uris
Ġaud ita
el inqu
Ġfut uro
Ġvel int
Ġinf erius
D ownload
Ġiuv aret
Ġpraem ium
Ġdign itas
Ġaequ um
fac ta
Ġcom item
ar at
Ġquoti es
or iam
Ġsequ entes
Ġregim en
ĠBe atus
Ġeum que
ĠS eries
in f
Ġexplic antur
r ob
Ġob oedi
al b
Ġmediocr itatem
a f
Ġib id
Ġfirm iter
on ias
s ae
or p
Ġven isse
ĠId us
Ar ch
Ġpraecip ua
Ġpraes entibus
Ġass entior
ic omm
Ġcapit ulum
ĠAfr icae
ĠIndic e
Ġmediocr em
Ġfaci ebat
ĠS oph
Ġhered ibus
ĠU S
Ġ20 14
ib iles
ĠNov ae
Ġdiscip ulus
Ġc eterum
Ġsci ens
ĠSec ret
ĠBabyl onis
ĠM ach
Ġinc ogn
Ġtim orem
Ġfacul tate
Ġqu alem
Ġ1 15
Ġam ant
Ġab sit
Ġsal uti
Ġcit ius
Ġperm ans
Ġfac in
Ġcons ent
ĠL i
ustra vit
udic ium
... ]
Ġjus titiam
ĠImper ium
Ġsent entiis
Ġsynonym is
end orum
Ġloqu untur
id onium
Ġsc imus
Ġplur imi
as tis
Ġden eg
Ġobtin uit
estig ationes
Ġinn ot
Ġdic tae
ES S
Ġpass uum
ĠMar k
Ġparti endo
ĠFl av
er pta
ec hi
Ġcon loc
Ġali enis
Ġconst et
ĠGraec ia
ĠRom an
Ġmedic inae
Â ·
Ġmon umenta
Ġpal ud
s h
Ġli gna
Ġ6 3
Ġnecess ariis
Ġv ade
Ġdec rev
ĠSanc tis
ĠJ an
ĠSic ilia
d en
Ġv ii
ab as
Ġmal uisset
eb or
Ġmed ici
Ġp ens
Ġex hort
Ġaud isset
Ġtab ulae
Ġsacr ileg
Â £
un xit
x erunt
os ae
eg ori
ĠChristi anis
Ġcopios ae
Ġde que
Ġapp end
ĠÃ³ mn
ist arum
Ġpar atus
ĠHol m
Ġap ta
Ġun iuers
Ġopin ione
Ġdeb etur
Ġmedic us
ab ul
ĠĠĠĠ ĠĠ
Ġconsul e
ĠPraes ide
Ġanimad vers
Ġx ii
ĠM E
ter is
gn is
Ġper l
U nde
Ġantiqu orum
Ġabb ati
Ġeff us
ĠN ig
Ġbell is
ĠClem entis
ĠC op
Ġab d
Ġh ave
ĠBurg und
Ġsc ulp
Ġrog o
ĠM ulta
ĠQu asi
Ġdist ing
Ġscrip tur
ĠPontific um
h omin
ĠÂ £
Ġconsul to
tic am
e atis
Ġmin oris
Ġ7 5
Ġqui et
ĠQuam quam
ĠEt h
ĠJoann e
ĠAm st
Ġlud os
ir o
ĠScip io
Ġculp am
ĠCom es
ĠI ob
u tiones
ĠOcc ident
d isc
ic ulis
ĠM anu
Ġaure um
ph on
ĠMa y
ĠSil v
Ġarg ento
ol y
Ġrepudi are
Ġex al
Ġj ej
Ġret inere
Ġcondit ione
Ġquod que
Ġobserv ationibus
Ġrespond et
Ġdeterr uisset
Ġtemp estate
Ġcathol icam
Ġdemonst raverunt
ov iae
Ġexc lam
V el
Ġv entum
ĠNum quam
Sic ut
al on
Ġcor rep
ĠC ret
Ġfaci enda
His tor
Ġterm inus
Ġs ess
Ġ1 10
Ġrefer rentur
Ġtestim onia
Ġreprehend unt
os ci
ĠJohann e
ĠS ym
ul isset
Ġbeat o
Ġqua ero
Ġc uc
Ġsum o
on ath
Ġreg iae
ĠS ea
Ġpl enus
Ġcent rum
Ġocc isus
ĠL em
Ġcardin alis
Ġre qu
Ġleg entis
ĠI M
Ġpri ori
ĠSent entiarum
Ġprom pta
Ġdemocr itum
Ġsacerdot em
Ġpl ene
Ġten ent
Ġost ent
Ġscrib entur
Ġreformid ans
N o
ĠD at
ĠLib rorum
Ġepist olam
Ġquod cumque
s an
Ġv otis
Ġm urum
Ġneg l
Ġrep let
Ġh ero
Ġprae dam
Ġvituper ata
Ġac tibus
Ġeam dem
Ġv iis
Ġh iis
tin am
Ġalic ujus
. _
Ġsanc tu
ĠLitter ae
Ġcharacter ibus
ĠF on
ĠIn g
Ġangel orum
ĠH of
Ġaccep t
am a
Ġt arn
Ġdeser tum
Ġmonach orum
Ġfac tionis
ĠDoc tor
Ġdeb eret
Ġplat onem
Ġprophet ae
Ġmanif esta
aud i
ĠLat ino
Ġrever entia
Â° .
Ġdil exit
Ġprogr edi
Ġindoc tum
m atis
Ġm usc
ĠPot est
Ġloqu endi
ĠEn n
Ġmonach us
ol ini
b ack
Ġcons oci
Ġop em
Ġleg ionibus
Ġse acula
Ġiac t
Ġins itam
Ġl ata
Ġmon umentis
ĠM CC
d ae
avit que
ĠEx ercit
Ġvinc it
Ġde fici
Ġco h
Ġgl ob
Ġc ell
ĠDomin is
Ġexp let
r ibus
Ġmat ri
Ġnesc it
ĠM ut
Ġopp id
Ġvers ibus
D ixit
Ġpuer os
Ġac ti
ac tu
ĠA E
un gitur
on ensi
Ġ6 6
Ġdim itt
Ġver sa
Ġexerc ere
Ġh erc
ab a
u u
ĠN as
Ġco hor
Ġprovinc iis
ĠFrancisc um
Ġquo vis
âĢĿ ]
Ġmort uos
Ġp el
ĠAd dit
ĠCom p
ĠDi ac
ĠChristi ana
Ġcond idit
Ġrect eque
Ġprae fer
Ġdeser uisse
Ġ6 1
Ġev oc
Ġvariet ate
ĠDani el
i ol
Ġmerit um
e orum
ios um
." ,
ĠC y
Ġiudic is
Ġequ um
Ġpiet as
al us
s ite
am in
Ġam is
Ġcognosc it
Ġmen andri
ĠL yc
ag ium
Ġfund amenta
Ġmeli orem
Ġc anis
ĠP e
Ġvid ent
Ġgener ibus
ĠFid ei
Ġjus titia
Ġinerm is
ĠA per
Ġ1 14
Ġdetr acto
c s
Ġal to
ĠGall orum
ĠB ras
Ġsumm us
Ġsoc iorum
ĠTemp us
Ġub icumque
Ġgrati arum
ĠTr es
Ġmedic ina
Ġext oll
ĠMarty rum
ĠM un
ĠRom e
ell it
Â§ .
Ġc ibus
Ġf ar
ĠSc rib
Ġmov eri
ĠLond ini
Ġp uni
Ġprob are
Omn is
Ġbe ate
ĠR av
Ġun icum
" )
Ġpen etr
l eo
Ġa vid
ĠPl ato
Vol up
M t
Ġlun ae
est es
Ġconvers us
ll am
Ġint erea
ĠE ug
T UM
Ġ6 2
Ġnum eris
Ġcad it
Ġpleb e
ig h
p iae
Ġ9 0
Ġbenedic tus
I b
Ġter g
ĠJun ii
Ġt on
Ġviv o
ĠEd w
Ġdissim ul
ĠI ord
C as
Ġch ris
v erat
era que
ĠBern ardi
it ioni
Ġpot uisset
Ġlect or
ĠEras mi
Ġl us
Ġgrav ius
ic ulus
Nov um
Ġprop ugn
Ġprop ius
Ġ6 8
Ġdivers as
Ġin est
il it
ĠMol esti
s anc
Ġins ipi
Ġplag a
' '
Ġanimad ver
ĠHer od
Ġlib ras
Ġcontr ario
Ġ200 8
Ġm aria
Ġsucc essit
P etr
ĠL ondin
Ġp Åĵ
ut er
Ġvoc ent
Ġed itus
ĠGu il
Ġp an
Ġnos se
ĠInter im
ĠT ert
Ġinstitut is
g rav
w orld
ĠD OMIN
Ġh ier
Ġi lia
Ġh aus
ĠPra et
Ġin ep
ĠS ta
ĠAl c
Ġli us
Ġ1 13
Ġpass ionis
Ġlabor amus
ĠDuc is
Ġsacram enti
Ġo tium
Ġpag e
in itas
tim o
ĠAfr icam
J oh
AT E
Ġconsci entiae
Ġnex us
n r
Ġmens am
Ġele emos
ĠD issert
Ġrequi em
L ing
es u
ĠSep tentrion
Ġal bum
ĠSch ol
Ġmed iam
ĠM uli
B r
Ġan x
Ġconsequ i
ter i
Ġint uit
Ġfal so
b os
Ġad scrip
Ġder iv
Ġassue verit
Ġdet in
Ġconcord ia
ĠVolup tatem
tic orum
Ġmens uram
id th
Ġsch olarum
Ġreper tus
Ġvolupt aria
Ġnomin um
Ġnov as
Ġag at
Ġscrip turae
ĠSic iliae
Ġnegleg entur
ĠC athed
ĠRo ter
Ġne p
Ġp eter
re f
ĠHug o
r h
iti arum
Ġu obis
ĠBy z
it ores
Ġtene atur
Ġlap is
iter i
Ġaud itis
Ġcler icis
s se
Ġparticip es
Ġtemp la
ri et
ĠAqu inatis
ĠRespon s
Ġcotidi eque
Ġfamili am
Ġdulc is
Ġpra en
Ġdioeces i
Ġex ult
Ġfon tibus
ex a
Ġr ar
Ġad dic
ĠH IS
ĠSc yth
Ġomitt antur
Ġill arum
tit as
Ġdisput ationi
ĠMar tis
Ġmarty ris
Ġqui esc
ĠGab ri
ĠI ap
Ġevert itur
Ġ Ã©
iam ur
ĠP un
Ġval ere
ĠAbb as
Ġcur iam
Ġdet est
U LI
Ġmon tium
ĠPar t
Ġsti pend
Ġtris tis
Ġpers ius
Ġlign o
Ġpar ab
og ra
Ġsep tentr
Ġmunicip ium
ens o
tit le
Ġpecc atores
Ġpatr ioque
ĠEr n
Ġist os
Ġvet eri
ĠAmpli fica
ĠF e
Ġmut are
ab ar
ĠLibr ary
Ġinterret ialis
Qu in
ĠSanc te
ĠC ord
Ġtr id
ĠSalv atoris
Ġh ie
Ġabhor reant
Ġh o
ĠInter pret
omin a
Ġdic et
Ġoccas um
Ġr id
Ġfamili ar
Ġstr ic
al do
Ġarm orum
ĠL it
Ġdom ui
Ġcer tus
est u
Ġfide icomm
Ġpos idonium
ĠIn tr
V A
itiv a
Ġp us
Ġsucc ed
Ġutram que
Ġsalut atus
ĠImper atoris
Ġn au
Ġbre ve
or am
ern o
ĠO tt
Ġei que
ang e
li amentum
Ġg ut
Ġinstitut o
Ġdefunc ti
Ġmerc edem
Ġcler icus
it ii
ĠR en
Ġconf estim
Ġquad rup
Ġv oto
Ġgener atione
Ġnav em
Ġvices imo
c io
Ġvere ar
âĢ ĺ
Ġsic c
ator io
ĠAcc essit
Ġaed es
Ġpertin entibus
il y
ĠDi oc
Ġquac umque
ĠS ulp
Ġpass ionem
ĠMin orum
n isi
ĠPat av
ĠEv angel
Ġincorrup te
itat o
Ġvinc ula
ĠPlin ius
Ġinh abit
iss am
Ġmand avit
ĠV etus
Ġacc eperunt
ĠE le
Ġ1 17
Ġgr ata
Ġdiscrim en
ĠV t
Ġviv endi
Ġimm un
ĠC UM
Ġprovinc iarum
X VII
oni orum
Ġaux ilia
u unt
Ġaliorum que
ĠN otis
ĠA ed
Ġintelleg i
Ġsignif erumque
id os
en ch
eg r
urg e
Ġnim ia
ul tis
Ġsit i
ĠUn us
Ġcec iderunt
Ġqual isque
ĠP all
Ġat q
Ġgr atum
Ġfl ore
ĠBritann ia
Ġtrib uit
ĠSab b
Ġunic uique
in v
ĠAd ri
Ġpri orem
ure a
Ġmis eri
Ġpri oris
Ġori ente
Ġoptim is
ĠArchiepiscop us
Ġexemp li
Ġcamp o
Ġabsol ute
Ġluc ilius
? ]
Ġ20 11
ĠAet hiop
Ġdisc ept
Ġepiscop os
ĠHistor iarum
alog i
ĠVel it
ĠEx empl
Ġ0 8
Ġvid ebantur
Ġproc edere
Ġdiss entias
Ġm ili
w i
Ġe qui
Ġcal ce
Ch ris
ĠA ve
Ġre que
Ġmilit aris
ret um
Ġex ire
Ġres picit
b or
Ġse que
Ġmens a
world cat
el um
ES T
h ol
Ġ ue
ĠH ec
ĠK on
Ġconclusionem que
Ġpunc to
Ġtu eri
Ġmed iae
ĠTim othe
iat um
Ġcomm in
ost es
I o
Ġcont endit
Ġt aur
um ento
el mum
Ġvent ris
Ġpra esc
Ġli quid
ĠPasch a
Ġserv ire
Ġfastid ii
ĠS ev
op olis
Ġcaus arum
ĠĠĠĠĠĠĠĠĠĠĠĠ ĠĠ
Ġge ometr
isc ing
ĠAm et
Ġl ectiones
Ġdiff ert
Ġtractat os
en ii
Ġquar tus
ĠMar cum
ĠOr ationes
Ġcompos ita
ent issimum
Ġdil ectus
ĠClar itas
r oc
Ñ ı
ĠM Ã¼
Ġpar ochi
Ġoper i
ĠVener abilis
Ġvolum ine
Ġobsec ro
Ġconstitu ti
ĠDis putatio
. ~
ec enas
ĠRespon dit
Ġconclud aturque
L ud
ĠPhilipp o
Ġmeth odo
it ionum
Ġsed uc
Ġs Ã¦
Ġsed et
t d
Ġanti opam
Ġsacerdot is
Ġco etus
Ġinc ommod
Ġpas tores
Ġlat inae
Ġcom iti
Ġab n
ae is
av iae
Ġab duc
Ġprophet am
ĠEph es
Ġdissenti et
Ġappell at
ob rem
Ġfr ui
Ġdelic atissimi
Ġmaxim is
ĠPar liamentum
Ġnumer os
ĠN a
Ġla es
P atr
Ġsociet as
ect arum
Ġquar tam
Ġ6 7
Ġchristi ana
ĠFranc icum
Ġimp le
Ġaccur at
ĠâĢİ (
Ġv este
N E
Ġarch idiac
AS S
O B
Ġsil entium
Ġal phab
Ġrelic tis
ĠS E
ĠH y
Ġoc urreret
Ġcompl ures
Ġm ucius
Ġsub inde
ĠPlat onis
Ġel ecti
Ġordin ibus
Ġmir aculis
Ġimm ob
Ġinsid iis
Ġop ul
ĠMiss ae
ĠP H
Ġn uc
as tas
ĠGr atia
Ġarchiepiscop i
Ġconf ort
Ġdef l
ĠTh rac
ĠCod ex
ĠAss yri
Ġvale ant
om as
Ġl aed
Ġacc eper
V D
Ġoptim o
Ġinf lam
Ġmale fic
t ica
p ort
ĠN eg
Ġpossess ione
Ġprae da
Ġlit ig
Ġpass io
Ġsuperi oris
Ġdix erat
ĠM og
Ġfort es
Ġd iplom
Ġoccid ere
ĠSociet ate
Ġrever a
Ġign osc
ĠSen eca
ĠLiv ius
Ġtranqu ill
Ġseri em
ĠprÃ¦s ens
is tat
Ġsuper fl
Ġfruc tibus
Ġson et
ĠSerm o
Ġa enean
Ġloc uti
Ġcommod um
Ġmir abilia
ĠXX VII
Ġtrit ani
it ui
ereb atur
Ġinop ia
ĠCatil ina
M A
Ġeven it
l ac
Ġsup pon
Ġindic ibus
ĠCons ul
Ġintra vit
ĠQuin tus
Ġpar es
Ġviv unt
ĠSalom onis
S ol
at ica
Ġb otan
Ġdic torum
Ġiur ibus
ĠV err
Ġb el
Ġist orum
Ġac erb
ili as
Ġvestr os
Ġex ec
Ġcertam ine
Ġviv amus
Ġven erat
ĠAl tera
Ġpontific is
Ġped em
ĠE c
ĠH ym
v t
II S
ĠEcc l
Ġas sequ
ici as
Ġsalut andi
Ġerr em
ĠUnivers itate
" ;
Ġevangeli z
ĠIudae i
Ġthe ophrastus
Ġmed ica
Ġequit ibus
Ñģ ÑĤ
Ġadd ita
othe k
X IV
Ġever ti
imi que
Ġver Ã²
ĠG em
Ġvituper atoribus
ĠC erte
Ġten ebat
T unc
Ġret t
Ġcruc i
Ġdic ebatur
Ġr api
ĠI anu
Ġdomin ium
Ġsor orem
Ġinv ad
ĠEr r
G H
n ia
Ġv ariae
; ">
Ġv ectig
Ġobt ulit
ĠP ac
Ġnonum es
b rum
Ġs tra
Ġmi gr
Ġmon umentum
Ġep arch
Ġverter em
Ð ¿
qu os
Ġne pot
Ġar rip
Ġsex tum
Ġrecus abo
Ġhabitat ores
at ed
Ġfoli a
Ġconc inn
enc iam
Ġex orn
ens ionis
Ġfl ex
Ġhon estum
Ġcre ata
Ġuit a
en burg
R ex
ĠKal endas
R ep
Ġel ectionem
ĠF und
quam ur
Ġcor dibus
Ġdes id
ĠPtol em
Ġvol uerunt
Ġfig uram
Ġaud ito
ĠReg ione
ber to
Ġfuer is
Ġauc torum
M i
Ġpr and
u itate
ĠLing ua
ĠHung ar
Ġsusc ipere
ĠA h
Ġdign i
Ġsoc ii
Ġpet i
Ġhabit are
Ġorig o
yl v
Ì ģ
Ġlin k
Ġal tius
ĠAth anas
ĠT R
ig il
Ġsim ilibus
Ġdiab oli
un ia
ĠT ullius
Ġter go
__ __
å ¼
ot os
Ġmal itia
Ġfon t
Temp us
am entorum
arr ac
loc k
R ed
v al
ort h
ane is
Prae f
ĠV nde
Ġmerc es
ĠHof mann
Ġan tis
Ġsinis tra
Ġvid entes
Ġaur em
o qui
ir urg
Ġfec eris
ĠZ ach
Ġexcep to
ern i
ed erunt
Ġnomin atur
ĠP uer
lic a
Ġleg untur
Ġinterf ecit
Ġper vers
Ġdign atus
I ON
va il
Ġ6 9
Ġintellig it
Ġrelinqu ere
Ġn atione
ĠR el
ĠCant ab
Ġconj unc
Ġu erum
ĠPl a
ĠÃ ¨
Ġgen eri
Ġbenefic iis
ĠOrdin arii
Ġdiff erunt
Ġexperi entia
X VIII
m er
Ġux ori
Ġexs ult
Ġincid it
Ġseri es
S e
ĠN ep
U rb
Ġ0 9
Ġperm itt
ĠCiv itatis
p age
Ġmom ento
ĠVer bi
Ġrec essit
Ġmorta lium
ĠA gn
Ġv esc
eb amus
un ensis
i ur
Î Ń
ae a
Ġmet um
ĠLitter arum
Ġali oquin
UL US
Ġev ol
Ġduc tus
m atum
ĠT ob
Ġalb ucius
ĠAr men
Ġ9 78
ĠT amen
Ġliber am
ĠConstantin opolit
o i
Ġobtin ere
Ġgen erat
Ġins pir
ĠVirg ine
Ġmonstr at
n d
Ġa vers
Ġabsc ondit
Ġinveni untur
Ġrep per
Ġpraesent is
Ġtris titia
Ġcant icum
Ġut rique
pos s
Ġpro g
Ġquem que
Ġpur to
Ġat tr
lic k
Ġmin ore
li p
ĠNos trum
Ġstat utum
oth er
ij s
M on
Ġprovid entia
ĠPri or
Ġcler icorum
ĠSeb asti
! !
Ġc ic
P aris
n g
Ġpraet orio
V ER
Ġpisc es
Ġitin eris
lib ero
Ġfiduc iam
Ġs tim
Ġaff ectum
op sis
Ġtim eam
Ġgaud et
ĠChar ta
Ġ7 2
ĠCON S
Ġelem os
Ġutil itate
Ġinc ertum
Ġprivileg iis
Ġaltern ative
est ae
iat or
Ġdisc ord
l ab
ĠS P
atum que
ĠTheod or
ĠP ann
Ġobs eru
Ġcas um
Ġpesti l
Ġsol vit
ov is
Ġall eg
Ġinven erunt
Ġelabor aret
Ġpriv ata
ĠF ris
ĠEr ud
Ġaper uit
Ġf erat
Ġtrans c
Ġvirg ines
Ġvideb itur
ĠF al
Ġn aut
ic uli
oc us
Ġap r
Ġcop ul
er ata
dic tum
Î¿ Ïħ
Ġus i
Ġinst ru
olog iam
Ġabsol utam
ĠMax ime
Ġpecc are
? âĢĿ
Ġdec is
ĠMo ysi
Ġdim in
Ġdistinc ta
Ġteneb ras
op us
ter ium
Ġp ane
Ġsa peret
Ġare a
Ã¡ b
Ġ1 16
Ġsollem nes
ĠU T
Ġpostul at
Ġconv ic
Ġhon esta
Ġv ap
ĠComm iss
Ġreliqu os
Ġarb ores
Ġargum ento
Ġdoc ti
qua que
Ġag endi
Ġsimul que
Ġpropon it
Ġprom isit
ĠI ugurth
Ġvic issim
Ġadi ung
Ġepist ula
Ġab str
c ol
Ġver tit
ali ae
P o
Ġp ius
ĠArchiepiscop i
f ecit
ĠParis iensis
Ġinstitu tione
Ġn u
Ġit al
Ġposs ibile
ĠAs per
ĠC ot
ĠL and
he im
Ġconc ilii
Ġpraes entes
Ġplen ius
y pe
Ġpecc at
IN G
Ġpresbyter i
er are
Ġarc a
Ġport ae
uer etur
Ġmiss am
Ġjus su
Ġcom ites
Ġnasc untur
in xit
Ġhum iliter
ĠLe ipzig
Ġsuccess ores
ĠR atione
E d
Ġexpr esse
Ġ7 7
Ġz ril
Ġchristi ani
Ġpon am
ĠGl oss
Ġvide amus
ot ae
Ġperf ecte
Ġv entus
Ġcustod es
d ia
am ine
ĠMin erv
Ġd amp
at hi
Ġf Åĵ
Ġpers olv
ĠAnn ot
il itate
Ġpossess io
^ .
im et
ort et
re a
eta ils
Ġcuius libet
Ġmagn itudo
Ġpa ulum
Ã¹ s
Con f
Ġcas trorum
vail able
ab eris
Ġimp ud
Ġejus que
Ġp ast
Ġarb or
Ġtex tu
Ġped itum
Ġimm acul
Ġcogit atione
Ġcolor is
Ġvic tim
Ġaper i
Ġvul tum
urr ere
Ġven ia
Ġrep l
u atur
Ġsoc ialis
ĠBatav orum
Ġquam uis
Ġun itas
ĠAt qui
Ġvinc ulis
press um
olog icae
Ġbenign e
Ð ·
å ¿
Ġvol umen
Ġpredic tis
ph ona
Ġpatr ocin
Ġqu int
Ġpr idie
Ġaequ ales
Ġsuper iores
Ġmedi oc
ĠH ere
Ġfac ite
ĠV arr
Ġs h
st ant
Ġdoc tores
Ġex ul
ĠS h
Ġtranse unt
Ġconver tit
ar emus
Ġsper o
Ġl ae
Ġingr essi
Ġnas ci
ĠOM N
ĠL og
Ġscel ere
Ġp ep
Ġpos itis
Ġdic t
Ġrep os
eli a
Ġdil uc
enti e
Ġimpl or
Ġma ecenas
inc ta
Ġcar mine
oni z
ĠPap am
Ġrob ur
ĠChristi anos
Ġpriv atis
Ġpraest at
Ġmov ere
Ġv iii
ĠFr at
secund um
Ġj uc
Ġint endit
Ġaccip iat
b l
ĠCar mina
v r
Ġelect ram
tem per
ĠC and
ĠAc t
ĠSecund i
ob ard
Ġhab ebis
Ġqua eris
Ġfer oc
Ġqu anti
im ates
oli m
ĠLib ros
Ġr hetor
ĠPos tr
berg ae
Ġsuper fic
ĠEl ect
ĠSup pl
ĠF a
pl ur
f on
st at
CI P
Ġmyster ia
V id
ĠEvangeli o
ĠOffic ium
ĠF ecit
ĠProp terea
Ġcompos itum
Ġpiet atem
Ġg us
ĠAqu il
ĠC le
Ġin aequ
ro w
ĠAll eluia
ĠH ir
ĠAuctor itate
Ġa eccles
Ġpuer orum
Ġrefer tur
ad o
Ġdescrip tion
Ġconsens us
Ġprot eg
Ġpraest o
Ġlib ellum
Ġpoenit entiam
ĠV r
ĠAd j
Ġdic erent
ĠF irm
Ġmilit em
Ġconfess ione
Ġh aur
ĠCon d
ĠMon tis
ĠNec ess
ll a
J ohann
Ġ7 6
ĠS ib
ĠApostol icam
Ġaudi erunt
Ġpraec ipi
Ã ±
at uum
Ġl atius
Ġmus icae
Ġpossess iones
ĠCaus a
av ere
Ġsid era
Nov a
ĠL ae
ĠDes ider
Ġcui quam
s ac
ann a
ĠNos ter
itur i
IC I
Ġtesti fic
ĠSem in
Ġprohib et
Ġinv entum
Ġdil at
Ġs arc
Ġprincip i
H enr
Ġappar atu
Ġbaptis mum
ĠSEC UND
Ġst ella
Ġc ot
Ġneg are
G al
IS T
ĠPontific em
Ġdere li
è ®
Ġins p
ĠGraec um
ĠC ul
E a
ine a
Ġfamili aris
Ġrepr imique
Ġpraed estin
Ġins igni
Ġsupplic ium
Ġ one
ici unt
Ġexc ed
ĠV ero
VI T
ĠG entium
Ġdiab olus
Ġdix isti
ĠPhilist h
Ġpro in
Ġcust os
Ġpraecep to
Ġrestit uit
Ġquot quot
Ġeos que
ĠC oc
Ġdioc esis
ĠAlexand ro
Ġplur imos
ĠSac rosanc
ĠIta li
Ġlacr imis
Ġvol ebat
Ġmin oribus
Ġe ar
Ġmilit ari
Ġarc am
im il
ĠM inis
ĠL oqu
ĠAp oc
ĠSam u
ĠB erg
Ġpugn ae
ĠScrip ta
Ġle vis
ab ilius
uer o
ĠIll yr
Ġreperi untur
an ica
Ġex quis
Ġbov es
S L
G o
Ġvig ilia
Ġmiss is
ĠOp usc
ĠMagn o
ĠGuli elmus
ent issimo
Ġtrad ere
Ġdub ia
amp le
ĠOrd ine
Ð ³
Ġimp ut
Ġhistor iarum
1 14
Ġ( "
ĠJo an
Ġdiscrim ine
ĠB onum
ĠG ro
Ġpl eni
ĠCarthag ini
str ing
ĠV enus
Ġeff ectu
ĠCons ilium
ern um
Ġbr ute
Ġfl ux
ĠEp iph
Ġun g
Ġco qu
Ġlitter am
ĠSen atus
Ġson us
ul go
esc io
Ġfacul tates
if orm
Ġsem it
Ġquaesti onibus
ĠI l
Ġport us
Ġprincip alis
Ġrecogn osc
ĠH oll
Ġpl aus
ĠV ER
ĠCar ol
å½© ç
Ġav ert
Ma gna
Ge org
en atis
Ġat tig
ier int
Ġor are
Ġsyst ematis
Ġsor te
Ġcomment arius
c ur
r iter
è µ
Ġmult itudinis
H odie
M onumenta
ĠF ortun
Ġnun tium
er icus
ĠRec ogn
L iv
l oqu
Ġm entes
Ġel ectione
Ã¡ re
Ġmar itus
Ġqu esti
Ġvocab ulum
U l
ir ma
Ġmag isque
Ġaper ta
, )
V erum
ĠD ol
Ġfl amma
et c
ĠMDCC C
ĠInv estigationes
Ġomn im
Ġfrum enti
Ġpr act
ĠO ecumen
Ġfur ore
Ġlo quebatur
ĠS id
Ġillustr is
1 10
Ġmil li
Ġpar ati
ĠAd huc
an ii
Ġus ui
Ġin auguralis
Ġsem ina
ĠLuc ret
op o
ĠIm mo
ĠL una
Ġsacram entis
Ġc uris
Ġdim idium
Ġin jus
Ġ7 1
d io
ĠF ur
Ġscel eris
Ġsuffic i
Lat ina
Ġanimad vert
m ort
Ġaccep i
ĠAn ni
all em
Ġabsol v
ĠSequ itur
Ġegr essi
ĠD id
Ġpraes ide
Ġdeb es
LI T
Ġhered itate
i ana
Ġ gn
ul ar
ĠBaptis ta
ab ulum
Ġ %
ĠF land
ĠF asc
Ġsolum modo
Ġweb site
Ġhab eas
Ġmor ti
Ġpercus s
Å Ĥ
Ġc ith
Ġvol uc
ĠD en
Ġdes ol
r in
Ġalt ari
ĠInc arn
Ġpoet arum
Ġg ess
Ġpraescrip ta
ib unt
ĠVar ro
ĠPra eter
Ġorn atum
âĢ ı
Ġsent it
Ġanc illa
ĠG allis
Ġlit ore
ĠM ox
Ġdes unt
Ġarc em
endi x
Ġiac et
or f
Ġfl ores
Ġsecret o
ĠAgr ic
Ġres ta
Ġcomm itt
Ġtac imates
y rum
Ch risti
ĠDionys ius
Ġaff ect
Ġconsci entiam
Ġampl ect
Ġgreg em
ĠAustr iae
o am
Ġlac te
Ġmon et
Ġcom ite
Ġmans it
ĠFlor ent
atur i
Ġ8 5
Ġpraev al
ar din
Ġcomm issa
ĠIp si
Ġill ustravit
Ġsch olast
ĠA z
ĠP OS
Ġvictor iae
L ab
ĠE lem
Ġappell atus
å¿ «
Ġsch olae
ĠFac tum
Ġoper ae
Ġocc ult
AT US
ĠVirg inem
! )
em is
Ġsp ati
Ġreper itur
Ġp anes
ĠC rit
ĠMa gnum
ĠVal erius
* .
ĠHistor iam
Ġdestr uc
Ġintr are
ios e
Epist ola
ation s
Ġquibus cumque
Ġcont ent
Ġvuln era
ĠGerm anorum
ĠF ul
Ġtr ucid
Ġmanif este
Ġfoed eris
P H
E B
Ġimp ro
Ġinfirm itate
Ġen unti
Ġinteg ro
Ġsec ulo
ĠDÃ³m inum
Ġpertr ans
Ġhon este
Ġdic amus
Ġsequ atur
ĠAs iam
Ġnup ti
el unc
ven iens
ĠEphra im
De inde
empl o
y li
Ġco actus
ĠCal vin
ĠR ect
ĠQu int
Ġod or
Ġt ue
Ġr ecto
Ġcred idit
Ġre uer
Ġcirc uli
Ġhab enda
Ġsimil itudo
ĠGa ius
E odem
ĠR am
Ġm b
Ġit idem
ĠF ugit
In stitu
Ġaccep tum
Ġinc it
Ġgaud ia
Ġad sum
ĠSam n
Ġperf ect
Sanc tus
od io
mi hi
Ġp ull
Ġman eat
ĠAc tum
Ġinqu iet
Ġl itus
ĠA f
Ġspeci ei
Ġrad ices
A g
y e
Ġi idem
Ġla x
ĠSenec ae
ĠE up
Ġdes uper
T um
ag en
Ġpres entes
Ġjej un
' ;
Ġmendac ium
Ġpraeb et
c es
r ara
ios i
Ġmur o
Ġhabet is
Ġtribun al
ĠP ut
ut ere
Ġciv itati
ĠVer ba
Ġiud iciis
ed iae
Ġd ens
ĠN atus
ĠIn di
Ġven iret
Ġvali d
v ia
Ġa ver
un tibus
LI BER
bi it
ĠJ ac
Ġprophet arum
r ici
Ġac err
Ġlacr ym
ĠSac rorum
ĠOp tim
ĠD CC
Ġpeculi ari
Ġprod esse
Ġnarr at
Ġinsign e
Ġa vailable
M issa
p ul
Ġg allic
Ġsp atia
k o
Ġp ir
II II
Ġresist ere
ĠS lav
ip er
Ġde orsum
Ġcan onum
1 18
Ġc y
tr ans
Ġopp idi
ĠMa ior
Ġev entus
Ġvis u
ĠColl ection
ĠHenr icum
n ob
Ġfug ere
p es
Ġsuper v
ĠNatur alis
Ġarc us
Ġalt itudinem
Ð ¹
ĠMar s
ĠMoys en
Ġelig ere
Ġdeser ta
Ġde est
Ġfraud e
C od
Ġund ecim
Ġmed iis
ac ius
ĠC AR
ĠC ent
ĠE orum
ANN ES
Ġinven ies
Ġâ ĸ
an ei
Ġvul tis
Ġoccas io
Ġconscrip ti
Ä ķ
ĠCh ald
Ġas pici
ĠA udi
Ġsumm ae
¥ ĸ
Ġpar all
Ġfut ur
B ib
rop cap
I sa
ill os
Ġdomin io
ĠC CC
Ġvic em
Ġc aret
Ġmaj orem
Ġfasti g
tin um
Ġdu arum
Ġpr ed
Ġ oss
ĠM ot
Ġmens ur
ĠEccles iis
Ġ á½
Ġdi rip
Ġhum ilis
Ġcon uers
t ant
Ġs op
ĠL icet
Ġ7 3
Ġsuperi ori
ĠMartyr olog
ĠV enit
tin a
ĠMag dal
ĠFrancof urti
Ġb l
Ġâ Ĥ¬
Ġlac um
ann um
Ġdisc ess
Ġdilig entius
ĠD ub
ĠU tr
Ġconc ipi
Ġprof ug
Ġstatu imus
ĠLin naeus
i unc
ĠV ill
Ġmagn as
CAP UT
Ġn ationibus
ĠG ott
Ġcommod a
itudin i
ĠprÃ¦c ip
ĠJohann em
C red
Ġd ant
Ġpar tum
ĠAcc edit
Ġex isti
Ġvirg inem
Ġnatur alium
Ġperp etr
am et
ĠInf eri
Ġf estis
Ġag eret
Ã© c
ĠCr edo
il itas
Ġmar ito
Ġsch olis
Ġconced imus
on ici
Qu omodo
Ġst ellarum
ĠHer ac
Ġt ecta
eter a
ĠLuc ius
Ġl ub
ĠXX VIII
Ġimag inibus
1 17
ac ulorum
Ġg all
Ġaegr ot
D oc
Ġd ura
Ġgra dibus
Ġsuper est
ens que
en er
ed us
H R
Ġcontinu andum
e vit
Ġpredic ti
Ġperf ectio
ĠI uppiter
Ġaud iens
Ġauth ore
Ġfr umentum
Ġreg iam
ĠHolm iae
âĢ ¡
Ġpraef ecto
Ġed uxit
Ġcarc erem
B as
ĠColleg ium
Ġmuli ere
c in
Ġreligios i
omin e
j ect
Ġquae libet
ĠProin de
ĠCorn elii
at ro
Ġjus tific
Ãº n
Tr actatus
Ġvid erit
ĠSyr acus
Ġac tionis
Ġcl are
h ard
Ġpr ess
ĠDuc atus
ĠAgripp inae
Ġedit ionis
Ġad ire
ĠD esc
iv es
ac ionis
Ġnot am
Arg umentum
Ġexpress a
ĠSim ul
S uper
ĠDam asc
Ġv ana
Ġcali g
Ġnat alis
ĠAmer ica
J oann
Ġver n
ĠO v
ĠSyr iae
st ad
ĠC ujus
Ġedit is
od os
ĠAr s
Ġproc lam
ĠVind ob
Ġrect or
Ġdorm i
Ġinst antis
tim ur
ent issima
Ġjus sit
eb imus
ĠquÃ¦ r
Ġquo quo
Ġcontrovers ia
ĠC ad
atur os
ĠJ ustin
Ã¼ ck
Ġconcess um
on icae
Ġquam dam
Ġgener atio
Ġco enob
ĠNam que
Ġspiritu alibus
it uit
RI P
ĠD ir
il o
og allic
Ġph antas
Ġ[ -
Ġth r
Ġmens em
V al
Ġr itum
ĠAn num
Ġpraedic tis
ĠHisp aniam
Ġdes p
esc ant
Ġpet iit
Ġpotest is
Ġhumil itate
Petr us
um br
et t
Ġinter fici
ĠGenti les
ort um
ĠAth enis
Ġconsp ectum
ov i
Ġl am
Ġdec imam
Ġaddit is
Ġplac itum
Ġass erv
Ġpossid et
ag us
f c
ac tae
ir ch
Ġ0 5
ut os
Ġex ilium
Ġded isse
Ġseri e
erunt que
D a
Ġnot as
do i
Ġsuperi orem
ĠTerr arum
ĠTrident ini
Ġtyp ograph
Ġali unde
Ġliber orum
Ġviv i
ĠProp os
An d
ĠNorm ann
C a
Ġquid dam
Ġiniqu itas
Ġconsist ere
ol es
Ġprof und
ni uers
ĠFac ultatis
ĠS ymb
Ġoper ari
Ġbibli othec
Ġaem ul
Ġsen es
Ġpropri i
ĠConstantin opoli
Ġvid eat
Ġimper at
eunt es
ĠM ans
Ġbeat am
ĠTemp li
D es
o is
Ġ8 8
ĠPub lius
Ġcol umb
Ġintelleg ere
es us
Ġius te
ĠTHE OLOG
Ġmit te
ĠEd u
ĠF ide
Ġden omin
ĠPro vid
ĠLut etiae
Ġaud io
ĠOmn ipot
Ġuel ut
Ġrelic to
Ġfund um
Ġdecern entibus
ÏĦ Î±
ĠI O
ĠT re
Ġ0 7
Ġtoll ere
Ġfir st
M ax
Ġs inus
Ġquant itatem
l op
Ġrecens uit
Ġoptim i
ĠT art
Ġcur are
Ġordin um
Ġconsul atum
Ġdic entem
ĠRob erti
Ġterm ino
om p
Ġex e
Ġth em
Ġp udic
ens am
ĠâĢ ł
Ġpo enis
ĠÃĨgyp ti
Ġopin iones
Ġmor bis
IC A
Ġtab ul
Ġbenedi xit
H omo
an ius
Ġabst ulit
Ġan al
Ġsep t
Ġnatur ales
Ġedic tum
Ġaud itum
Ġá¼ Ģ
ma x
ativ us
S equ
ĠR itu
ĠQu antum
Ġhis tr
Ġsec uri
Ġprof ecti
ĠVir tut
An ton
Ġcathed ra
Ġ8 3
Ġhab ito
ĠO ff
Ġvid ete
Ġomnipot entis
Ġnup tiis
Ġder elinqu
ent s
Ġprod it
ĠM ant
Ġpl eraque
Ġmort ale
Ġvinc ulo
Â Ķ
Ġminis tris
Ġinferi or
Ġtabern aculi
Ġadvers a
cem odi
Ġvoc abula
Ġ200 7
Ġanim e
Ġdir ecte
Ġpaul ulum
Ġobl itus
Ġinsign ia
ull ae
Ġvid eris
Ġorient alis
I AM
Ġcoll egit
Ġpag o
ris que
Ġar iet
ĠDomin ici
Ġuid etur
ĠLond on
ĠVes p
Ġaccep to
Ġa esti
ĠPh r
Ġapp on
Ġdon avit
ä¸ ī
Ġregn are
A ll
AT A
ĠP ecc
Ġstat utis
en ni
ĠComment arius
Ġveris im
ĠD ur
Ġqui ete
r arum
Ġel ap
ĠG ad
ul si
Ġl ustr
Ġfacil lim
Ġvic tum
Ġperc uti
Ġconscrip ta
ĠPriv ileg
ĠInscrip tiones
* )
li ber
Ġclam or
Ġhab entem
ĠPr od
Ġiug um
ĠMarty ris
ĠIudae is
Ġs ero
ing er
Ġangel um
Ġvocab ulo
Ġclass em
Ġun igen
ĠH orum
ag r
Ġfl oribus
Ġa ula
Ġecclesiast ici
ĠL ipsi
ĠV l
Ġac tiv
Ġutil itas
Ġevangeli um
e ffic
Ġcorrum p
ĠA tr
Ġscrip tus
Ġpass ione
Ġmagno pere
n orum
Ġd atam
Ġsp elunc
ane us
ĠJud Ã¦
Ġcu ilibet
Ġinterc ed
. +
Ġ7 4
Ġ9 5
Ġgener aliter
ĠSatur n
u oc
ĠAn na
Ġcr escit
ĠQuadrag es
Ġcons pici
ĠâĢİ âĢ¡
Ġsol aris
ec erat
Ġresta ur
Ġt echn
Ġserm onum
Ġal so
Ġag men
Ġquaer imus
Ġsupplic io
g ap
Ġinvid iam
Ġaut or
Ġc ereb
Ġde a
Ġserv itium
Ġsub ter
ĠVolum en
ĠB acch
Ġexc erp
reh endi
ĠU sum
Ġcl asse
ĠObserv ationes
L L
Ġvir ium
le y
Ġnob ilium
ux i
Ġdis p
t om
ĠDom ain
Ġpur ific
Ġantec ed
en es
ec isse
ĠT a
eb untur
Ġmol end
Ġvolunt ati
Ġuit ae
S ep
Ġam ica
M us
Ġde per
Ġnumer orum
Ġaeg re
ver int
Ġui g
b antur
fr idus
Ġdilig ere
Ġsil vis
Ġpar vo
Ġinter pos
39 31
ĠInd ia
ĠWil hel
Ġips arum
atus que
ĠCant uari
Ġinv ic
ĠCod icis
ĠM ex
Ġanim orum
, âĢ¦
Ġten ore
ĠOrdin arius
ĠA rag
ĠBoh emiae
D C
in oc
Ġtim et
Ġannot ationibus
n arum
Ġservitut em
ĠM AG
Ġhom ero
Ġ8 1
Ġventur us
Ġs inum
Ġcelebr atur
it ion
ĠCar olum
ĠThom am
Ġcanon icis
Ġv alle
Ġcant u
w o
ib o
ĠRe form
ric ulum
Ġim prim
Ġcor di
Ġlud um
Ġreligios is
ĠQU I
Ġresurr ectionis
Ġphilosoph iam
Ġv atic
ĠPent ec
Ġtheolog ica
TIT LE
Ġfort uit
ĠDist inctio
Ġv estibus
Ġmir aculum
uf rag
ĠOm ne
V E
ĠÎº Î±
Ġv sque
Ġlong itudinem
ug h
ĠF aus
v as
ĠCar d
Ġseptim a
ac iae
Ġtribun us
ĠAnt ver
Ġadv entus
Ġsalv us
Ġquaesti one
Ġsump tus
Ġantec ess
Ġmagn itudinis
m inum
Ġf oll
c ia
Ġa x
ĠP age
Ġcircuit um
Ġconviv ium
ĠDic itur
Mat th
Ġplur ium
ĠMel ch
ĠAmeric anus
ec e
Ġreg ul
Ġmeli ora
Ġu ide
Secund um
Ġad sc
Ġop pr
ĠItal icus
x erit
ĠD or
Ġconstit ui
Ġel ectio
ĠR P
Ġag er
AT OR
Ġincrem entum
Ġad itus
Ġconsequ enter
Ġcondic io
Ġconfirm at
en ium
ĠRes p
ip se
Ġdi uis
ĠN un
Ġlong is
Ġsacram ent
Ġrem itt
Ġoc ulo
Ġaequ alis
Ġaliqu as
Ġfigur as
1 12
is tor
or iae
ĠC AP
is tr
Ġaud acia
aus a
Ġl ecto
ĠOl ymp
ĠprÃ¦ cep
â Ī
Ġviv us
Ġav es
Ġrequir it
ĠS ap
ĠS ump
ĠA it
Ġel eph
C urriculum
oc lc
ĠR est
E l
Ġpet ram
Ġgrav es
T ab
ĠM ad
ĠB uc
Ġprox imis
Ġcongreg ati
Ġdic etur
ĠG il
C r
Ġ7 9
Ġvolup tatis
Ġdivid itur
Ġcaeter a
st anti
in al
Ġperf ectionis
Ġs onum
Ġsec uli
uv ium
ul fus
ĠU m
Ġas pectu
Ġrep on
Ġtri ang
Ġcons id
iv o
uli i
ĠEm end
Ġadep tus
Ġconc it
ĠT itus
Ġput et
ĠCh al
prob rium
Ġz ur
Ġb ack
Ġe unt
erat um
ĠAl bertus
> ,
uer ent
Ġex equ
Ġcred iderunt
Ġgaud ere
ISC OP
ut urum
ĠL ent
Ġtr op
ĠLuc am
il lim
Ġfacul tatibus
Ġpar atum
Ġaug ur
Ġcontr ariis
Ġobliv isc
av a
ĠGr acch
} }
Ġedit ae
Ġman ent
gress i
Ġprincip atum
M ag
ite or
con c
ĠAm pl
ĠLib ris
Ġrevers i
å ı
eh em
ĠTar quin
o us
Ġpr est
ĠJ ur
Ġsub urb
Ġtrad unt
Ġaccipi unt
Ġcap tum
Ġoper atio
um entorum
iv us
Ġunivers ali
Ġsort em
Ġdilig entissime
Ġscrib is
Ġvirg ine
Ġpraeclar a
ĠTo tius
Ġh yd
ĠEpist olarum
Ð½ Ð¸
Ġsub trah
Ġconst anter
Ã¡ te
Ġder elic
ĠBoh em
Ġcl ero
Ġ8 4
Ġoper ationem
Ġ7 8
Ġtur pe
Ġnatur ale
od am
ri or
ĠAn astas
ĠQuae dam
Ġterm inis
iov anni
ec utus
Ġsal vo
Ġcompl ex
tr ix
Ġprop itius
Ġutil itatis
Ġacc eperit
burg i
ĠQuin que
Ġmin ori
ĠB i
inc tus
Ġquot annis
Ġpl or
temp us
c ar
XX V
Ġspeci ebus
Ġin iti
iss emus
ys s
Ġven issent
Germ an
Ġs s
F ab
Ġrec eperunt
ios is
å¼ Ģå
Ġepist olas
Ġceler itate
aph ras
Ġline am
Ġration alis
and orum
tam in
Ġt aed
Ġnun tius
ĠCom itis
Ġnunti os
Ġposter o
ĠEcclesiast ica
Ġh ibern
ĠMat ris
and e
Ġacc end
Ġmali gn
Ġprogr essus
H or
Ġprud ens
^ ,
Ġtabern aculo
S emper
id isti
ass is
Ġunivers os
ĠXXX I
uc i
Ex plic
Ġcae de
F or
Ġleg at
Ġprivileg io
Ġpossid ere
ĠSa int
Ġins pect
ĠUrb s
Ġhab ui
ĠM igne
ĠCon fer
Ġinterpret atur
Ġdex tris
ul em
Ġaliqu ant
Ġdomin orum
ĠEr ant
Ġprud enter
pr es
Ġmil itis
Ġrel eg
Ġveter em
Ã ¯
Ġdi ur
ti li
ĠI v
ĠJ anuarii
Ġclem entia
g ro
H om
Ġdic itis
T AE
ĠD OC
Ġin itia
Ġsuper fici
Ġsecret a
Ġinc ur
Ġvol entes
Ġacc om
Ġsp ha
ĠEurop e
b ia
. *
Qu em
d ium
id en
ĠA us
Ġne ut
si ze
Ġfl ect
Ã¼ rich
ĠOrdin ario
ĠMartin us
ĠG el
Ġcas tro
Ġcont enta
Ġcapit uli
ĠL E
Ġclar us
Ġdulc ed
at s
ĠE R
Ġsens it
ĠMont anus
ĠRev iew
Ġdeb ito
Ad d
ĠIoseph us
Ġappell ari
er og
Ġalia que
ĠS AC
od ec
Ġab dic
he us
Ġx i
Ġnomin atim
An te
Ġtemp est
Ġdecret is
Ġauth ent
ĠC er
Ġadipis ici
Ġobsequ ium
H e
y er
Ġdec ipi
ĠsÃ¦c ula
Ġspec ulum
Ġprophet as
Ġtut o
ĠOrient alium
Ġstir pe
qu ote
Ġd unt
tic h
Ġobserv ationes
ĠLa et
rex erunt
id imus
ĠDe ip
ĠV ari
Ġv arii
ux erat
Ġpass iones
Ġplag am
ĠS ix
Ġarb orum
Ġdim ittere
Ġparv um
Ġtr ic
ag raph
AT UR
el m
on atus
ĠQu atuor
Ġpar ens
Ġsinistr am
Ġu inc
Ġcub itorum
Ġposter is
Ġhumil itatem
T ags
Ġali js
ix um
Ġadj uv
Ġa vis
Ġex tor
Ġnostr Ã¦
Ġreliqu iae
ĠTrin itate
am e
Ġab hinc
d ropcap
u ens
Ġcon pl
Ġaedific avit
ĠDel ph
ĠG ene
oni ensi
Ġcu idam
ĠB ello
ĠThom a
Ġdil ect
Ġv endere
ĠN em
Ġins erv
Ġcod ices
Ġsanct itate
Ġá¼ Ĳ
L itter
Ġsacr arum
r c
Ġproc essit
Ġvers ion
Ġclam ore
ĠGall os
Ġmult arum
Ġintenti one
ĠT i
Ġpropos itionem
Ġiu u
Ġmal os
Ġcapit ibus
ll er
ĠSacerd os
il itatem
v eg
ĠLat er
Ġpisc ium
ib at
Ġspect are
at et
Ġnon numquam
Ġseptim um
Ġloc os
ĠW olf
Ã¡ vit
ĠP ere
Ġred itus
Ġcense o
Ġequ orum
ĠÎ ¼
im per
ĠCons ectetur
ĠLeg es
Ġarc e
Ġdef ectus
Ġlud is
Ġpap am
ÃŃ p
se p
Ġst abili
Ġduplic iter
Ġpraedic tum
ĠL ov
Ġimper atorum
Ġinstrum entis
Ġinc erta
Ġsum ere
enn is
ĠDic ta
ĠVolup tas
Ġperf ectus
Ġv ico
ass us
ĠTh esaurus
ĠRe gn
Ġl udi
Ġex prob
ess ent
Ġposs em
Ġnatur alibus
P ars
ĠR ab
Ġme Ã¦
ĠAmst el
Ġcircum cis
ĠMiss am
ius s
ĠTh eb
Ġfrequ ens
Ġco hib
Ġprox imus
ol dus
Ġterrestr ibus
at ensis
Ġper iit
tin us
Ġsch oliis
Ġspiritu ali
Ġcarn es
m arum
Ġo tio
Ġmit tam
. }
Ġf ores
ĠQu ot
Ġid ol
Ġviv ens
Ġrep ent
Ġali eni
Ġregim ine
Ġjus t
C lar
ĠU N
ĠW h
Ġoccid entem
Ġatr oc
Ġcont est
Ġrecep ta
Ġmans uetud
Ġdic emus
Ġdivit iis
Ġh ii
Ġsol ito
Ġint entio
Ġpon e
Ġa h
ĠStat us
Ġconst are
ĠAr tic
Or do
Ġprim os
all y
Ġconcep tus
Ġius t
ĠPyth agor
ĠL ect
Ġvit e
Ġsubi ecta
ĠCr ac
alog o
er en
Ġcred endum
Ġd onis
ĠQu um
Ġhuc usque
Ġstr ep
Ġim br
Ġexcel sis
ulp a
Ġreper ta
ĠT op
Ġeff l
Pag ina
ĠTimothe um
ĠSc ali
Ġsoli dum
Sanc ta
ra p
Ġpropri as
Er go
Ġrec ol
Ġerr are
Ġmembr orum
Ġc entes
el y
Ġperf ectam
xx x
Ġa estate
ĠV itam
prop ter
ĠP ed
å¼Ģå ¥ĸ
ĠI C
Ġinter pell
Ġprovid ere
Ġcorn ua
t ere
ĠQuam vis
Îµ Î¹
g ere
ĠC av
D EM
Ġm yth
u id
Ġantiqu um
ĠPrincip um
Ġobsid ione
ati am
Ġev an
ĠTe ut
Ġfaciam us
Ġf eruntur
Ġfoed ere
cuius que
Ġinc urr
Ġcom pr
Ġr ationi
Ġreg inae
ĠAcc ur
ĠEz echi
m or
ĠInt erea
ar ta
Ġv l
Ġcur iae
In s
Ġapostol is
u Ã¦
er itur
ĠEl eg
Ġministr orum
per am
Ġcirc ulum
Ġdet eri
Ġpost hac
Ġpraescrip to
ĠA en
Ġmo tibus
Ġsuperb iam
Ġl ectio
Ġconv entum
ĠSteph ano
l avi
ip sa
Ġm ilium
t ati
Ġv esti
ch ir
ĠMiss ale
Ġtam etsi
Ñ ĭ
is is
Ġqu anquam
isc h
Ġdic antur
Ġul ter
Ġst abil
Ġins c
Ġlic ebit
ã ģ
ĠCH RIS
ĠCorint hi
ĠS allus
Ġconc edere
Tr ans
ĠC ing
ĠColleg io
ĠG ir
Ġon er
in quit
Ġindic ium
Ġocta va
Ġer as
Ġlong itudine
in itatem
ĠR atio
ĠConst anti
ĠT ext
Ġadd ere
Ġhered itas
S erv
qu orum
Ġpo en
E ius
Ġ8 2
ĠPor ph
S erm
ĠGerman icus
Ġps all
a et
Ġfort itudine
Ġpraet ere
ĠS pon
ĠD alm
Ġciv ile
Ġperm ut
Ġprud entiam
Ġger ere
Res pond
id iae
ĠI udic
Ġpar ere
Ġob temper
ĠPrincip es
F er
Ġnull atenus
Ġpon i
Ġinim ic
á½ ·
Ġholocaus tum
Ġnav ium
eb itis
Î ®
ĠBr and
ĠMo ab
Ġna ufrag
Un ivers
p ad
pl or
Ġdiss olv
ĠM osc
Ġsc op
ab e
ĠN oli
Ġpur a
Ġfaci entes
ĠSumm o
Ġsed it
Ġ8 6
.) :
Ġaudiv imus
ĠSucc ess
Ġnos ti
ax at
ĠTer tium
ĠOc t
ĠX C
se udo
Ġins idi
Ġ ç
Ġaliqu anto
Ġglad ius
Ġvoc ati
Ġoffer re
Ġtrep id
Ñ ĩ
et ico
ĠV ere
ĠC D
Ġliber avit
Ġjus tum
Ġdoc ent
Ġpu erit
Ġtant us
Ġcal icem
Ġillustr ium
Ġexst it
Ġast ra
Ġun ica
iis se
Ġreligios a
id isset
Ġtranst ulit
Ġobs ides
ĠLaur entius
G R
Ġocc ulta
ar ing
Ġoper atus
Ġexc ol
Ġ0 6
ĠĠĠĠĠĠĠĠĠĠĠĠ ĠĠĠ
ĠMaxim ili
Ġp edit
ĠCom pendium
Ġac tionibus
ĠAn tis
Ġl ectum
n n
Ġinf est
1 19
Ġinterpret e
ĠVal ent
Ġecclesiastic orum
Ġsepulc rum
ĠC ister
Ġded erat
á½ ¸
Ob serv
Ġsal vi
ĠOrient alis
crip ta
Ġscrib itur
Ġsecret um
Ġviv os
Ġn avi
ĠT ig
Ġne pos
Ġred und
s ive
id itate
Ġconcord iam
Ġcomm issum
Ġluc ul
ĠEx erc
Ġbib ere
w er
ĠT ir
ĠAP OS
ĠVatic ani
Ġdic eretur
Ġprob ari
Ð ±
ices imo
Ġmis erum
Ġscrip ti
ĠAn al
Ġaccid ere
Ġy e
Ġposter ior
ĠCapit ulum
Rom ae
ĠAdm inistr
Ġcognosc itur
ĠC AN
Ġfid eli
ari es
ĠAn ima
Ġvinc ere
[ ...]
Ġid i
Ġmir ific
ĠC il
ĠH es
ĠI S
Ġqua erunt
ĠFab ius
ĠP AT
Ġlat et
Ġadeo que
ĠHannib al
Ġc ale
ell ere
Ġadd uxit
Ġsignific ant
Ġf aut
ĠQuod si
Ġlib et
Ġsoc ius
Ġpugn are
ĠT ri
mon aster
Ġsum itur
Ġloqu ens
âĨ Ĳ
ĠPet rag
ĠB ulg
Ġimp ii
ali z
Ġins inu
Î¹ Îº
Ġoblig atione
is te
Ġconf lic
Ġconsec utus
in ii
ĠP ad
Ġidem que
Ep iscop
Ġc enam
Ġd or
Ġconv enti
Ġ8 9
Ġver sum
Ġepist ulam
Ġcommod e
Ġconv ent
ĠReg io
M in
ti ores
Ì Ħ
re at
Ġgl oss
Ã¦ m
N ic
or iis
Ġfut uram
c ui
Ġtorm enta
Ġmon t
Ġinv iol
Ġconiunc ta
Ġcupid itas
ĠVerg ilius
as e
Ġh eri
ĠM odo
Ġsp ar
Ġco eper
Ġnecess itatis
Ġgreg es
Ġfen estr
eret is
O c
Ġobl ata
Ġar rog
Ġas se
Ġiniqu itates
Ġdevo tione
Ġver ius
ĠSed em
q v
ĠConsequ atur
æ ľ
ĠS eg
Dic tion
Ġingen ia
ĠP eri
ell at
Ġrect am
Ġmin ora
u em
Ġ8 7
Ġsor ores
Ġtene at
R ei
Ġins ulis
fac tum
Ġante hac
iet as
ĠS ue
A ud
Ġconven iens
ĠI erem
ĠMD CL
ips os
1 15
Ġvid endum
Ġvenen um
ĠST EP
ic s
Ġmor am
Ġscrib endi
Ġdeb eo
ĠZ Ã¼rich
Ġvari orum
Ġma jus
ales c
Ġj ura
P ers
in opoli
ĠVI R
Ġcomm e
ulis ti
D escrip
Ġr obus
Ġpar ia
Ġtr unc
ĠSyr ia
s imus
Ġsubi ecto
r icis
ĠS atis
G a
ĠR eb
ĠEx p
Ġlib ello
Ġv ov
ver ant
Ġist ae
f it
Ġb ore
Ġloqu imur
ĠJ ord
amb ul
Ġprud entiae
Ġinfer re
Ġten ens
Ġmem init
Ġconfess ionem
I t
p raec
Ġexc ogit
Ġconsul t
ĠAng elis
ĠNon n
Ġha er
ĠPlant arum
ĠC Ã¦s
Ġmar ch
ĠPom pon
Ġcup it
Ã Ĩ
ar er
Ġsaec ulis
Ġexp i
Ġdiv ulg
ĠGeorg io
Ġc ibi
ĠW it
n ov
u ff
Ġin esse
ĠIn auguralis
Ġarb oribus
Ġtheolog ia
ĠD iab
Ġbaptiz atus
Ġvisc era
ĠM yst
Ġat tribu
ĠIohann em
ana an
ĠprÃ¦ st
Ġquem dam
Ġprincip atus
ĠPompe ium
at ri
ĠD ico
uli mus
Ġchristi anorum
Ġ Å
Ġhon esti
Ġerr oris
ĠDioc let
ĠScoti ae
ĠCath ar
X IX
ĠquÃ¦ dam
ĠPompe io
Ġimb ec
Ġagn itus
add ing
Ġultim us
Ġsyn agog
ĠSar din
Ġoctog inta
Ġvul nus
Ġatt ulit
Ġg erit
Ġmarg in
Ġimit ari
Caes ar
Ġad scrib
ad ius
con tra
Ġservitut is
Ġad t
ud ebat
Ġn om
ĠJ erem
Ġredd ita
Ġs entio
Ġreg it
g es
Qu ibus
ĠRe ipublicae
Ġconsul tum
Ġsabb ati
u itatem
od orus
ĠAd ip
AE C
Ġnoc tibus
ĠPlut arch
ae os
al p
Ġaut um
Ġexst at
Ġc Ã¹m
ĠC OR
Ġpor rig
g is
Ġacc ers
Ip se
Ġinc ly
Ġprae pon
ĠNol ite
Ib id
Ġf ato
pos itum
ap p
Ġ. âĢĻ
Ġmom entum
Ġmach in
Ġa es
Ġexp edi
er ici
ub uit
Ġfor san
Ġdig esta
Ġinscrib itur
Ġpertin entes
Ġcompos uit
è ¿
Ġan atom
Ġvol ui
Ġappet itus
ĠS ir
Ġmis ere
Ġprom issa
Ġreper iri
ĠD im
Ġde lig
Ġcons anguine
Ġculp ae
Ġoff ert
ĠSem alt
Ġeloqu entiae
z on
Ġprae i
M US
Ġlong am
Ġredd at
Ġcom itiis
Ġantiqu itus
Ġt aliter
A lex
Qu are
Ġadul escens
ap t
ĠAngel orum
Ġsci unt
ĠCas trum
ĠGuli elmi
ert as
Ġlat eribus
Ġpu ellam
Ġvest es
m m
Ġpro ven
Ġpar a
å Ľ
ĠThe ol
Ġper terr
Ġvit iorum
V is
S yn
Ġfac turum
Ġin hib
Ġmol li
ĠJ ul
ĠNicola o
Ġsacerdo tium
ĠÎ ´
ĠNostr ae
Ġpar ad
Ġdescrip ta
Ġcolleg ium
Ġcom edit
Ġcontig erit
Ġi x
ĠÂ» ,
Ġdic ata
ita li
] )
m ut
Ġobs ecr
Ġindig et
omn ibus
Ġsc iam
Ġcar ni
Ġmar more
Ġmiseric ors
Ġaudi entes
Ġv eget
Ġre um
Ġnot us
ĠAN NO
ĠJeh ova
ĠArch it
ĠCancell arius
Ġpass i
Ġden arios
Ġpropor tio
ĠO P
Ġsor oris
Ġsan itatem
Quaesti ones
sp an
Ġvit is
Ġsignific are
ogra phi
f um
iv am
ĠPhilipp um
Ġsimil itudine
ĠP ec
Ġredd itus
Ġsubst itu
Ġad orn
p ore
Ġpar ata
Ġrep rehens
Ġunivers itatis
Ġs oph
at icae
ĠL es
Ġimag ine
Ġheb domad
å¿« ä¸ī
Ġprot est
ord iae
Ġ^ ^
Ġargum ent
Ġcrim ina
Ġad p
Ġrec ess
ĠPl ur
Ġvest em
f ont
ur Ã¼ck
Ġtut ela
Ġmem ini
Ġabb atem
Ġiniqu itate
Ġregn ante
qu as
Ġcom itia
Ġpor c
Ġmori etur
Ġausp iciis
ĠM oll
Ġtur n
Ġind ag
Ġcondic ionem
Ġcircum c
ĠB ona
Ġappell atione
eg yr
atr es
Ġadi unctis
i al
Ġd atae
ĠL az
ĠPas tor
ol et
ĠIns ula
id idunt
ali gn
ĠDem etr
ĠAssyri orum
ĠV ia
ĠNeap olit
Ġmem brum
Ġinl ustr
å½©ç ¥
Ġfin ita
Ġrad ix
unc ti
. âĢľ
Ġaccep tis
a gn
ĠA eter
Ġob r
ĠJ ean
Ġrestitu ere
Ġcast ellum
Ġrip am
sequ at
ĠKon k
Ġmed icae
Ġcontin ent
Ïĥ ÏĦ
Ġad quir
Ġconsens um
Ġsol itudinem
Ġlat era
fac ere
D isc
S I
ing en
Ġsol itudine
Ġlab iis
ĠNo e
Ġinter itum
ĠAm ster
Ġconst antia
Ġcop iae
H i
Ġm entibus
ĠPhilosoph ia
v os
on ice
Ġcommun ibus
Ġrev ol
ĠCongreg atio
Ġmod ul
Ġem olum
Ġign ob
Ġâ Ħ
Joh n
ti r
ac tio
Ġreper tae
Ġimm orta
g et
Ġm endis
Ġv ento
ĠI an
ĠB ra
ĠReg ia
ĠSep t
Ġarchiepiscop o
Ġrefer ri
Ġsper are
Ġt estium
Ġst ans
Ġag e
ri e
ĠX en
Ġadvers o
Ġpres enti
Ġvers ione
Ġeloqu entia
Ġextit it
Ġnot andum
Ġinim icum
Ġaff lig
T ext
ĠMagn ae
ĠTrans l
omen a
Ġsomn ium
Ġr o
ord anz
Ġintenti onem
å½©ç¥ ¨
¦ ı
Ġpro lix
Ġinflam m
Ġlat itudinem
âĢ¦ )
Ġpoenit entia
Ġob stantibus
Ġpres ens
ĠFac ul
ĠMatth aeum
Ġfaci endi
Ġsepar atim
ĠKonk ordanz
Ġref eruntur
Ġmagistr atibus
Go ogle
av entur
Ġer up
Ġdec revit
ern am
Ġdef ectum
Ġcolor em
Ġprivileg ia
Ġ200 0
Ġd ate
Ġcunc ti
Ġcurr us
Ġsc itis
C lem
ĠAs sump
ĠInd iae
Ġperc ip
á½ ¶
Ġdiscipl inis
ĠV eterum
Ġse e
Ġserv ata
ĠS us
alog um
ĠInstitu tiones
Ġcar ere
Ġfab ulae
ĠTer tius
f in
ĠPatr ibus
ĠTeub neri
Ġquando quidem
ĠCantab rig
Ġm oti
ĠU s
Ġdec ur
ĠAl iter
Ġun iv
Ġlic ere
Ġinc urs
b ach
ib ilibus
Ġc edere
Ġpartic eps
Ġob tr
ĠRe gno
Ġperd ere
ĠMagis tri
ĠPa x
ĠGerman iam
Ġvirg inum
Ġcomm on
Ġcub iculum
Ġpign us
ĠV as
rum p
Ġdign e
Ġform is
ĠAmbros ius
XX II
Ġrog avit
Ġsig illo
Ġviv entium
EM P
Ġimpos uit
Ġvoc are
tur os
Ġserv itio
1 13
G u
ch i
d ere
AN US
Ġav ium
Ġquo usque
Ġaud ite
Ġsex u
v ent
Ġpriv atim
an eo
ĠAm mon
Ġsci endum
Re ad
Ġad fer
ĠChristi ano
Ġmul tam
Ġvel lem
Ġag mine
Ġfaci atis
ĠLeg e
Ġunius cuiusque
ĠPublic ae
Ġpolit icarum
Î± Î½
Ġpond eris
Ġtot is
Ġvic ecom
ĠLib ero
ĠO lim
l n
Ġat h
Ġpar r
Ġfl uctus
Ġintelleg itur
D el
Ġoc t
Ġnoc ere
æĹ¶ æĹ¶
Ġgrand e
ĠM are
Ġquam libet
Ġins ulas
Ġadven it
ens ae
Ġinf und
Ġextr emo
Ġvirg a
is mus
Ġexistim o
Ġcler ic
Ġcolor ibus
Ġhym enaeos
ĠE ff
ĠMagis tr
Ġconf essus
Pr ima
ustra li
ĠS ane
ĠL omb
Ġluc tu
ĠAbb atis
Ġiudic ibus
Ex c
Ġsyst ema
M is
Ġsp olia
Ġleg ato
Ġquin tus
Ġedic to
Ġpr epos
Ġextrem is
Ġull us
Ġsupr ema
Ġcon di
Ġpet itionem
ĠDecret um
Ġr atus
ĠM s
Ġorn amenta
ĠMercur ii
Ġdec ess
Ġinven imus
ĠAustr iac
f ore
Ġdomic ilium
P on
Ġus quam
Pr incip
ĠEpiscop os
ic k
Ġtrad itum
Ġignor antia
Ġcolleg io
p ius
Ġl anc
' )
et ra
Ġdes erv
Åį n
Ġut que
Ġob d
Î ²
ĠApostol is
Ġconting at
ĠIII Âª
ĠSig ism
Ġtrib uni
Ġconi unx
Ġmiss ae
Ġpontific em
Ġquibus libet
ĠP io
itur os
ĠEx positio
ĠInst itut
Ġdeclar at
Ġexhib et
Ġsed ulo
ĠH arum
Ġclar issimi
Ġerud it
ĠDionys ii
il d
Ġpar ric
Ġon era
Ġexst itit
ĠRec ens
ĠOcc id
Ġdissert atio
Ġd entibus
em io
ec tioni
ĠOffic iis
ia vit
Ġindic es
ĠXX IX
Ġdep ort
Ġ9 1
Ġconstitu ere
Ġfel ici
Ġdul ce
Ġinc olae
ach us
Ġdic ente
Ġid ea
Ġavar itia
C iv
Ġpraeter quam
ĠDoctr ina
S ci
AE S
ĠAnglic e
Ġmedic orum
onym us
Ġartic ulis
Ġab ol
ĠÂ ĸ
ĠWill elmus
ill ae
Scrip tores
ĠP and
Ġbal ne
Ġcl arius
Ġcap ell
Ġbell orum
~ ~
Ġauc tus
Ġgrav itate
Ġexper iri
Ġint ulit
Ġlic uit
Ġsignific atione
Ġsed ibus
Lib ri
ĠU x
Ġinstitu tionem
Ġfem inam
Ġconting ere
an ensi
Ġvid etis
Ġhumil itatis
l orem
Ġcons pir
Ġserv entur
Ġ9 6
Ġlud o
å ®
ĠIo ach
Ġscrips isse
ĠI tin
Ġne ve
ĠSuper ioris
Ġspeci alis
Ġrom ani
ĠO F
ith met
Ïī Î½
iv erunt
Ġbrach ium
Ġdefens ionem
Ġquant itate
ĠAlexand rum
Ġuit am
][ /
Ġquiet em
Ġd abitur
Ġinf eros
ĠV et
Ġdis tr
ĠF elix
Ġconf ert
Ġedit ion
ĠPhr yg
in ensi
Ġd amus
Ġv ici
Ġeadem que
Ġb rac
Ġluc rum
Ġsuffic ere
ĠCel ebr
Ġpar tus
ĠAp uli
Ġordin ata
Ġhabit avit
Ġcunc t
Ġangel os
Ġpend et
esc o
ĠConstant ini
em ate
Ġpar em
ĠIos ue
Ġciv ilibus
L c
ĠÂ Ĺ
Ġsod alis
Ġh eret
ati as
Ġten ui
Ġpleb s
Ġneg lex
ĠP ari
Ġgr ac
ĠRelig ionis
Ġcompend ium
Ġsollic it
ic iae
end ens
Ġignor at
Ġtransl ata
ĠBr utus
Ġmar iti
Ġov ium
Ġparoch us
j o
ĠÐ ¿
ĠIud as
Ġscand alum
Ġd entes
Ġdim itte
Ġquadrag es
ĠSex tus
Ġe dific
Ġcom bus
P or
ĠR uth
Ġl ectione
Ġdelic tum
Ġsc ias
ĠTemp ora
Ġrom anum
ĠCiv itatibus
Ġartic ulo
um e
ĠI ub
ĠH uc
Ġbon e
Ġdiab olo
Ġtit uli
Ġampli fic
Ġob ed
Ġvener atione
ĠAdv entus
ang elis
Ġrecogn itum
Ġrespond erunt
ĠD ivi
Ġdam na
S ectio
Ġt ulerunt
Ġmil itia
ĠByz ant
ell os
ĠL ys
Ġprec ip
Ġobserv are
Ġfec erint
Ġmediet atem
h ar
Ġmin orum
Ġspeci erum
rim que
ur c
Ġr ab
ĠH ae
Ġexs ist
P hilosoph
Ġf ed
ĠDolor es
Ġf od
Ġlab ia
ĠGali lae
om er
aes it
ĠCons ili
Ġfur tum
s ius
ĠBibli othec
V itae
ĠH yp
ĠO f
Ġobl ect
Ġseni ores
Ġbeat orum
Ġadf irm
unic ip
ĠE ut
Ġpartic ulari
ex c
ĠX LI
ĠCon t
Ġsignific atur
Ġasc endere
Ġpaenit entiam
Ġaper tum
Ġre fr
Ar tic
E sse
Ġvid erentur
l ot
Ġejus modi
Ġmemin isse
Ġundec ima
a a
Ġn atos
Ġmiss um
Ġquaes itum
Ġper uen
EN DI
Ġim mod
Ġacc eperat
ĠSic iliam
IN IS
Ġcreatur am
Ġprincip aliter
Ġass ist
Ġfab ulam
Ġtene antur
Ġres urrexit
Ġu enit
tem us
Ġ12 0
AR E
Pra eterea
v b
Ġpr omo
ĠG au
c iv
Ġc ann
Ġtra go
Ġnut ri
unc tus
Ġpraet ex
Ġregim inis
Ġe ra
Ġdioeces ani
Ġ9 3
Ġexper tus
atis que
us tus
Ġlaud at
pos uit
Ġvinc ulum
Ġr ata
Ġglad iat
Ġ1 11
Ġdiscip ulorum
Ġnostr arum
Ġauc tum
ĠPraes es
Ġt utum
Ġrecep tus
ĠGregor io
Ġpert ineat
Ġanim abus
Ġexhib ens
ĠEucharis tia
Z urÃ¼ck
al s
ĠR ebus
Ġpl uris
Ġattrib utus
Ġn ug
Ġdic enda
Ġdes pici
ĠLib rum
Ãº m
Ġcre p
Ġpraev aric
ĠS ED
Ġam ph
Ġmut ata
lic o
Ġdefunc to
Ġput es
ĠLun ae
Ġin r
Ġad ver
Ġcoll o
Ġcan ones
Ġexist ens
Ġitin eribus
Ġa Ã«
Ġt endit
Ġdisc rep
Ġp ingu
ĠJ ob
Ġperic uli
Ġinteg ris
Ġex itu
Ġsil va
ĠLitter is
Ġexpon it
i ra
Ġs us
Ġmi g
Ġperd idit
Ġcat ech
Ġastero ides
Ġprof ectum
Ġn eb
Ġfur ti
Ġinterpret atio
ĠAbrah ae
f eld
ĠH un
V ers
Ġa estu
Ġnec dum
Ġintr od
ĠQu inc
Ġter tii
Ġsalut aris
Ġtribul atione
Ġtumul tus
ĠCollection s
ĠL ATI
ĠAc tis
ĠBibli orum
Ġads id
Ġproeli is
½ ĳ
ĠGrati as
Ġquod libet
iens em
Ġnov arum
Ġg estas
Ġer imus
ĠP acem
Ġprincip ali
ĠMari Ã¦
4 00
en ne
ul sa
Ġspiritu alem
Ġappell are
ereb antur
ĠBib lia
U I
Ã¼ r
gro und
XX I
ĠLatin os
Ġdemonstr at
Ġm elle
ui g
ĠThess alon
ĠA T
Ġgrat uit
S ex
Ġvac uum
Ġuer ba
Ġtot aliter
- __
S pir
in iae
ĠT antum
Ġor o
Ġcon tamin
ir es
Ġal ba
Ġoffic iorum
ul to
ic quid
Ġimped imento
Ġdecern imus
Ġfaci ebant
Ġterr ena
Ġaux it
Ġdam no
Ġp and
ĠQu oti
Ġab ierunt
Ġnatur Ã¦
Ġcogn itum
Ġcael os
Ġmiss ion
Ġreliqu erunt
em ent
ĠS yll
Ġsub lev
Ġeuch arist
Ġpro verb
Ġc eperunt
10 5
Ġpecc atoribus
Ġappell ata
u vi
A ve
and iae
ĠDoc t
Ġtr acta
Ġsump sit
ĠL ux
ĠCh anaan
Ġpul ver
Ġarb ore
Ġdefic it
ĠOt to
Ġla ici
. (
â Ĺ
er alis
Ġdivis ione
ĠOd io
ĠEx cep
Ġsed ens
Ġinf ras
ĠE lig
Ġ< /
is l
Ġd abat
ens as
ĠB ac
Ġm y
ĠI onath
ĠL A
Ġpecc ator
Ġed ere
ĠSuper sunt
Ġpropriet ates
od onos
op hil
im arum
Ġmur mur
h os
Ġlev iter
ĠcÃ¦ l
uit er
Ġbib it
Ġfaci endo
Ġsci enti
ĠF ig
ĠTac itus
Ġut rimque
di ac
ibli othek
ĠPrincip alis
Ġadministr atione
Ġmet aphys
Ġterm ini
Ġconstitut is
ĠSapi entiae
Ġrem un
Ġobtin et
ti p
ĠIll o
Ġintelleg o
ĠEn cyc
ĠC ens
Ġpar adis
ativ am
Ġpleb i
Ġnativ itatis
Ġjus titiae
Ġcer tior
Ġgraec a
Ġcur at
ĠGr on
Ġlud ere
Ġdux imus
ĠConstitu tiones
ĠElis abeth
Ġde esse
Ġab j
ig itur
ĠTr em
Ġabsur dum
Ġmis i
UL A
ĠSep tim
ĠTab ulae
ti es
Ġad e
Ġqu ominus
Ġtra i
Ġlong ae
Ġdim idia
ol ica
Ġpropos uit
Psal m
at t
Ġcons im
âĢ ł
Ġpraes entiam
Ġling uas
ĠCr em
Ġcondit io
ä ¹
Ġcomm isit
ĠcÃ¦ lo
s el
... ,
Ġst ellae
Ġab ire
Ġpros tr
ĠDÃ³m ini
Ġadh ort
Ġintellig endum
arch ia
hon e
ĠOffic ia
ĠNor veg
ĠBoni fac
Ġt op
Ġam ov
Ġer og
Ġar om
C ON
ibus que
ĠH ujus
Ġann ivers
Ġordin atus
rig ht
Ġequ us
ĠG iovanni
Ġrever entiam
Ġreligios orum
Ġl ectionibus
ĠTheod os
Ġheb ra
ĠL ith
Ġcan es
Ġtrib utum
Ġministr os
Ġperm isit
Ġgaud ent
Ġaccip itur
ĠGr egori
ĠPer se
ĠPh aris
Ġvuln eribus
qu um
Ġsacerd ote
R O
Ġaud eat
Ġb us
ÃŃ a
ĠVic arius
Ġabb ate
Ġconsuetud ines
Ã» s
Ġ9 4
. --
N ot
Ġnon a
urg i
Ġtrah it
ĠComment aria
Ġmarg ine
Ġsenect ute
Ġv iat
ĠF ried
Ġpar at
hon is
Ġhered itatis
ĠL et
ĠT oll
ut as
Ġpr ac
Ġconc ulc
Ġc ort
av ia
ici untur
Ġappell avit
Ġconi ect
ĠEurope ana
ĠAs sum
âĢĿ ;
Ġcon gress
Ġvetus t
ol em
12 0
Ġquant itas
Ġdivit iae
Ġter ga
Ġsubi ecti
Ġveni ant
Ġteneb rae
ĠAstronom is
Ġqu eat
ĠA equ
Ġmar itum
Ġpraef ectum
Ġdiffer entiam
p op
Ġinter ius
Ġcog itat
Ġnorm as
Ġut risque
Ã¦ us
ĠA ux
ĠS ime
Ġli v
ĠI uxta
Ġdil ecti
Ġbenedic tione
Ġminister ii
u untur
ĠC im
Ġab esse
esc et
esc eret
Ġcler icos
Ġhort o
Ġ È©
Ġnol o
qu es
ati vo
Ġdic ent
Ġcirc ulo
s emper
ĠD iss
Ġst abat
ĠUn ionis
Ġsax a
ist as
Ġdel inqu
ĠPal a
Ġincarn ationis
ul Ã¦
Ġsapi enti
Ġfort itudinis
ĠB land
Ġvol uerint
Ġdix erim
Ġaud iunt
Ġcontr ari
Ġinstitu tio
P ap
en z
ĠPh ili
Ġsimplic i
Ð¾ Ð²
Ġcoll abor
us i
Ġpot entes
Ġorient ali
d el
Ġdil ectione
Ġiud icum
H anc
Ġfam ae
Ġordin atur
ĠMat t
Ġid us
Ġmemor abilium
ĠSalv ii
ĠFragm enta
se ud
Ġess es
Ġpati entiam
ativ ae
Ġex quir
Ġplac uerit
Ġmer idie
Ġrom anorum
ĠEtr usc
Ġref rig
Ġsubi ac
Ġam put
Ġcelebr are
ĠOper um
Ġresp ice
Ġconf iteri
Ġcup i
ĠScrip tum
ĠFac ilis
ĠI uven
Ġconven erunt
Ġnect untur
Â ¦
ĠM ic
ier ant
ĠIuli a
Mar cus
ĠNab uch
Ġaev o
Ġet h
ĠE arum
pr imum
Ġfide iuss
Ġinterf ectus
Ġflag r
Ġincend io
Ġt ep
Ġdub ito
Ġresurr ectione
Th omas
uc t
ric ius
Ġol ei
odonos or
Ġm itter
Ġsec ula
ĠAli as
Ġe arn
Ġfr anc
Ġgener ale
Ġprec or
Ġrest at
Ġlum inis
Ġiudic at
Ġcogn omen
Ġem it
I acob
em ento
Ġante pon
Ġ0 3
ĠPos tum
C f
ĠL c
y ram
Ġt alium
.. ...
Ġmed ius
ĠContin ens
Ġpropor tione
ĠHipp ocr
ĠVesp asi
ĠC fr
Ġist as
Ġre fic
unc tum
ĠR atis
Ġscrips erunt
or b
Ġvirtu ti
l ong
al ensis
ĠG ubern
Ġprohib ere
wi ki
Ġn ationum
Ġpet unt
ĠNomin e
ĠTusc ul
Ġqu edam
al yp
Ġpl er
G aud
ab i
up ra
Ġun iform
Ġfund o
Ġsump tu
Ġimpr ud
Ġinterv allo
k y
m es
Ġsec uta
Ġrel ax
ĠScrip turis
Ġcunc tos
Ġdex tram
Ġexam ini
o z
Ġm oris
Pr imum
ĠGall us
ĠTor qu
Gl oria
Ġrem edia
Ġvuln ere
ĠFort una
ĠN erv
Ġap te
Ġprofic isci
Ġassid ue
Ġintell exit
Ġdial ect
ĠD ix
Ġdi at
Ġver itati
Ġdec imas
Ġsac ras
Ann ales
Ġcum ul
Ġpertin entia
Ġpal atium
Cap it
Ġthe y
Ġexped ire
ĠNO V
Ġl amp
ĠAl ter
ier na
p ium
Ġpraef atione
n c
Ġcens us
Ġr h
ĠAt l
T o
i ale
Ġsec urus
ĠHab et
s et
ĠClaud ii
Ġstudios e
ess io
Ġfi ebat
Ġspect aculum
Ã £
ol os
Ġdisc essit
Ġvis ionem
Ġrog amus
ĠInc olae
Ġiniqu itatis
Ġpollic itus
ĠRuss iae
ĠM ons
Ġun s
Ġw ho
Ġl ectionem
Ġdel iciis
ĠAugus tum
Ġnon g
Ġprivileg ium
ort una
Ġpar entis
Ġabsol uta
Ġdiac onus
ĠSed es
Ġpros crip
Ġincor por
ic ulos
ĠA A
Ġpar vis
Ġpredic to
ĠAtheni enses
ĠPyr r
Ġdispos itione
Ġm uris
Ġposs ide
ĠÃ¦ter num
Ġsol itum
erat or
Ġfl am
Ġampl ex
ĠContin ue
ent r
ĠS ina
ĠVer itatis
fic ium
Ġserv ari
Ġprocur ator
Ġorth odox
ti lis
Ġad erant
ĠCur sus
Ġsacrific ia
V L
ĠH ag
Ġhos tiam
Ġher ba
s ine
Ġ Ñģ
Ġpoenit entiae
Ġirr itum
j i
Ġ icon
Ġm acula
Ġb id
Ġdivit es
Ġmasc ul
omn ium
ĠAli quid
ĠEucharis tiae
eg i
Ġconvers a
ĠS iles
Ġ9 8
Ġv s
Ġgrav em
iti es
ĠV eritas
Ġimper atores
Ġ10 5
Ġordin ationem
ĠFac ta
Ġsa ys
Ġbesti is
Cic ero
ven iet
Ġduc um
Ġdog mat
Ġper ire
iti orum
Ġexc og
Ġvide or
Ġepist ulae
Ġcens u
Ġeb ooks
ĠTHEOLOG IAE
Inter dum
Ġadi ecit
Ġic tus
Ġveni entes
ĠR V
ĠCon dit
Ġor at
Ġepist olarum
Ġcod icis
Im p
Ġremed io
Ġcons ulis
Ġti r
ĠLuc as
Ã¡ s
ĠConstant inus
Ġcred e
Ġtang it
> .
D ies
es in
Ġv oti
Ġhab e
Ġal is
Ġsoc ium
Ġexhib ere
ĠIun ius
ĠLab ore
Ġpraedic ti
iss io
Ġod orem
Ġfem inis
ĠEP ISCOP
ĠLudov ico
ĠEli z
978 116
Ġdisc edere
Ġstat uam
Ġiug iter
T itus
id arum
Ġnoc tes
Ġquaesti onum
ĠJoseph us
Ġop or
d r
ul aria
ĠMonaster ii
n omen
Ġsc ab
Ġrem ota
ĠRe f
ĠChrysost omus
Ġdomin os
Ġhuman itate
ĠHer b
ĠDa em
ĠR aph
Con tra
ĠI li
Ġmut ari
Ġam ari
Ġstul tus
Ġinnum eris
Ġl es
oc o
ĠAl berti
Ġeodem que
Ġaed em
p k
ac u
Ġvers atur
Ġconst ans
Ġcircum f
ĠCur iae
ider int
ĠVerum tamen
Ġsup ell
Ill e
ĠSocr ates
ĠROM AN
u tionibus
Ġ15 0
er ub
Ġpotest ates
Ġcogn om
ell en
ĠG as
Ġviv at
Ġconstant inopoli
b ox
Ġs ana
Ġmor bus
Ġ9 7
Ġcal or
Ġexs p
Ġter ti
Ġquibus que
Ġsci ant
is ta
Ġab out
Ġantiqu os
d as
ĠH an
Ġsen em
Ġdioeces ano
ris us
Ġsc iret
Ġpecun ias
m ed
Ġin und
Ġexpos itio
ĠB rix
Ġqu alia
anti is
Ġinv itat
Ġrad ic
F F
id el
Ġoc e
Ġcommend at
Ġcr em
Ġpal atio
ass um
Ġcar minibus
Ġport u
Ġspeci fic
Ġinferi ores
ĠN i
Edit io
Ġcond itum
ĠEx tra
Ġdep rehens
Ġlup us
Ġt ell
ĠOri entis
ĠJ O
ĠMos en
ir d
Ġpati untur
Ðµ ÑĢ
ĠPraef atio
Rei he
Ġcomment ario
Ġsol enn
Ġastero idibus
u ium
ĠS v
Ġprob atum
Ġnegoti i
ĠRob erto
Ġglorios a
ĠBen iam
ĠI terum
Ġinteg ram
Ġgraec orum
Ġdamn atus
ĠRh eni
Ġe f
Ġbon itate
ĠCardin ales
omn is
ĠF o
ĠM eg
Ġprom itt
ĠB ut
Ġreform ata
âĪ Ĵ
Ġscel era
lim us
olum us
Ġdiap ason
X IM
Ġab ys
ĠCon cep
Ġnunti atum
ĠM t
ap ter
Ġpisc ibus
Ġnativ itate
ti que
Ġt ectum
ĠLuc ae
Ġthesaur um
Ġhab ebunt
Ġaequ aliter
quod que
Ġultim am
ĠApoll o
Ġl asc
ĠQu arum
Ġred itum
Ġmor bum
Ġdis par
Ġviv et
Ġpraecip uum
Ġde ven
anti as
vit ae
Ġaper to
ÃŃ t
H ier
ĠS emp
Ġgreg is
a ad
at issima
ac ensi
esc ente
Ġv ar
Ġsuper iorum
Ġnomin atus
op e
Ġam nis
Ġear undem
ill eg
Ġref ut
Ġtribun ali
ĠSpec ies
ĠAn imi
Ġinn ov
ĠNabuch odonosor
E m
Ġrel atio
ĠM ens
Ġinferi oris
ess is
Ġplac ent
Ġeorum dem
ĠUn g
Ġbarb aris
or u
ĠAp par
ĠG es
Ġauc tior
Ġgener ationes
Ġadi ac
Ġaccip e
Ġsupr emum
. ^
h al
Ġfl os
Ġdefunc tus
Ġc ere
est orum
ER I
ux erit
Ġoccurr unt
Ġs auc
Ġquis piam
Ġb log
ĠV S
Ġsol it
Ġw ill
Ġindic tione
Ġaccep isse
ĠMarc ell
qu et
Ġin eff
P raec
Ġcar b
Ġsex tus
Ġfluv ius
Ġven erant
Ġmagn os
Ġinterpret ationem
Ġegreg ie
Ġserv anda
Ġfaci emus
Ġem ere
ĠSc r
IT UR
ĠG ar
Ġdec ed
Ġost ensum
Ġconstitu tiones
Ġsump ta
Ġd ent
Ġlaud are
Ġrog atus
ĠN ullus
Ġma er
Ġg erunt
Ġext endit
Ġextra ordin
Ġpunc ta
Ġread ing
Ã® c
Ġven ite
Ġglad ii
Ġdot em
Ġmort ales
ĠIacob um
æĹ¶æĹ¶ å½©
G ra
V N
ĠLaud e
Ġic tu
Ġservitut e
ĠS ur
Ġtet ig
Ï į
Ġrep ud
Ġvide ant
Ġfelic itas
vid e
Ġremans it
od ecim
Ġan alog
ĠB ad
Ġop ific
Ġneg oc
Ġsanct Ã¦
Ġfoli o
isc onsul
ord ecim
Ġlat inum
Ġvestr orum
ĠCicer onem
w ho
im ul
Ġcur abitur
con f
i endum
Ġcontin eri
Ġconsider andum
ĠM onum
Ġpet o
Ġalien os
res pond
ĠInt ell
Ġl or
ĠTr eb
ĠCal end
Ġincipi unt
Ġadn unti
Ġmuli eri
Ġcognov i
ĠD al
Ġdes init
Ġdign eris
Ġdiu ina
Ġbibli othecae
Ġe un
AR I
Ġpraesid ia
Ġsa pere
ĠM ense
Ġconsequ itur
Ġfoll ow
Ġcup io
Ġsubs ist
Ġviv a
Ġvis io
Ġeff ecit
ung it
Ġsp arg
Ġloqu endo
ĠAngel o
w a
ĠP ulch
ĠV erc
Ġsic que
ĠEras mus
i alem
O cc
l ov
um ent
ĠM inus
Ġfem inarum
Ġex ivit
l s
us um
Ġer itis
ĠAr v
Ġcoll um
LIC AE
ĠEjus dem
ĠSc io
Mi hi
id iis
Ġ17 58
Ġf esta
Ġpot u
Ġgen ua
Ġmov entur
R ec
Ġc uper
ag io
Ġess emus
O m
s ent
ĠCant icorum
u h
ar k
od ium
Ġcogit atio
on icum
Ġun itatis
Ġpon unt
Ġexercit ium
Ġexplic are
Ġfamili ares
M ater
Ġin per
ĠAPOS TO
Ġcur as
Ġtransm ut
Ġimp iorum
Ġtabern acula
Ġinter pon
Ġsor ti
ĠInst rum
ĠIns uper
Ġ0 4
ĠFab ulae
erem ur
Ġs ome
ĠNov o
Ġsor s
ect ens
ĠCl uni
Ġquad rig
Ġsch is
em ium
ĠU R
Ġpropr ius
Ġin primis
ĠA LI
iss ionem
Ġneg ant
Ġdiffic ili
Ġrelic tum
H inc
ol er
ĠP en
s os
ĠMar co
Ġpon tem
ĠBon aventur
R ob
Ġper rexit
Ġhab eantur
ĠB ro
Ġvis ione
Ġcomm ittere
Ġaud iat
Ġnob ilem
Ġredd itur
Ġmedic o
Ġmit ig
Ġadhib ere
Ġchristifid eles
V eni
ti le
Ġt oni
Ġgr andi
Ġexcep ta
Ġfirm amentum
Ġmartyr ium
Ġfr em
of t
ĠN ept
Ġch irurg
Ġepiscop alis
Ġin eunte
Ġven ient
Ġu eni
ig er
Ġred di
á¿ ¶
Ġinstr uxit
Ġarc um
Ġcens um
Ġir rit
ĠCiv itate
Ġindi gnum
Ġhuman arum
Ġfraud em
Ġc un
Ġsci entes
Ġrever ti
Ġcrim inis
Ġsecund is
Ġocc ur
Ġsubl ata
è¿ Ĳ
ĠT rip
ĠAnnae i
ĠE quidem
Ġcap iti
Ġspons a
Ġdefend it
Ġtom os
ä »
Ġs ali
Ġpraesc rib
Ġlud ib
Ġdefin itio
Ġsuffic ienter
Ġver su
Ġadmir atione
Ġnobil itate
Ġsig illum
Ġl ati
Ġad itum
Ġinferi oribus
ĠLat inus
Ġsex c
OP H
at ra
as a
ĠN ath
Ġindic em
Ġconven iat
Ġiur id
Ã ī
Ġcontr ac
Ġobserv ari
Ġline ae
Ġnuncup atur
tra vit
Ġag ebat
In scrip
ĠBer lin
Ġd aretur
Ġrob ore
r int
Ġdem in
ĠPer f
X LI
Ġu estr
ĠAr t
Ġlacrim as
Ġthr onum
Ġsol utionem
Ġpraeb uit
ĠHug onis
Ġfor n
ĠNos tro
Ġdeduc ta
Ġdefunc torum
Ġkal endas
y ro
Ġi f
ĠG ymnas
ĠIuli o
Ġpraeb ere
ĠUr s
ĠAur elii
lish ed
ĠB ull
Ġcad ere
er tis
Ġv niuers
ĠCons ilio
Ġcelebr ari
Ġpredic tum
Ġcam pis
ĠDolor em
on ti
Ġer ep
Ġdelic ta
Ïģ Î±
Pa ulus
ĠRespond eo
Ġprofess ionem
p ec
Ġcom oed
OR E
Ġtheolog icae
OM S
ĠR hetor
Ġsenti unt
Qu ando
Ġprim as
Ġlat ae
Ġcontr ist
Ġprot ulit
Ġpraesent e
Ġmerc ede
Ġomnipot entem
l t
Ġrec re
Ġcap itum
Ġch ord
Ġpraecip uis
ec isset
el ebr
Ġtrans gress
ER M
Ġpoter o
ĠDE C
Ġvideb is
Ġjuv ent
m atibus
Ġcons iderat
Ġgen it
10 4
Ġwelch e
Ġwelch er
Ġco ac
ĠCur ia
Ġlat itudine
Ġsen atui
ĠQuar to
C orn
il um
und ae
Ġmar t
OR M
ĠAr b
ĠAqu inas
Ġsingul are
ĠQuir ites
Ġpo Ã«
Ġmilit iam
ĠBas el
Ġfrig us
rehend erit
Ġperven erunt
Ġc are
Ġplur imorum
Ġeff er
Ġpossess ionis
Ġmeli ores
Ġterg um
D uo
Ġsingul arem
cons ectetur
al ter
oc ius
Ġne quam
Ġadi uncta
Ġalt itudo
ĠTert ulli
r ime
t icae
Ġd antur
od a
Ġphilosoph um
d et
Ġinf ans
Ġph asellus
Ġsumm e
Ġconvers o
Ġsupr as
ĠM SS
ĠF iat
ĠAN N
pra es
Ġcerti orem
Ġav unc
Ġrestit uta
Ġgeograph ica
ĠPort ug
p ugn
¹ ¸
Ġa i
oc um
Ġecclesiastic am
is h
ĠF av
Ġ- --
olog i
XX VII
Ġinstit utus
Lex icon
ĠF ÃŃ
Ġneque unt
Ġextra h
ĠEl ector
Ġvine am
Ġexist it
ĠAnt oni
ac ae
Ġrad i
ĠCant us
ĠD rus
Ġnot es
10 6
Ġhistor ico
Ġobsc ura
Ġuir g
Ġamb itu
ĠLem ov
y lo
es L
Ġper u
ublic am
¹¸ è¿Ĳ
Ġf ero
Ġrad ice
Ġrefug ium
D uc
Ġla etus
ĠDi em
Ġpostr ema
ĠEsa u
ĠCister ci
Ġa uris
ĠF i
Ġequ itatu
Bib lia
ĠB otan
ĠquÃ¦ s
Ġingr editur
Ġsch olas
âĸ ł
x im
Ġconstitu tione
Ġreliqu as
ĠR ector
Ġcognov erunt
Ġat tin
Ġlong inqu
Ġdil ectionem
M L
t unc
Ġinc olis
Ġuti lia
Ġpraest it
Ġhab endi
A pp
Er at
Ġidone um
Ġvoc abatur
Ġplur imas
Ġfav orem
Ġche que
m anu
Ġtrib uta
Ġdivers i
Ġobserv antia
Ġmaj ori
Ġiuv at
ic en
ĠSed i
ĠFranc ia
Ġd abis
Ġ9 2
ĠIm ag
Ġarb orem
Ph ilipp
Ġcent ro
Ġoccul te
uer im
Ġsollic itudine
Ġexempl aria
Ġder og
ĠTex tus
ĠMagnific at
Ġpr eb
ĠEx s
Ġtab ularum
Ġlabor are
ĠS angu
Ġimper atori
ĠOri ente
Ġsubs idium
Ġbon itatem
Ġlum ina
Ġv or
Ġquod who
Ġconc epit
Ġsac ros
Ġcircum v
Ġquic hi
ĠMis eric
Ġwelch esL
Ġwhich der
m s
Ġpr eter
ĠL ectio
Ġcogn osci
Ġoppon itur
H a
c ra
Ġp ei
ĠG enit
Ġpati ens
ĠSump tibus
ĠA ris
¦ı å½©
S tat
ĠL im
Ġpere at
ĠS oli
ĠB rev
Ġvent re
Ġhiem e
ĠGuill elmus
i en
Ġpos ui
Ġins pici
Ġseg reg
Ġcapit ula
ĠXII II
on ie
Ġep igram
Ġcol unt
Ġbeat itudinem
Ġal bo
Ġnecess ariam
Ġarg ent
Ġreliqu iis
Ġserv etur
andi u
ĠGerman ici
Ġsacrific io
Ġqual itas
ĠChron icon
ĠJun ius
v iii
Ġind ivis
Ġrati ocin
M e
s erat
è ½
end itur
ĠT rev
Ġcontin ua
ĠTheolog ica
Ġt an
ĠPl an
Ġcael esti
Ġgener alem
Ġar tifex
Ġimp ensis
ĠIudae os
Ã¡ tis
Dec retum
ĠN ero
ĠEt si
Ġoc tob
eter is
Ġiniur ias
ĠGal aad
Ġdiv itiarum
re e
ĠVer bo
p ag
z z
å ¤
Ġin aud
Ġsol l
Ġius sus
Ġmaxim as
Ġasp ectus
Ġsimulac ra
Ä į
on y
Ġsuffic iat
Ġnit itur
m ir
Ġviv eret
Ġgest ae
ĠGrati ani
L in
S C
Ġg estum
Ġdil ectionis
Ġp es
ĠU llam
Ġadm itti
Ġmut ua
Ġnunti avit
ĠÐ ¡
ĠMatr im
Ġad aequ
Ġmorta libus
Histor iae
ĠD ia
ob or
Ġcl eri
ĠGallic o
ur ch
eb rae
Ġabs ente
OL L
ĠCOM M
Ġr iv
Ġtempor alibus
Ġelem entorum
Ex ercit
ĠId que
Ġconfirm avit
ĠScriptur arum
Ġper acta
ĠHor atius
Ġd c
Ġd urum
Ġves pere
ĠP auc
Ġfig urae
Ġcr escere
Ġduc unt
Ġmir or
ĠGl ossa
C uius
Ġs ib
at icum
Ġexter min
ĠExplic it
Ġaliquant ulum
Ġc x
Ġac riter
ĠIns ulae
Ġtim ens
Ġdilig unt
Ġargum enti
Ġjudic ia
ĠIacob o
Ġpropriet atem
p ol
Ġdivers ae
Ġ200 6
Ġ[ /
ĠMa iores
Ġport is
Ġlat ino
str ic
ĠCur a
la i
ern ae
ord er
Ġpersequ i
ĠArgent or
Ġdon ationem
ĠEpist ula
ĠC O
ĠC ore
Ġvari os
ĠQu e
ort es
ĠSp ÃŃr
Offic ium
iv m
Ġqual itate
Ioann is
Ġres c
Ġinstrum ento
Ġexter na
ecti va
ĠBr un
Ġobl ationem
Ġvid isti
Ġfort itudinem
Ġmir abile
Ġcur s
Ġfe ud
Ġrecep tum
S te
Ġter tiae
Ġdifficul tates
10 2
ER N
Ġpauper em
âĢĻ .
Ġexist ere
mann i
Ġbon itas
Ġelem entis
ĠBer olini
ĠD rac
ĠTer ram
g eri
Ġam isit
Ġreg ium
ĠAng liam
ĠVal eri
ĠA AS
Ġcons ign
B IS
Ġconstitu tionem
Ġnub ibus
C ui
Ġfe f
ĠLatin itatis
A rist
S oc
Ġ10 1
ĠImper io
Ġhab eretur
Ġrel atione
g re
Ġ( ?)
Ġdil ecto
ĠStat im
Ġal bis
ĠQuam obrem
Ġcreatur is
Ġut endum
Ġn n
ed ecim
Ġvulg i
) ",
od ia
Ġfamili arum
ĠSumm i
Ġimpl ere
l aud
an ium
ens iones
hi as
Ġexc ip
Ġform ula
Ġsoli us
Ġtestim oniis
Ġerud itorum
Ġcomprehend it
Ġdomn i
' :
Ġper peram
Ġat tent
Ġvic inis
Ġlic itum
Ġdelic to
en ig
ĠD aniae
Ġpos ito
Ġaper ire
ĠLang obard
Ġde u
ÃŃ ss
Ġposter ius
ĠLoc is
Ġheb dom
G O
er on
Ġred acta
ĠRe per
Ġp ug
Ġsapi enter
Ġturb am
Ġins ularum
ĠW ith
ĠAb sal
ĠL ub
Ġcogn itionis
Ġcae dem
ĠP ier
eb ar
lig ht
ĠcÅĵ pit
R IC
ac l
Ġco egit
tur e
Ġfal sis
ĠHispani arum
k en
ec isti
Ġf usc
ĠI PS
id ata
Ġdes it
Ġdispos ita
ĠLitter as
il les
Ġ9 9
ant us
Ġpraem issa
ĠBas ili
Ġhodiern um
åĽ ¾
Ġinc ed
ĠGoth orum
Ġopusc ula
ĠCing uli
id et
ma gna
ĠBr itt
Ġtorm entis
ĠB od
ĠF inis
ĠInter rog
Ġhosp es
ĠLib ro
ĠPar tes
Ġab rog
Ġconstitu itur
ĠAcc esserunt
ecti ve
Ġadf lic
ĠRever end
ĠU no
ĠZ en
Ġdivers orum
ĠAnton ini
Ġaffic i
Ġfate or
ĠIntr oduc
asc e
Ġsing ulae
Ġel og
Ġfund itus
Ġpal li
ĠMin or
Ġrestit ui
Ġru ina
u ke
ad vers
Th esaurus
Ġgreg e
Â Ĵ
Ġsepulch rum
V HR
Ġpar vi
Ġecclesiast icum
Ġe vers
Ġin ibi
enti ores
Ġtam que
Ġtim e
Ġarbitr antur
ĠAur or
ĠE IUS
Ġcoll ata
Ġedit iones
Ġven io
Ġrec ond
ĠSanc tam
Ġstat uere
Ġind ub
Ġtrad iderunt
c ae
Ġv na
ĠG i
y ra
ul n
Ġ10 9
Ġt ax
ĠD up
Ġpec ora
ĠAm al
ĠMarc ellus
f elis
ĠS I
Ġquam que
ISS IM
Ġ @
Ġm ss
se u
ĠAc ad
Ġdist antia
ĠIus to
Ġcaptiv itatem
Ġdisc ordia
ĠLaud ate
Ġpropor tionem
j p
ecim en
Ġimped imentum
ĠAndre a
Pl ac
In st
ĠSpir itui
Ġfem inas
Ġadiut orium
Ġsomn um
ĠApr il
Ġann uum
ĠPro v
ĠLib ellus
ĠRa im
in alis
ĠS UM
Ġo ut
num er
Ġnob ilibus
E LI
ĠM ith
Ġpulch rum
Ġlaet itiam
Ġoppos ita
Ġad st
ograph ica
Ġexig it
Ġpulver em
itudin ibus
Ġconced e
ĠTac iti
N omen
Ġrep ort
Ġperg it
Ġan ter
ĠB and
Ġvic tu
Ġexp ensis
pos itus
Ġing eni
ĠVit elli
Ġd os
ĠE N
Ġsub duc
Ġluc r
ĠCons ilii
ĠPr imi
Ġ10 2
âĢĻ ,
c re
Ġcar p
B ellum
ĠCh il
Ġoport uit
Ġmaj ores
ĠJos ephi
itur am
Ġprob e
Ġvers antur
Ġrest itut
Ġi lium
ĠL av
Ġarg u
Ġconsul ere
Ġcal ore
ĠN ota
Ġcoll atione
ĠGalli arum
ĠN OS
Ġass erit
ese os
R UM
Ġmil ite
Ġfort em
ĠQU OD
ĠCardin alium
Ġabund antia
ĠFoed eratis
Ġcanon ico
ib vs
Ġh ir
ĠP hilosophi
ĠM AT
Ġcar d
ing ae
Ch ron
Post quam
onym i
Im pressum
Ar t
ĠAch a
Ġfili abus
Ġag is
isc it
ĠB itur
Ġti b
ĠSu ff
_ ,
L OR
r y
Ġpos iti
Ġuti les
v erum
Ġceter as
Ġplen itudine
ĠNativ itatis
Ġs anus
oc les
Ġanim alis
Ġdeb ebat
ĠQuid quid
Ġorig inis
Ġcanon ica
Ġaux iliis
Ġanim Ã¦
ĠMed ii
ĠHein rich
oni arum
ĠAud it
Ġsanct issimi
Ġdubit are
Ġdetr imentum
ĠGer ardi
Ġoc ulum
Ġdec essit
Ġnihil um
Ġinterrog avit
Ġpud or
ĠPis o
Ġosc ul
Ġfac ultatis
Ġver tic
Ġod erunt
ĠF inn
ER O
ber tum
Pr oph
ĠSim onis
M ort
Ġr het
Ġsuccess or
Ġel uc
Ġscrip turis
Ġdiff in
Ġsenti at
Ġsempiter na
Ġscrib am
Ġalio qui
tu tibus
11 1
ĠArch i
ĠSapi entia
ĠNomin a
ili que
Ġmor borum
Ġoccident alis
Ġad l
Ġtrad untur
TI A
Ġvulg ari
Ġcreb ro
å Ĭ
Ġdic tu
Ġid e
Ġem erg
Ġall oqu
ĠBritann iam
Ġseni or
Ġimp ot
10 1
ust ae
ĠReg inae
Ġ unt
is um
Ġdic ite
Ġcustod ire
ĠSch m
Ġsper n
ĠH ip
Ġref erunt
ĠEd idit
Ġhuman itatem
ĠBor uss
en ibus
ĠT ota
Ġvol ati
ven iat
Ġlit em
estr ibus
H I
Ġpet ra
Ġadm inis
Ġsacram entorum
chir idion
Ġenum er
s isse
Ġcern itur
Sp ec
C al
Ġb asi
Ġang ulo
Ġpati atur
ĠQuibus dam
Ġsuffrag ia
Ġc essit
Ġmori atur
ĠBe ata
ĠE ss
ir entur
Ġepiscop atus
ĠH AB
Ġpar ent
Ġdiff und
Ġdest it
Ġing entem
ĠVen ite
ĠDolor e
ĠAuth ore
ĠTit le
t op
Ġqui es
orem us
Ġextr insecus
ĠDem ost
Ġmanuscrip torum
Ġoss ibus
Ġsol ebant
ider ant
Ġdec imus
ĠLoth aring
Ġi iii
ip atet
Ġrecipi unt
Ġcolleg ii
ĠG az
ari ensis
Ġfer ens
ĠD un
Ġdilig entiam
Ġl ar
Ġfec und
ĠVen eti
Ġconsue vit
os os
Ġcur rit
... "
Ġsen ator
ĠTr an
Henr icus
uit que
Ġillustr i
Ġincol unt
ĠSuec iae
Ġperm ittit
ĠAugustin um
Ġ10 4
Ġcul tura
Ġdescrip sit
Ġaccur ata
Ġc ris
ti bi
iv imus
Ġla eta
ĠVen iam
ĠEpist olam
Ġnonnull os
Ġcolloqu ium
ĠFlac cus
N isi
et ibus
Ġex it
ĠBr ut
UN C
Ġserv at
Ġbenedic ta
el eg
ĠC IC
ĠDom iti
Ġdistrib uta
Ġcib os
ĠcÃ¦ lum
Ġintuit u
Ġv om
Ġamet s
Ġ12 5
ĠPer tin
Ġmagistr atum
ĠVatic ana
fr edus
Ġnov imus
Ġvol ueris
Ġpl anum
Ġvoc abitur
ĠVer borum
Ġaene is
Ġscrip turam
vel it
Ġtrip lic
Ġut atur
Ġaug mentum
ĠSANC TI
Ġsusp ir
ĠProc ur
T U
on ico
Ġr atum
Ġpl eno
Ġpop ularis
Ġcred entes
ĠTyp i
Ġ ym
ud e
Ġcontin ere
ĠDE I
ĠâĢĺ [
Ġprae dit
ĠAth enae
Ġap tum
Ġchar itatis
Pra es
ĠcÃ¦ li
Ġe at
Ġpr ep
ç ½ĳ
Ġd ati
ĠA ph
Ġvid ua
ages imum
Ġmiseric ordi
Ġperman ere
Ġsat ell
ĠWest monaster
oni Ã¦
åĪĨ å½©
ĠpÅĵ nit
ĠRoter odami
Ġop tat
ĠQU AE
o e
TI US
en u
Ġdi rim
Ġst omach
Ġpec us
Ġexter nis
Ġcanon ice
ĠNicola um
Ġcircum fer
Ġexig ere
Car olus
ĠJuli us
om ae
ĠP am
Ġquem libet
Ġind utus
14 0
Ġordin atione
Ling ua
Ġse orsum
urg ensis
Ġpertr act
ĠAtheni ensium
C eterum
Ġca ut
Ġconstitu unt
Ġg o
Ġvol uisti
Ġpri orum
Ġux oribus
Ġ ÃŃ
Ġlum in
Ġmod esti
Ġtrans itum
Î¿ á¿
AL E
Ġcrim inibus
Ġinterrog atus
ens ere
Ġreli quae
ĠOp ortet
pr incip
Ġconv inc
Ġdivis io
Ġchar itate
A V
j ur
int h
ĠPrincip ia
Ġfrum ent
D io
T yp
Ġjus tus
Ġrec ti
Ġj un
Ġmem ores
ĠMediol ani
Ã¡ c
Ã¡ r
Ġadvers arii
Ġass ensu
Ġfut urae
Ġpros pere
Ġcompar atione
Ac tus
Ġt etr
Ġf uisti
Ġg ymnas
Ġimm und
ĠHon or
ĠP ET
Ġfelic itatem
ĠCirc um
Ġpastor alis
ĠInv ent
Ġla icis
ĠId circo
Ġinterf ecti
ĠUrb ani
Ġopor teret
Ġpar it
Ġstat ui
Ġfo em
ĠP erc
Ġb a
Ġlac ess
Ġfl av
Ġinven erit
Ġloqu eretur
Ġdivin arum
Ġcand el
Ġinf antes
Ġregn is
Ġvesper am
v ig
Ġl is
Ġsp ond
Ġnov issime
Ġtrans ferre
ĠSerm ones
Ġper iti
ys is
Ġmonach os
Ġcon quir
Ġcred at
Ġloqu eris
ĠOrdin em
Ġadministr ationem
ĠClaud io
ĠSalv ator
per s
ĠServ i
Ġrecip iat
ĠS UNT
Ġag greg
Ġepist olis
Ġdivis ionem
Ip sum
ĠPag ina
Ġc all
uli us
land iae
12 7
ĠRes urr
Ġvali de
Ġdul ci
Ġel ectionis
Ġpot um
Ġdescrip tione
burg ensis
t z
Ġmal itiam
Ġdivin itatis
Ġdedit ionem
Ġdispos itio
E i
Ġac tor
ĠOr th
ĠCar l
Ġproficisc itur
il itatis
Ġsequ eretur
ĠSyn odi
Cant icum
ĠMolesti ae
M B
Ġs alis
Ġ( âĨĲ
ĠQu ippe
Ġdidic it
Ġdunt axat
ĠBeniam in
Ġpro ferre
Ġpon atur
ĠMetr opolit
Ġsit e
10 3
Ġmort alis
Ġfrequ entia
ĠAd versus
ĠCar men
Ġrespon sa
Ġperm is
fac tus
Ġbesti ae
Ġqu avis
ic ensi
ul arem
eb erg
Ġsig ill
Ġ10 6
Ġprob lem
Ġm yr
Ġmil iti
ĠMartin o
Ġcomp endi
Ġocc isi
Ġpros pici
Ġsomn ia
Ġglorios um
Ġpr s
Ġtradit ionem
ĠW eb
Ġcuius cumque
ĠStud io
Ġpen a
O n
ĠN otum
ta vi
ĠQ v
Ġfor ent
Ġhod ierna
us tum
Ġcon atur
ĠS ov
C OM
Ġintegr itate
Respond eo
. âĢ¦
Ġhort um
Institu tiones
Ġcom itibus
Ġexpos uit
Ġpublic as
Ġindic ia
ĠDec lar
Ġrevoc are
Ġex str
Ġsed ere
ĠEuseb ius
tis que
Ġ10 8
Ġcontr ib
Ġost endam
Ġsanc tim
Ġuer bis
Ġm as
Ġpon untur
Ġloqu atur
Ġau ferre
Ġs ad
Ġag untur
Ġdil ectio
Ġimag es
Ġtestim onii
ĠMagn am
ĠSatur ni
ĠSever us
Ġn edum
ĠU ps
Lud ov
D ei
n obis
ĠM c
ĠM arius
ĠF elic
Ġpl ang
de i
ios o
Ġanath ema
ĠS and
ĠFer ia
ĠAene as
ĠåĮĹäº¬ å¿«ä¸ī
Ġfutur orum
a ug
Ġadhib etur
Ġp in
Ġsubdit is
com modo
it Ã¦
Ġmar c
Ġerud itione
T ur
al ae
Ġer ump
Ġimper avit
tav erunt
ti ll
Ġtemp estas
ĠPostr emo
Ġded imus
ec imus
Ġpl ano
Ġ3 00
Ġvet ere
Ġpulchr itudinem
en io
Ġcon tione
ĠT ris
Ġreg ulae
Ġ10 3
Ġcamp um
ĠStud iorum
Ġvine a
ĠH all
l ect
Ġperpet uis
Ġser uit
Ġsalv os
Ġsanct itatem
ug i
Ġlib elli
Å ¡
Ġp etr
Ġconc ion
Ġprod eunt
S am
et es
ent as
ĠC en
Ġagnosc ere
Ġel ectum
Ġleg o
Ġciv em
Ġterr ore
Ġdifficul tate
ven enatis
Ġdefin itione
Ġeb ook
O LI
Ġcael estium
ĠSyn odus
Ġviv am
Ġpraedic to
ib r
Ġaut ore
Ġeg erunt
Ġsc a
Ġfec istis
Ġdesign ationibus
Ġperfic ere
tur as
ĠRom Ã¦
Ġdef uit
Ġnecess arius
Ġquat inus
Ġpontific es
ĠCant icum
ĠPsal mus
Ġsel ectae
l ei
Ġtit ulis
Ġadv ert
Ġdistingu itur
Ġar am
Ġprae p
Ġcas tr
13 0
AR D
Ġinop iam
ĠV ox
Ġapp rehens
10 8
Ġdispos itionem
ic unque
Ġver tice
The od
ĠDem onstr
Ġgerm an
Ġin ob
ĠZ o
Ã³n em
Ġdic tos
Ġlux uria
ĠPa gn
Ġnonn isi
Ġadj ut
Ġconcep tum
Ġa erum
ĠS IT
ĠA u
ĠDomin icae
Ġinf elic
Ġpraec eperat
Ġintr ins
Ġist uc
Ġsust ulit
ĠJ ovis
Ġsae vit
ĠPisc ator
XX VI
15 0
Ġprog eni
Ġduc tu
"> <
Ġo ur
Ġfug iens
Ġvic arius
av ero
Ġreb ell
ĠLuth er
ĠH aed
ĠAl d
ĠMich ae
Ġdaem ones
Ġbene fac
Ġadm ov
Ġcol ere
Ġloqu ere
Ġfirm um
ĠDavid is
ĠCiv itates
Ġsaep issime
ĠClem ens
ĠL umen
Ġmem ento
Ġpros p
Ġson o
Ġinsign ibus
ĠVind el
Chris tus
Ġrep ublica
Ġch or
Ġmagistr atu
prud entiae
Ġceter orum
ĠSc lav
Ġalios que
Î¿ Î¹
enc ium
ĠJo ach
el ech
Ġde lib
Ġpar are
Ġconvers i
Ġnut u
Mag ister
et ti
Ġtrans vers
Ġearum que
Ġpontific atus
âĹ Ĭ
F ine
Ġm uri
Ġg ust
Ġaqu Ã¦
av isset
ĠSim plic
Ġd Ã©
ĠS w
Ġma y
ĠAt tamen
Ġpraem issis
Ïģ Î¹
ĠU tinam
ÑĢ Ð°
ĠGraec iam
Ġsignific ationem
Ġprof undum
ĠGerm anis
Ġrecogn ovit
Ġtur ris
ĠEccles ie
Ġcelebr ata
p le
ess or
Ġtra g
Ġcujus dam
Rom a
Ġver g
Ġun anim
Ġgener ationis
ĠJacob o
Ġcalc em
Ġseni oribus
ĠDisc ip
Ġdiap ente
Ġam ator
ĠV ade
Ġinqui unt
Ġlat in
J acob
IN E
ĠM am
ĠG rav
Ġpernici em
l iter
Ġt uta
Ġre aliter
ĠR us
13 5
Ġpriv atus
Ġd ans
emp ublicam
âĢ İ
Ġcr edi
Ġprof essus
âĢ¦ âĢ¦
Ġdesc endere
ĠMor s
Ġ Ïĥ
Ġac qui
Ġdes ump
Ġerud itus
Ġcad unt
Ġaccipi ens
Ġhonorific e
XX III
Ġvid ebat
Ġcr ebris
Ġhuius cemodi
Ġsuffic iens
Ġin ane
ir us
Ġtim oris
Ġsuperv ac
Ġprae est
Ġnum en
Ġpraet ore
Ġequ es
Ġinu eni
Ġs ani
Ġsapi entis
ĠTh ur
er go
Ġ" (
Ġcap ella
a ff
Ġlong in
Ġconven ienter
Ġrespons io
Ġgraec ae
Ġmorta li
Ġmob ile
S umm
ĠP ON
Ġanti quam
Ġson at
Ġadj ac
Ġsyll og
ess o
Ġsex t
Ġdisput atio
ĠPor ta
Ġdi rep
ĠTheod ori
it tas
Ġvener abili
Ġcompet enti
ĠCantuari ensis
Ġex itium
ĠB uch
Ġseptim us
Ġconclus io
Ġtenebr arum
Ġaud istis
Ġvas is
Î¼ Î±
w are
isc ell
ĠPsal m
Ġbaptis mo
ĠAlexandr ini
en nam
Ġsign orum
H um
ĠCiv itas
ĠB ol
Ġduc ta
Ġman ip
Ġfl uit
Ġnum mos
ĠInst itutum
G uli
Ġsub scrib
Ġmor ales
Ġoporte bat
m agis
Ġceter isque
Ġbrev es
s ci
Ġdec r
ĠDecret o
ĠEliz abeth
ĠE rit
emp n
Ġimper ia
Ġcas tri
cr ut
ĠSar ac
Ġhab entibus
Ġconc in
Ġmir abilis
ĠCorn eli
Ġsecur itatem
ĠT ua
Ġoper ationes
AN G
Ġpar tit
act enus
Ġphilosoph ica
ĠSacram entum
as is
ent am
ĠAli ud
ĠArg umentum
Ġpraeterit a
r ibi
Ġpertin ens
Ġext ingu
IC AE
Ġpic tura
Ġdescrib untur
ĠV illa
p orta
Ġe vit
Ġper ierunt
ĠFlor entiae
ĠM eli
Ġaper it
F am
ios orum
Ġmis era
Ġmaxim ae
Ġmir abiliter
Ġadhib itis
ic c
Ġmol e
ĠChristoph ori
Ġm uti
Ġred itu
Ġredd et
Ġinsign es
ĠOffic ina
ĠSi gn
Ġfab ulis
Ġnesc ire
c ogn
g am
Ġass imil
ĠGerman os
Ġemend ati
Ġpropriet ate
Ġsabb ato
Ġfluc tu
âĢ ĭ
ĠJ ans
Ġterr or
Ġcoep i
ĠIohann e
B ook
ic ulam
H os
ĠC es
Ġcl arum
Ġhis p
Ġmun ific
ĠTr ium
Ġcul turae
aed agog
Ġdescrib it
ĠPho en
Ġsed ebat
Ġpropin qui
ĠS ag
Ġid enti
Ġcre ati
ĠHom eri
Ġdix eris
Ġepiscop ali
ol di
Ġturb ae
ĠOcta vi
ar ti
ĠIsa iae
ĠC I
ĠM edia
Ġprop iti
Ġneg avit
Ġpropos itionis
ĠPontific i
Ġmil libus
Ġlign is
Ġphys ica
Ġsemet ipsum
Ġluc ri
Ã© tur
12 5
rup ti
Ġvers ari
Ġfam ul
am or
Ġpr atis
ĠP eter
Ġadv ent
Ġi uni
ĠM y
ĠSax onum
Ġsacerdo tio
ï ¼
Ġf atum
ĠM iles
ess aron
Ġput abat
ĠPop uli
el in
Ġlat itudo
Ġconcupisc entia
ĠG us
ĠChristi anum
Ġcoel estis
ĠV idi
ĠAl g
Ġalic ubi
ĠMis erere
s aec
Ġex amen
Ġintro itum
* ,
ĠV il
Ġfac turus
Ġedit ionibus
Ġad sit
ĠN r
Ġaliqu antum
Ġinf elix
Ġpret ii
AT UM
Ġperic lit
Sen eca
Ġp iis
Ġv ect
per back
Ġg u
Ġconsul atus
v n
on di
Ġex iit
ĠE V
Ġedit o
Ġaet h
Ġcorr obor
olph us
' t
ad ing
ĠConc iliorum
Ġulc isc
T ex
d iam
Ġr ari
op t
10 7
' ^
ter io
Ġer ecta
Ġnov issimo
Ġch em
Ġcael estia
P hil
ĠS ara
Ġon ere
Ġfam em
Ġhon os
Ġreb elli
Ġdilig ens
Ġhor rib
Ġca u
Ġdioeces anus
Gr egor
Ġpar ibus
issim Ã¨
ĠPlin ii
Ġreg ere
Ġsac er
Ġdemonstr atur
Ġcadav er
B revi
Ġc ari
Ġexplic atur
ĠHomin es
Ġtrans ierunt
ĠAtt icae
v l
Ġcom bur
ĠDe orum
Ġsol itus
ĠPrincip em
Ġconced itur
ĠFrider ico
s er
Ġtest em
ĠMatth aei
A th
Ġsup pet
Ġpastor ali
Ġme e
Ġps ych
N a
ĠS on
Ġserv atis
Ġcoll ectio
Ġlong itudo
IN A
C irc
ic ulae
Ġleg atorum
Ġori untur
Ġsupr em
D IT
ĠN ich
Ġen tis
Ġsump tum
Secund o
Ġtrans iit
ĠÎ µ
Ġabund e
Ġv entis
ENT UM
M il
U X
Ġb os
ri is
Ġded ec
Ġnig rum
Ġm all
ĠD ac
Ġfer r
ĠEurop am
effic itur
Ġd y
Ġhab endum
Ġpraef ecti
Ġdivis it
ĠQuin tum
ĠCoc ce
Ġin ordin
Ġam ice
Ġcontin ue
Ġvehem entius
s icum
im ent
ĠSac ris
lib r
ĠParis iorum
Ġvol v
Ġag entes
Ġecclesiast ico
Ġnud a
ĠIdeo que
Ġrec urr
Ġform aliter
Ġterrib ilis
Ġin er
iens es
Ġcon uer
Ġdi urn
ĠV bi
ras se
10 9
Ġred e
ter unt
ĠN est
Ġint oler
Ġgen itus
Ġcogit ationibus
Ġciu itatis
ĠMedic inae
Ġcaud a
ĠEpit ome
Ġvenen o
ĠAr tis
ret a
Ġl ass
ĠA gnus
estr e
Ġno ua
Ġcollig itur
f ort
ir is
Ġmit ti
Ġveni entem
ĠArchiepiscop o
ĠO B
Ġprophet is
item ur
ĠHerc ules
ĠSusc ipit
ĠFried rich
Ġport are
re i
Ġingr ed
Ġangus tias
b am
ati unc
Ġvol s
Ġst ellas
AN O
im ine
Ġu timur
Ġregn orum
Ġcol itur
Ġreg ii
ĠFr eder
Ġ12 1
r od
Ġf ist
Ġrest itutum
Ġsuav is
Ġchristi anis
Ġstudios is
ĠPon ti
Ġpraepos itus
S aepe
ĠTr act
Ġtrip lici
Ġhab ebatur
ĠO econom
ĠPl us
ĠGerman icae
Ġclam avit
Ġpraesid iis
ia h
uc is
Ġb ac
Ġdil ex
Ġfr ustr
Ġtemp lis
Ġscrip tae
Ġdivers arum
Ġvers ato
Ġin pon
Ġre j
ĠTr actat
ĠMarg ar
Ġcons uli
Ġg ale
fer a
ĠBal th
Ġgrad uum
ĠQu idem
Ġsuper bi
Ġnam e
Ġacced at
Ġi uli
Ġnum ine
Ġadm in
Ġcompl etus
ĠAugus ta
Ġsustin et
el u
Ġem an
Ġostend unt
ĠMediol anensis
r ub
Ġcar issimi
Ġarm ati
ĠÎ ±
ĠTra d
Ġdeb itam
Ġded isset
Ġfamili ari
ĠSov iet
Ġcommun itas
Ġlegit imo
ĠA UG
Ġprob ata
Ġle onis
ĠXXX II
Ġdorm it
ec o
Ġinsign em
z ione
Ġcognosc at
Ġcod ic
Ġint emper
Ġdisc uti
Ã¡ mus
ĠThe ologia
s int
ĠS ulla
ex is
Ġcont entio
z er
Ġv r
ĠAb ram
Ġquoc unque
Ġlap id
ĠAnti quae
ĠGeograph ica
l or
Ġexp urg
Ġline is
quo que
ĠVulg ata
ab r
Ġpraec eps
lo w
Ġbenefic ii
Ġsustin uit
Ġpropriet atibus
C fr
Ġexc ess
Ġglad iis
Ġrever end
Ġfav ore
B o
ĠLe vi
ĠAegypti orum
Ġg ermin
Ġdig ito
N omina
ĠC yn
Ġnec em
Ġfug ae
Ġillustr antur
Ġsc ep
Ġnov issimis
ste in
ĠH OC
Ġvit are
lic ae
ĠS erg
ich o
Ġdim idiam
Ġm ass
ĠL yd
ĠGu id
Ġplen itudo
or sus
Ġocc ursum
Ġtard ius
e or
Ġn actus
ali i
Ġag ente
Ġev entu
ĠSeptentrion alis
Ġa erem
Ġv estis
ĠD ilig
Ġhort atur
Ġlun am
ĠR osc
Ġquant am
Ġsplend ore
Ġg rex
Ġvic ina
Ġaequ a
ĠBar n
ĠAntver piae
Ġath let
ĠSep tu
Ġinferi orem
Ġpropriet as
ĠPop ulus
Ġmarty rii
Ġcolum na
ĠQuinti li
le ft
ĠConfess oris
ĠPRIM US
ot orum
iter r
Ġpor tio
Ġbon itatis
Sanc te
Ġa ul
Ġbeat itudo
Ġvad it
hes u
Ġid on
Ġred eunt
Ġput atur
ĠInstitu tionum
Ġres on
Ġnoc et
Ġintellig entia
Ġignor are
M irum
ĠP in
ĠMed ica
ĠEvangeli a
ĠMuli er
U r
Ġinterfic ere
ĠEli as
Ġcanon icus
ĠMDCC CL
ĠVerg ilii
Ġfacillim e
Ġill ico
Ġimper ti
Ġtrans itus
Ġscrib o
Ġ200 5
ĠC li
ist ica
Ġobt ulerunt
on icis
Ġali enam
Ġcre vit
Ġlap idum
ĠT uum
Ġdev ic
ĠOper is
Ġmo enibus
Ġet hn
all orum
Ġconsider are
Ġpolit ica
Ġcohort es
erat o
Ġdef ectu
ĠVic idata
ĠFac ere
Ġinterf uit
Ġdivid it
Ġjus ti
Ġfelic itate
Ġfel icem
ĠTeub ner
ĠMetaphys icae
. __
ĠM ss
Ġinter i
Ġcommun ium
Ġput avit
Ġdep op
Ġuic tor
h ardus
Ġprae erat
Ġnomin at
Ġadd itur
Ġaequ inoc
Ġostend eret
ulis per
Ġrel ationem
ĠCr ed
Ġaedific ia
Ġcondit ionem
ĠGallic a
ĠEcclesiast icae
ĠN im
ĠIos ephi
ĠErr or
c ius
ern us
sc ilicet
Ġexs ul
ĠBr em
Ġl ament
ĠS z
Ġsollicitudin em
Ġbook s
Ġpraecl are
ĠHungar icae
Ã ĥ
Ġvindic are
Ġlibid ine
S P
Ġspec imen
ĠThe oph
ĠLoc us
ĠN empe
Ġ14 0
Ġmut u
Ġdiv or
Ġca erim
ĠHerc ulis
C irca
Ġu ac
Ġpers ol
Ġrad icem
od y
ĠV and
Ġx vi
ĠPraec ep
ĠFratr ibus
Secund a
Ġtempor alia
Ġconc edit
ĠRe in
Omn ium
er ati
it tis
Ġ10 7
Ġeff ect
Ġ* *
ĠBrevi arium
ĠPraes entium
Ġes ur
Ġhab eam
Ġ- ,
Ġviv imus
Ġsep ting
Ġ13 0
ĠPos ter
Ġadhib ita
ig i
ĠEx per
Ġtab ulam
ĠEa que
Ã©n tes
Ġobedi entiam
Ġduc itur
ĠErud itorum
Ġi j
Ġdic ebantur
ĠB us
Ġven eris
Ġcomp le
Ġfere bat
Ġpraed ae
Ġ Ã¡n
ull is
Ġcur v
Ġvic ibus
Ġser ui
Ġexter ius
Ġcontenti one
c ip
Ġtr edecim
Ġdex tro
Ġcast ella
et que
Ġu iri
Ġul li
ĠCh an
Ġal g
Ġdis tat
oqu ium
Ġcoll ectae
Ġadvers is
unc to
Ġtene ant
Ġcorpor alis
IN I
Ġui x
Ġbarb ari
Ġitin era
P etri
Ġreg ulas
Ġpur e
Ġpropon itur
ĠScip ionis
Ġeleemos yn
ĠR oth
Ġuti li
Ġperf ectione
Ġmulti plex
Ġcod d
Ġper emp
ot yp
ĠT igur
Ġse gn
Ġven imus
Ġcirc ulus
th er
T ac
Ġess entiae
ĠTulli i
in atus
Ġs esc
lis her
Ġcorrupti b
ĠB ass
ĠPr ec
Ġfal si
Clar itas
Ġa usc
Ġmedic is
ĠVatic anum
c enter
Ġ ite
Ġret ulit
H O
ĠA qua
Ġalt itudine
ip sis
ap tiz
Ġprof lig
Ġalii que
Ġclaus a
ing ere
Ġcaed es
p ublic
v imus
Ġf aus
ĠS ant
Ġsor ore
s ur
er arium
ĠPr ud
Ġcommun itatis
Ã¡ tus
Ġhosp itio
s ing
Ġlim ites
Ġinius te
Ġram is
ĠÃ³mn ia
Ġleg endum
Ġarc ana
Ġsel ectis
Ġscr ibi
ĠAmstel odami
ĠC anis
Ġre uoc
Ġad sunt
ium que
ĠH en
Ġnim io
Ġcommunic are
ĠDan ub
is io
et icae
eri orum
Ġm ech
Ġcons crib
Ã© re
ĠDic tion
ĠGalli as
E um
ĠChristi fid
Ġappar atus
Ġconfess io
ĠQu oc
Ġo vis
Ġauc ti
Ġappell atum
ĠSent entiae
Ġannot ationes
ĠSp ect
ĠÈ© ccles
at en
Ġper tim
Ġsub ire
uer imus
Ġrem is
Ġcogn ito
Ġsur rex
ĠC entur
Ġnos met
Ġred em
Ġcens ura
e w
Ġvol et
Ġleg ionis
Ġins an
Ġexc erpta
Ġpropos itio
Ġascend erunt
Ġproeli a
Ġpulcherr ima
ĠS av
ion s
anti arum
Ġius tis
in ata
ĠAb d
EM OR
Ġaccom od
ign um
ĠGerman icarum
Ġru inam
ĠHere ford
S up
u ant
ici e
Ġdec lam
Ġdivis um
ĠCorn elio
Ġtransl atum
t antum
ĠD IS
Ġliber atus
ĠAn th
Ġref lex
ograph iae
Ġvic tores
aph at
EC T
Ġunigen itum
ĠFranc is
ĠA bi
Ġimp levit
tic ip
Ġdefunc tis
c red
ĠSi quidem
Ġmir abili
ĠS olum
Ġanti ph
ĠIp sam
Ġp endere
Ġag gredi
Ġprov eh
Ġdog mata
ĠThem e
Ç ½
as tr
ĠIst a
Ġrelin quit
at tuor
ĠCon i
Ġconstitu tionibus
Ġfirm avit
Ġpartic ularis
Ġsingul arum
Ġscand aliz
ol atr
Ġfac itis
ĠO ra
Ġth ron
s usc
u an
æ Ĭ
Ġin augur
Ġreman et
ĠW itte
ĠSociet as
c ulum
est ati
ĠLe one
C ust
Ġneque at
Ġrec lam
Ġinfern um
ĠAe vi
Ġu era
Ġpotest ati
Ġlat inam
Ġmun itiones
Ġveter a
Ġobedi entia
Ġm s
Ġen d
ad io
Ġsol vi
ĠAm ph
ĠMathemat ica
Ġn ationis
ec ce
Ġsec ulorum
Ġres usc
Ġmund a
ĠUrb em
m enta
Ġc e
Ġsub tr
Ġsoc io
Ġnov os
Ġmagis tris
ipi unt
ĠPresbyter i
ist am
Ġasper a
Ġs ester
Ġstud ii
ĠCaus is
uc a
um ni
itat ae
de at
12 3
Ġprocess u
Ġpor tionem
Ġsal tus
eb re
Ġfur orem
Ġinstruc ta
ĠCrass us
Ġphilosoph is
Ġmedic inam
Ġobst ante
Ġventur um
T EM
ĠA ma
ad um
Ġop probrium
Ġl atum
Ġest ote
Ġscrib endum
Ac t
ĠSyr iam
Ġlong us
ĠPl anc
Ġmedi ante
Ġmarg ar
En im
se x
Qu os
Ġrequ ie
Ġfor tior
Ġdia dem
Ġinfirm itatem
m l
ac tionem
eb ra
Pr imo
ĠCiv ilis
Ġmul tus
ĠAli o
Ġnol uerit
Ġsempiter nam
Ġarc ess
Ġund a
ĠÃ ¢
o ffic
ĠH ie
Ġpros e
ĠScot orum
P P
ae dific
Ġexcommunic ationis
Sal ve
Ġde ae
Ġtr am
Ġappar ere
Ġignor antiam
ĠMan uscrip
z n
ĠMar o
Ġnecess itates
Ġintr insecus
Ġrog at
Ġoccid ente
Ġ{ *
Ġex ilio
Ġquam plur
Ġcomm o
ux isti
Ġdev ote
Explic it
ac iones
Ġfr ond
Ġpac i
Ġpauper tatem
ac tam
Ġvid ebunt
Ġlux ur
Ġqu Ã¢
ĠM ap
aus e
Ġmed icum
Ġinstruc tus
Ġdefens ione
Ġperman et
Ġton itr
Ġlac u
ĠAd ol
Ġdomin icae
Ġabsol utum
LI N
Ġcondit ionis
Ġinterdic tum
Ġvol uisse
Ġpost ulo
Ġca utum
Ġprocur atorem
ĠMith rid
ob r
Ġo va
Ġob itu
Ġabs ens
Ġca er
Ġcib is
ĠApoll inis
Ġsupp edit
ĠContr overs
ê Ŀ
Ġpot us
ĠInter n
Ġlaet itiae
Ġconfess oris
Ġfluc tibus
â Ĥ¬
Ġre fici
Ġven is
ĠAm bi
Ġdivers os
Ġfirm o
Ġd olum
Ġcr ux
ĠMatth aeus
Ġpriv ato
EM VHR
] ]
Ġh arm
Ġloqu entes
Ġperc ipere
Ġostend e
Ġexord io
Ġprand ium
ib ant
ell er
ĠJ anu
Ġpredic te
T ra
im g
Ġlib ido
Ġrecens ione
ic enses
Ġv estib
Ġdoc umentum
Ġtent ationem
Ġliqu et
Ġag ant
Ġsollic itus
la wiki
Ġcolor es
r ach
Ġaddit o
Ġdec ant
Ġo ver
Ġdil ectum
Ġconfirm ata
pot est
è® ¡
C O
Ġl itis
ati vis
ĠTemp or
ĠConf irm
Ġthesaur us
Ġeas que
Ġapostol os
Ġmaj oris
Ġfund amento
Ġplant as
p oris
Ġde pic
Ġvic ti
ĠIs ti
Ġext ing
Ġden ot
n Ã¦
Ġmod ico
Ġcar ta
12 8
ĠCar not
Ġsens uum
ĠSyn odo
Ġelect orum
ĠVes per
S A
ĠL inn
Ġem ancip
ĠBas ilii
Ġinfras crip
e jus
Ġinter emp
Ġcontr actus
Ġangus tiis
ĠM GH
ĠFr id
XX IV
Ġadi it
ĠMax imo
Ġperm ix
Ġfund ament
Ġcustod it
ĠTra dit
Ġc eu
el er
ĠD ed
Ġlab orios
Ġcol onia
Ġw idth
Ġaequ itate
Äĵ s
Ġex tat
Ġsoli um
Ġcollig ere
r icem
ĠB ert
Ġvig es
Litter ae
it are
anc h
ech t
ĠTheod orus
Ġtribun is
el Ãº
Ġb ab
Ġoper antur
Ġmeth od
ĠV OL
ĠSacerd otes
B N
Ġali enae
Ġsupplic es
Artic ulus
ĠM ON
Ġlaet ific
Ġsin it
Ġsuspic ionem
ĠD ivers
Ġid ola
Ġlong i
ĠConc ord
Ġdep rav
d t
Ġpro fici
Ġnull as
Ġfidel em
Ġannu atim
Ġlab e
Ġcre atum
Ġmir aculo
Ġc anc
ĠCom oed
Ġlegit imum
Ġperman eat
ĠQuar ta
ĠPagn inus
W orld
Ġor am
Ġfug erunt
ĠTh esaur
Ġfer ret
Ġadhib eri
Ġtradit ione
Ġcardin ales
ob oam
Ġsupell ecti
Ġreliqu o
ĠQuin to
ĠS ad
Ġcaus sa
Ġoctav um
ol Ã¦
Ġfac tas
Ġnomin antur
Ġinv itus
Ġpa en
Ġpa ulisper
Ġtim eas
Ġfund ata
Ġmov it
Ġsyn od
ari arum
ĠEd m
Ġt omo
Ġaug usti
Ġcess at
Ġsabb atum
Ġpariet es
Ġc ena
ung i
Ġdictat or
Ġnepot es
: )
Ġchar itas
Ġutil iter
Ġard ore
Ġobi ecta
P OS
ĠD iplom
ĠJ ap
Ġj uram
ĠVic toris
Ġconfirm are
ĠCapit olium
Ġinc ensum
Ġrep urg
Ġconf ecta
ĠCat onis
Ġtub a
Ġaffer re
olog icum
Ġ{ {
Ġtut elam
iss orum
ani as
Ġpriv atum
Ġmerit i
tif y
ĠBon oniae
ĠHab ita
Ïĥ Î¹
ĠCamp ania
m ensis
ĠT empl
Ġse quebatur
Ġco elis
Ġres ign
Ġmonaster ia
ĠCicer one
ĠGra du
ĠDio ecesis
ul fi
Ġf usce
ĠP ell
ĠPa uper
Ġimm erito
abo ut
ĠCat ech
ĠHierosolym it
ens ius
eb err
ch e
Ġnot at
ĠEpic urus
ĠQuadrages imae
Ġac um
Ġcogn itis
Ġscrib ens
Ġpaenit entiae
ĠF orum
ini ana
Ġaud itu
ĠPar och
Ġpate fac
Ġmathemat ica
ĠJeh ov
P ENDI
ep lac
Ġord ini
ĠInstitu ti
ĠR ES
Ġdes pons
le a
b on
m ul
et ro
Ġsplend or
Cons ilium
Ġat tamen
Ġcre are
âĢ ĳ
ch er
DF SL
Ġvi arum
Ġclam at
ĠMOR ALIS
ib iliter
ac tione
al dum
Ġsu c
ĠV o
Ġcommod is
Ġmon ast
Ġmun it
Ġperson aliter
Ġchristi anam
Ġbrev em
ĠPA ULUS
ĠIord anem
Ġd Ã¦m
Ġprim itus
Ġvic ini
Ġambul are
ĠIov em
ĠSch olae
AL L
ĠC in
Ġcod icem
Ġevangeli o
ĠBib l
ti lia
Ġmal am
H ac
om an
Ġb iograph
Ġus ibus
ER UM
ĠLudov icum
Ġsubdit os
Ġma ii
Ġreg ulis
ĠAnti qua
ĠOb ra
Ġet ym
Ġphilosoph os
Ġaedific are
Ġexpon ere
Ġsupradic tis
Ġvend idit
Ġinnoc ens
ĠWil liam
Ġhyp oth
ĠBre vis
Ġsal ubr
ĠGen era
Ġgubern ator
Ġsuspic io
Ġrepr om
Ġorigin ale
Ġprae dix
ĠImper atore
d eg
Ġsub ven
Ġreg ener
Ġsae vi
Ã¡ ti
Ġcelebr atione
ĠSumm us
Ġexp ell
osc it
M z
âĢ¦ .
Ġexh aus
Ġg ig
Ġsc aen
Ġleg ata
Ġ12 2
IC IS
Ġangel o
M ot
ab ulo
Ġmot uum
Ġagr orum
Ġpraeterit um
G B
d os
Ġd uri
Ġin anis
Ġexercit ui
Ġq use
Ġiniur iae
ĠPel op
Cred o
Ġad am
ant h
ed ibus
ari Ã¦
Ġgr acia
Ġhe ight
Ġausp ic
Ġtet igit
ĠS per
Ġ[ &
Ġas pir
Ġpret iosa
Ġpud ore
S ine
ĠR ust
Ġsol ita
Ġsid erum
Ġdec id
Ġidone us
ĠHebrae orum
V oc
ĠH ero
ĠColl ectio
Ġtang ere
P ol
ĠL aus
Ġcupid itatem
ĠLuc ilium
ĠXXX VII
Ġdepos itum
ĠCHRIS TI
ĠPr aed
Ġapp arent
Ġs ym
Ġdaem onum
ĠB ed
ĠSal m
Ġpauc orum
press a
Ġconst ring
Ġpersec utione
et ius
ul at
Ġr uf
ing it
Ġcl ade
Ġcast ell
ĠC olor
ĠCh alc
ĠTr ia
Ġappar ebit
y o
Ġvindic tam
c an
Ġi uri
Ġor atores
Ġterr orem
Ġsoli da
ĠFab io
Ġfall or
s in
Ġtim ent
Ġcomment aria
Ġlect orem
Ġbaptis mi
Ġalim enta
ĠBr ux
ĠPraes idio
Ġtranse at
Ġnupti arum
Por ro
Ġr ug
ers on
Ġnol unt
ĠS tra
Ġtr ab
Ġmor bos
ĠPer pet
Ġconstit it
ips am
ent ae
ĠMer idion
Ġseq q
] /
Ġsagit t
Ġantiqu itate
Ġç ¦ıå½©
u itatis
Ġi urg
Ġaliqu oti
ON IS
Ġevangeli i
est ina
Ġqua que
ĠDes ign
ĠEuropae ae
Ġabst inere
ĠAmster dam
iss ionis
re vis
Ġqua eri
Ġopp idis
Ġt ons
ĠH ard
Ġsol ler
Ġocc idi
Ġnov erit
Ġapostol atus
Ġmot a
Ġnem ine
Ġabst rah
Ġacced ens
Ġconviv io
rin que
Ġs ar
ar int
Ġse i
Ġimp ius
ĠRa ym
Ġaa a
ĠSchol ar
olog y
a it
Ġpertin entiis
Ġantiqu itatis
Ġtheolog i
Ġimpon ere
Ġmin u
tim um
Ġtrib uere
Ġpater na
Ġnud us
ĠCast ell
Ġp io
ĠC asti
olog ium
Ġdub ie
Ġexig uum
Ġm ill
ici at
Ġliber alitate
Ġimp iet
ĠCar n
ĠInc idunt
Ġinter sit
ĠOr g
Ġperpet uae
Ġconvers ionem
Ġov ibus
Ġconsc ius
od es
Ġsci ebat
ĠTrem ellius
Ġh ortis
lic et
Ġpraes ta
Ġmut atione
Ġmir ari
Ġdesider ia
Ġnun tio
ĠLiturg ia
ĠR ip
ĠH athi
Ġven e
ĠDic unt
ĠOrdin es
ĠI ac
Ġspiritu alia
ĠCarthag inem
Ġfor tius
Ġst abit
ĠCAN ON
ĠT otam
ĠF idem
Ġdeb erent
b as
ab ulis
uer entur
Y S
ĠV all
Ġmod ica
ĠCap pad
Ġpraecip imus
or ae
ar de
ol at
Ġdisc uss
Ġmut atur
ã Ģ
Ġfr ut
Ġon ly
Ġinduc it
ĠE din
Ġor bi
Ġmagis tra
Ġrecenti orum
ĠAper iam
ĠMer idi
ĠReli qui
C umque
ĠC R
Ġag endo
Ġcal end
Ġverum tamen
Ġultim is
ĠLeg ibus
ĠSib yll
auc tor
Ġconst ru
ĠSal ut
ĠDi ffer
Ġatt oll
Ġvesper um
w idth
ent ine
ĠJ uxta
ĠRom anarum
Ġpraedic tae
Ġic onibus
Ġmultis que
ĠAmbros ii
ĠN unti
ov iensis
ĠGraec us
Ġp ale
ĠEx hib
Ġph aris
quae que
Ġpal at
Epist olae
Ġcomprehens a
Ġvestim entum
p t
tion s
Ġproc edunt
Ġsequ entia
ĠBr utum
Cod ex
l ob
Ġdomn us
U A
ĠM esop
Ġor iri
Ġo li
ĠPom er
Ġsuffrag ium
Ġoper atione
Ġordin aria
Ġcompl uribus
Ġvali da
ĠDio eces
Ġevid enter
s ki
Ġv ario
ati que
ĠV an
Ġscel erum
ĠK a
Ġvinc i
Ġtoll itur
Ġcapi unt
v iv
ĠM I
Ġmol es
Ġcompl ac
ĠTrin itas
ĠDel eniti
Ġnig ra
Ġper ting
ĠV idit
ĠAem ilius
Ġa vi
el as
Ġind ec
ĠExc ell
ĠD ata
Ġsem ini
Ã³ ne
Ġcont endere
Ġhor arum
Ġv ae
ing i
Ġpar agraph
Ġconf lu
ĠReg ii
Ġquom od
usc ulum
Ġrec tius
Ġcog itur
Ġsacr at
ĠP i
Ġg ene
Ġdomin icam
Ġcup iens
Ġcognom ento
V os
ĠV ex
Ġind uit
Ġaccipi ant
ED IC
ĠConstitu tio
ib is
ulp utate
Ġdescrip tiones
Omn ibus
ĠLith u
U DI
ent issimis
Ġill inc
Ġ[ ]
Ġser pens
Ġpraed ia
ĠRob ert
Ġsuscep ta
Ġlocuplet issimo
Ġf im
Ġvestig ium
Ġjuris dic
Ġdomest icis
v eris
al orum
ĠP ur
ud a
ch o
Ġ13 5
Ġpap e
ios ae
Ġsuper natur
Ġobsequ io
Ġarbit rii
Å ª
Ġn t
Ġco ha
Ġdoc tis
Ġvolum ina
al lib
ĠM odi
ĠN ation
Ġul tionem
Ġch art
ĠSch olast
Pr imus
Ġvari arum
Ġconserv are
d omin
us to
Ġvid ebit
Ġdec im
fr idi
y na
ĠA G
Ġcoll es
Ġexpos ita
Tr ust
Ġius si
D eo
ĠI eh
ĠH ond
Ġo ecumen
Ġdomin icis
Ġfaci endam
Ġepiscop atum
Ġcongreg ationis
Ġpror og
Ġimp une
Ġcontend unt
x erat
Ġn und
Ġin nox
Ġap ice
Ġdis quis
Ġz elo
Ã³m ine
ogallic e
Ġoccid erunt
Ġcar minum
ĠV in
Ġnarr atio
Ġr ara
ĠF esto
Ġminim is
Ġmit to
ĠReg in
Ġtut or
Ġnegoti orum
dit is
ĠLe opol
Ġsepar ata
ĠIb idem
A h
c ula
ĠQuod libet
ĠCardin ali
TR A
Ġvari e
ĠAugustin o
Ġiniqu um
Ġaure is
ĠIn sign
ĠRom ulus
Ġminim o
Ġrel ationes
f urt
Ġund is
Ġind uti
k el
Ġsed ecim
Ġdilig enti
Ġdex tr
ĠPil atus
Ġm alle
Ġcon tag
ĠN arr
ĠPere gr
R ev
W V
Ġin hon
Ġsc ito
ĠGali l
Ġhab uerat
Ġorn ata
ĠFr ank
ĠAdip isci
Ġdub iis
Ġsig illi
fam ily
Ġdec urr
Ġimp ell
ĠC A
ri es
issim arum
Ġpor r
gr editur
ĠAt las
ĠAur elius
Ġincend ium
ĠS all
16 0
ĠDi ffic
ĠTest amento
esa uris
S tr
Ġqu È©
Ġcap ess
Ġreper ire
ĠHeb domad
ul sum
ab ill
Ġac ri
Ġ( âĢ¦)
Ġag as
ĠAg am
c ujus
ĠV EN
Ġext inc
Ġcruc iat
Ġdelect atio
Ġiuven em
Ġacadem iae
Ġtrip lex
ĠLuth eri
Ġspon sus
ĠAbsal om
Ġf atis
ĠTiber ius
issim Ã¦
Ġign es
Ġrad icibus
Ġsuccess ione
Ġaure os
m ini
ĠCas p
ĠQuem admodum
Ġcollabor ative
Ġin que
ion alis
Hab emus
Ġpr el
ĠT emplum
Ã¡ tur
Ġword s
Diction aries
ĠB C
Ġordin are
ĠPo enit
ĠEng lish
Ġexord ium
f is
Ġf unt
esti o
Ġexc ub
Ġaud itus
Ġclem entiam
um a
at ul
Ġqu ern
ĠD ios
Ġac rius
Ġcens uit
Ġdux erit
ĠNo Dictionaries
Inscrip tiones
ĠP od
ĠG entes
Ġpul vis
^ )
d ub
at icus
and ro
Ġpos itam
ĠFranc icus
Ġext emplo
ĠMus ica
Ven er
Ġliber are
Ġins urg
Spir itus
B ene
Ġsimplic es
Ġimped imenta
ĠSuppl ementum
ĠHathi Trust
- ,
D IC
Ġsc ient
Ġacc ident
lock quote
ĠL I
Ġgr ass
Ġmori ens
Ġlaud atur
Ġcondit or
ĠM inistr
Ġstren ue
ĠV ei
ĠGerman ica
Ġvere or
Ġcomper tum
Ġclav es
ĠMarti alis
ĠF AC
XXX I
Ġcathed ralis
Ġpurp ura
M aria
ĠAd eo
XX VIII
Ġcup iunt
Ġdiffic illim
Ġnobil itatis
Ġpo etis
Ġexistim ant
Ġresp exit
Ġass ec
Ġlegis l
P ot
Ġp all
Ġlabor at
ĠAg ath
ĠDiv ina
Ġeleg ant
ĠEx tr
Ġillustr atus
Ġbaptiz ati
Ġconsumm ationem
Ġlibr arum
! âĢĿ
Ġinven io
ĠPetrag or
ul sit
ĠS is
ĠBern ardo
ele vis
ĠCa eterum
Ġstul titia
Com pendium
Ġexprob r
Ġmyster io
ut ores
Ġaedific ium
Ġsingul ariter
ĠCaesare ae
Ġp eius
Ġcon uen
ici ens
Ġflor uit
Ver bum
Ġsenect utem
T ibi
Ġimp ar
Ġdelect at
C UM
Â ¶
Ġa z
Ġs qu
Ġd in
Ġt ags
12 4
Ġconsider atione
Ġsupras crip
Ġdis i
Ġv icum
Ġcanon icorum
Ġnut rit
ĠChristoph orus
ĠJacob um
ĠĠĠĠĠĠĠĠĠĠĠĠĠĠĠĠ ĠĠĠĠĠĠĠĠĠĠĠĠĠĠĠĠ
D omus
Ġr itibus
Ġfer as
Ġinfern o
P e
ĠN up
Ġpatr oni
ĠMul tis
Ġdest itu
igit al
Ġcoll atis
Ġsen atores
Ġdemonstr andum
er amus
Ġretin et
Ġbesti as
ĠQu anto
Ġx iii
Ġpl ect
Ġval uit
Ġev entum
Ġcael estibus
ĠSal ve
Ġvine as
Ġvid uam
Ġsub tus
Ġinstitu tionis
Ġpra erog
Ġcompl exus
Ġsuper are
Ġinf el
ato que
enc es
ĠPentec ostes
ĠW ar
Ġdivers um
ĠPraef ectus
Ġimmort ales
Ġf ib
ĠG ode
Ġconf ite
Ġlong ior
Ġadi ecta
Ġrect ores
Ġhered e
Ġoppos itum
P ET
Ġad quis
et iis
uc li
Ġpraem io
ĠMor alis
Ġcrit ica
ĠHerod es
Ġes cam
ĠIn tro
Ġiub emus
Ġsuperi ora
ĠS Y
Ġunivers us
Ġsens im
Ġdescrib itur
Î¿á¿ ¦
c op
oc om
ĠMa h
edit e
ĠConv entus
ine o
Ġdeb ell
13 8
Ġmut antur
Ġdistinc tione
Ġin ha
Ġne qui
con sequat
Ġrip a
ĠM elius
Ġtra xit
Ġhos tias
Ġvices imum
i anae
Ġpar tu
Ġfu imus
Ġinst antia
Ġmultiplic i
Ġpostr emum
j udic
ĠL ot
re um
ine atur
ĠC ulpa
Ġredemp tionis
Ġreligios ae
Ġfuer o
Ġreliqu orum
Ġcathol icis
Ġhaeret icos
Graec e
Ġ orem
Ġf uc
ĠH aud
dic itur
Ġiuven um
Ġa eger
ar vm
re li
oqu oque
Ġaccus are
Ġunivers itate
Ġsalut ari
Ġcognov imus
Ġsuperfic ie
Ġt une
Ġun icus
ĠAp pend
14 5
Ġexcep tione
Ġin e
Ġprae vid
Ġmol est
ĠSuper ior
Ġpossess ionibus
Ġabhor r
l ep
ĠB E
ĠDomin a
Ġvoc atum
Ġhor ae
Ġremun er
Ġad propinqu
IN C
Ġlin te
Ġl ectionum
Ġpl ana
Ġcr ust
Ġpond eribus
SS IM
Ġsurg ens
Ġcognomin e
Ġvisc eribus
as ii
Ġimm emor
ĠIov e
ĠMatr em
Ġâĸ ł
Ġg eruntur
Ġvid erat
Ġ19 79
Ġgrav issima
ĠSch ola
Ġp Ã³
Ġac eto
Ġop tin
no w
Ġcorn ibus
ec tius
ass em
Ġcuius quam
Ġscrib e
Ġost endi
ĠOpusc ula
ĠR ursus
-- --
Im pp
Ġfac erem
Ġlat inorum
Ġbenedic tio
Ġerud itionis
Ġc inem
Ġgr essus
Ġdoc umentis
Ġvac ua
ul ata
Ġde j
Ġsep e
Ã³n iam
n iae
ĠD og
Ġhab eamus
Ġco etu
Ġcontempl atione
Ġsimulac rum
Ġbasil ica
k ing
Ġtest antur
Ġmartyr es
? ,
Ġprof ert
ĠAqu ino
ĠCam br
ĠhÃ¦ red
Ġag enda
dem us
Ġomnium que
ĠDisc ipl
E os
Ġc ass
Ġcon antur
Ġcal orem
Ġnunti i
Ġline as
I gitur
ĠEcclesiast icus
Ġinfam ia
b lem
Ġf ull
Ġl ectionis
Ġ( Â«
Ġinc re
Ġperf ug
ĠIm o
Ġdol ere
Ġpromp tu
S E
Ġc era
ĠS s
Ġpro gen
Ġcommemor at
Ġrespici unt
osc itur
Ġfort issimi
Ġmut ationes
Ġingen iis
Ġor atoris
Ġ16 00
Ġthe or
Ġplen itudinem
Ġeffig ies
Ġvoc ifer
Ġpat eretur
Ġpraef atus
Ġconstitu erunt
OL A
ĠCocce ius
qu emque
Ġeu angeli
Ġiam que
Ġav ibus
ur rex
ĠA esop
Ġfac und
Ġrom ana
ĠHab emus
Ġtr actus
Ġcathol ici
yri e
Âł Âł
iur andum
ĠApoc alyp
Ġut rinque
Ġpot itus
Ġgrav ia
Ġle ve
Ġpecc averunt
Ġ0 2
Ġvac at
Ġplan etarum
Ġincarn atione
! '
ici orum
Ġfamili arem
Ġinfirm itas
Ġexig ua
ĠRic ardus
Ġi js
Ġlac t
Ġag g
Ġcel erius
Ġsoli dis
Ġaure am
Ġstul ti
ĠTrib un
c ere
Ġarb oris
ĠBr uns
Ġaccip eret
Ġsilv as
H old
Ġv icus
Ġsc rup
ĠO biit
ĠReg ula
Ġdivers itas
ĠColum b
Ġali q
Ġpers pici
Ġvide as
Ġjud icii
Ġcohor tibus
Ġreligios us
Ġconiug es
Ġcaptiv os
Ġduodec imo
ĠS ectio
ĠD D
il v
Ġexc epit
Ġindulg entiam
Ġopusc ulum
n ium
Ġan th
Ġprofess or
Ġapr ilis
Ġm ou
ar im
Ġdivers o
Ġgr andis
Ġfun ere
Ġvill ae
Ġpasch a
Guli elmus
S itus
d x
ĠV itr
ĠprÃ¦ m
Ġtoll is
Ġcaec us
Ġm eretur
Ġth esauris
Ġsomn is
Ġincommod a
Ġantis tit
w ord
Ġin b
Ġsed entem
ĠIn struc
Ġinf lu
UL UM
ĠAnton inus
Ġben eplac
et te
an io
èµ °
ar as
Ġpl antis
ĠMa uri
Ġag entis
Ġfort assis
ÑĢ Ð¸
ĠTol et
Urb s
Ġpraedic are
Ġoccul to
Ġes uri
Ġlux uriae
ĠLin nae
Ġcontumeli am
Ġexhib uit
ĠRh en
ĠDel ectus
Ġhumil itas
Ġlatr ones
VI N
Ġâ Ļ
Ġvocab ulis
ĠMesop otam
ĠXXX III
Ġpast orem
F orm
I st
es ia
Ġsol utio
ĠScrip sit
Ġsimplic itate
Ġfav or
uv ii
ĠCass ius
Ġecc l
ĠS alis
Ġsit am
ĠN unquam
Ġub er
Ġvulg aris
Ġvetus tate
s ibi
on icus
ĠIn quis
Ġlat er
ĠPar ad
Ġpredic tus
Gr atias
Ġaug eri
Ġub eri
Ġmis erat
ĠsÃ¦c ulorum
Ġsp ars
Ġpul vere
Ġindign ationem
ĠContin u
u j
ĠI te
ĠV oss
Ġvid erent
Ġod ore
Ġbenevol entia
Ġoccup at
ĠS ER
Ġan s
Ġunum quodque
Ġform arum
Ã³ ria
Ġfab r
Ġobi ecti
Ġqual itatem
Ġcoep isset
V erg
Ġcor oll
Ġpisc is
Ġa estus
ĠV allis
Ġexplic ata
Ġdet eg
eros que
M or
Ġposs es
ert ae
Ġfec erant
Ġpraet orem
Ġintr at
ĠComment ariorum
Ġcast itatis
Ġcontin entia
Ġgravi or
Ġaev um
Ġevas it
Brevi arium
Ã¦ r
Ġsuffrag iis
ĠAccus antium
im m
Ġh Ã®c
Ġredd eret
ĠÐ ¸
Ġresponde at
Ġi ret
ĠPr isc
Ġsollic iti
Ġinst anti
ĠCom modi
ĠPhili p
Proph etia
ul erint
as ci
Ġscrip tam
Ġdisc urr
Ġmut avit
Ġindic are
Ġdux erunt
ĠD omn
ĠR ig
Ġquadr atum
el ph
ĠIo ab
ĠSab a
Ġv ili
Ġviv entes
Ġrevert itur
åĪ Ĵ
Ġad umbr
ER S
Ġsequ entem
Ġing em
ĠImper atorem
ĠTheod osius
Ġfac torum
ĠF I
tav erit
fi eri
ĠLab i
Ġpar ta
Ġla icorum
Ġdiffic ilis
Ġdid ici
s q
Ġcomm ix
Ġir rog
ĠOecumen ici
li is
Ġsu isque
Ġper quam
Ġb ec
Ġess ere
ios am
Ġproduc ts
Ġcot tidi
Ġb urg
Ġrem ig
Ġsyn odo
Ġa iebat
ĠOce ano
A uc
D em
R uss
uer am
Ġcred is
Ġcircums crip
i erat
num eratio
Ġtransm igr
idio ecesis
ĠAlp es
y x
ĠD edic
lic is
Ġpatr onus
Ġ12 3
Ġhabit abat
err ime
Ġexaud ivit
è®¡ åĪĴ
t issime
ĠB elli
Ġcred as
Ġque ant
ĠMed iae
Ġfrig ore
Ġprofic ere
Ġprom er
ĠIuli anus
Ġdig itos
Ġsax um
ĠGabri el
k es
r iam
in et
ac ibus
Ġu ell
Ġveloc iter
ĠT EMP
Ġredd unt
ĠHier em
ĠMaced oniam
æ µ
Ġt ymp
Ġreg inam
esci unt
Ġinterpret es
Ġeloqu ium
Ġuer bum
Ġcompon ere
Ġverisim ile
æ ³
ut it
oc umque
enti one
Ġsol utum
Ġst antem
XXX VI
ĠG on
Ġprim Ã¹m
Ġcondit ionibus
Ġpraeterit o
World Cat
V ex
ĠA ra
ĠSanc tos
Vir g
Ġrem e
Ġassump sit
y se
Ġam issa
Ġcar ent
Ġpauper tatis
XXX II
ĠCompl ectens
Ġcon par
Ġapostol ico
Ġegreg ia
Ġcale fac
R em
Ġin dum
ĠI uv
12 9
Ġpropri os
Ġdifficul tas
ĠAn tich
Ġpostea quam
Liv y
b ene
Ġv allis
ĠI ul
ĠR oss
ĠB ore
inc tu
Ġver m
Ġap os
anti i
uti a
Pr oc
H er
Ġexc edit
Ġinscrip tio
T erra
ĠMed ici
occ up
et ate
Ġaliqu ae
Ġap prop
ĠMag deb
Ġcompos itione
Ġimpress a
ĠQu icumque
Ġquaesti onis
Ġconstit erit
ileg ium
Prop ter
qu ad
ol li
as o
ĠF ides
Ġtac tus
b ro
ĠN EC
ĠF estum
ani e
Ġ19 90
Ġfur oris
M I
b ert
Ġad sign
Ġliber ius
Ġeffic iunt
Ġdispos uit
pro f
E u
in at
Ġdim idio
Ġmaj oribus
Ġnarr atur
Ġthesaur o
ĠS ua
Ġvol ebant
Ġmar ti
Ġv tr
id t
Ġcons ulum
Ġcons iliorum
Ġre vis
Ġmin uta
Ġnot arius
Ġherc le
Ġex eg
Ġar ab
Ter tio
åĬ ¿
is mi
ĠK Ã¶
Ġceleb ri
Ġciu itatem
Ġnata li
it que
Ġduc ti
Ġnesc is
Ġnim iam
ĠMaced onia
ĠDani elis
Ġp ium
ĠN ullum
ion al
ui i
Ġconc ern
Pro vinc
ĠThe atrum
Ġparv ulis
ub a
Ġaff l
Ġperven erit
Ġsq q
l ini
Ġal as
Ġ4 00
Ġpec ud
pos ito
gnific at
Ġprofess ione
Ġuol up
Ġtoti ens
ĠBeth l
Be atus
ĠsÃ¦ pe
A CI
Ġcon ati
ÃŃ sti
Ġca per
Ġdim ittit
ĠOffic io
ĠVi enn
ĠOce anum
ab imur
Ġinv ali
Ġcanon icum
Ġpunc tis
Ġfunc tus
Ġu indic
Ġib at
Ġuid elicet
Ġhaeret icorum
ĠHIS P
Ġnonn unquam
Ġpart icula
Ġ ÄĻ
an ibus
ene z
Ġvoc amus
rec ensere
m il
Ġad inv
pr ime
12 2
Ġmus icam
ĠGe ometr
Ġprofess oris
Ġstruc tura
Ġconsor tio
Ġs ulp
ĠD anorum
ĠR ain
ĠVatic anis
Ġnoctur no
Ġnoll e
ĠFlav ius
in atum
ĠH em
Ġalt aria
Ġjudic are
ĠS eni
ĠS arrac
Ġsc ind
Ġst atione
Ġ* **
ĠScrip toribus
eros olym
Ġatr ium
Ġbesti a
Ġdepon ere
Hold ings
Ġa ra
Ġut antur
Ġquid nam
Ġposs ed
Ġfrig ida
Ġadven i
Ġfic ta
et icum
Ġar r
og r
ch a
Ġcr ura
Ġag eretur
Ġ16 0
Ġed d
Ġded uxit
ĠVol unt
Ġpraescrip tum
Ġrepugn at
Ġexis ter
Ġpeter et
Ġsae v
ĠMet ellus
ĠHomin is
Ġpuerit ia
ĠS O
ĠD ami
Ġex tim
Ġfer arum
ON E
Ġindulg entia
g ang
æ ĸ
at ris
th s
Ġcan oniz
ĠQU AM
ĠFam ili
ĠBav ariae
ĠC e
ĠB ith
Ġthe ir
Ġpri ora
ĠVatic ano
Ga ius
èµ° åĬ¿
ĠJ udic
Ġconsol atione
Ġv num
Ġf ÃŃ
ĠA esch
ot em
Ġgra u
Ġintellig atur
Ġquaes ivit
ĠSol em
Ġconiug em
ĠRespond ens
Ġprist inum
B I
Ġnon am
Ġdec ora
Ġpraet eri
y lum
qu asi
Ġvoc atis
In v
Ġlep ros
ĠPhara onis
Ġmand ati
ĠÐ ²
Ġme arum
Ġcoep ta
ĠV est
int egr
Ġimper are
Ġreper it
Ġoccup avit
Ġcorpor ali
Ġbasil icam
ĠCond ita
Ġp ent
es er
Ġh ad
ola i
ĠHom erus
ider etur
Am or
Ġmitt unt
St ud
Ġmanduc are
ĠH Y
ecti or
Ġbeat itudinis
Ġexpedit ionem
Ġe li
Ġer exit
ĠF oro
Ġne w
Ġdon ata
ĠDi anae
Ġqual itates
Ġm uc
Ġr ectus
Ġr Ã©
ĠJ ure
Ġconc iliorum
Ġadduc tus
Ġoccurr ere
ĠM ech
Ġdi uit
nec ess
u ol
ĠS AL
ĠL ind
ĠAr tium
ENTI A
Ġlibid inem
Ġinclud it
Ġut cumque
Ġleg ionum
Ġ18 0
Ġchar ta
ĠMan asse
Ġu im
pos itis
ator ii
Ġsatisfac ere
Ġi o
Ġsub n
IV S
Ġfac ient
ag a
Ġdistinc te
ister et
Ġconced o
er atus
.] ,
Ġmov eatur
Ġcandel ab
s k
ul issent
un tio
ari js
Ġdign os
ane ae
Ġoblig atio
Ġquint am
r ico
Ġac erv
ĠL EG
Ġun ice
Ġdis trah
ĠMar tio
Ġtriumph um
B ar
em e
ĠN ort
ĠG esta
Ġoc ting
Ġinf antem
Ġcontr actum
Ġcop y
ĠLe uc
ĠMÃ¼ ller
Ġr c
ĠAn nis
Ġpon at
Ġre o
Ġcomp ens
Ġcondic ionis
Ġnig ro
Ġd anda
ect etuer
Ġordin avit
ĠSc ilicet
ANN IS
D issert
M ed
Ġf om
Ġali enus
Ġph ras
Ġdil ectis
ĠCons uetud
ĠNot itia
ĠBabyl onem
Ġherc ule
Ġrep reh
Ġpublic arum
Ġc anti
Ġintro itu
Ġdifficul tatem
Ġa era
Ġpar ce
Ġlib entius
ag ia
Ġinterf ectis
Ġparr och
Ġx l
Ġtractat u
Ġmartyr io
P u
qu iae
ĠR up
Ġcl ades
His pan
n ibus
Ã Ĥ
Ġut eretur
Ġlaud amus
Ġrel ev
Ġhabit abant
ĠCongreg atione
in st
Ġius sa
Ġobl atio
Ġgenti lium
c oll
di orum
ĠBo eth
ĠTyp ographia
ĠVindel icorum
P al
f irm
g h
Ġpot uerint
iti em
ĠFel icis
Ġ }
ĠB eda
Ġven ere
Ġinv olv
ĠW ol
Ã© mp
Ġin ebri
ĠL act
Ġun oquoque
ĠAr el
Ġpriv ati
Ġlap sus
Ġbrach io
Ġali j
Ġmer idion
Ġturb as
ĠHor atii
ped ita
Ġt ype
ĠP erm
Ġceter ae
Ġclam orem
ĠPlat onem
Ġvaletud ine
ĠCappad oc
i Ã¢
Ġappell ationis
_ .
Ġven us
12 1
Ġret rah
Ġpresbyter is
Ġexcel sa
Ġer udi
Ġli quam
Ġquar ti
Er r
ĠFlac ci
Ġaud aciam
Ġegreg ius
Ġparticul aribus
Ġstipend ia
u ir
ĠAp pell
Ġiur amento
ĠProfess oris
Ġundec imo
13 9
Ġdisput ationes
Ġlarg i
Ġretr orsum
ĠECCLES IAE
f ul
Ġcommun ionis
ĠAndre am
Ġsuspic ione
Ġmediocr iter
ĠPtol om
m inus
ar u
Ġno ti
Ġlat inis
Ġvolunt ates
Ġsti ll
ĠPatr ia
. <
ut r
ĠDi al
Ġincred ibili
F ol
ĠBurgund iae
? Â»
ĠC ogit
Ġper ibit
ĠH ub
Ġleg atione
ĠEr em
Ġexplic at
Ġspect antia
Ġtit ulos
Laud ate
- ^
ĠB EN
tor io
Ġhum i
ĠInt eg
ver bi
Ġaff ectibus
ĠPer ipatet
Ġcern ere
Ġobst up
PENDI UM
la o
Ġpredic tam
Ġcelebr ationem
Ġostend ens
Ġcertam ina
itiv ae
ĠK r
Ġcan ibus
Ġiur avit
Ġhosp itium
Ġsuperb iae
ĠMagis tro
Ġventi l
= __
M ich
ĠPatr ologiae
Ġthesaur os
Ġpate at
ĠS urge
ĠT yri
ĠQu aes
Ġcont ubern
Ġtim eo
ĠUnivers ity
Ġan y
r omus
Ġcomm otus
Ġpud et
Ġse ipso
Ġdeb ebit
ĠK irch
Ġexprim ere
ĠScriptur as
Ġses qu
em odum
Ġad prob
Ġviv entem
Ġcolleg a
Ġrelinqu itur
ulta vit
Ġjac et
Ġsal t
ĠSch olarum
Ġdam ni
ĠDoc torum
ĠBenedic to
Ġh ist
Ġre alis
inc idunt
Ġpal atii
igh light
H omin
iat im
Ġp iae
ĠÂ Ħ
Ġpros pera
Ġimag e
Ġimpos ita
Ġap icem
OR IS
Ġiug o
ĠAlt issimi
ĠR EC
Ġ15 88
ĠEcclesiast icis
T am
se in
Ġsub terr
Ġgra di
Ġinf ring
Ġ[... ],
ĠGen esis
Ġhuman itas
Ġfructu um
ATION E
ĠDissert ationes
u arii
Ġe di
ad ii
Ġquant itatis
P A
r icum
ĠM odus
Ġintelleg it
Ġnol uerunt
Ġtal enta
Ġf era
ĠM edit
Ġimp ium
en h
ul erant
ĠD iet
ĠG and
ĠPol onia
Ġquaes ita
Ġster c
P AR
ĠO th
Ġind u
Ġordin antur
Ġsex tam
Ġmand at
Ġauthor itate
Ġincip iat
ĠSm ith
Â ®
ib le
Ġo u
Ġco eperit
Ġpul sus
Ġalter ut
17 58
Ġcred itum
Ġcub iculo
ĠXXX V
Ġpropon untur
Ġiuvent utis
ing ton
lic um
ĠAd al
Car mina
Ġsacerdoti i
ia lia
tum que
Ã¦ um
Ġst antes
ĠMaced onum
Ġex eunt
12 6
ĠR ut
Ġten uerunt
Ġ12 8
ĠVid eo
Ġturp iter
Ġleg io
Ġ12 7
Ġplag is
Clem entine
d at
Ġdomin ic
Ġrelig ioni
Ġrespond etur
ĠV ariis
Ġput are
fr edi
Ġpal lium
Ġoctob ris
Ġt elevis
Ġar as
Ġinven iatur
Ġexplic atio
Ġsubl ato
ĠS et
Ġpag inae
Ġpraest itit
Ġdistinc tionem
Ġreligios e
Ġmyster iis
Ġcolum nas
Ġeffic ac
Ġjud ex
ĠOR D
ĠEz ech
Ġconu eni
, -
ĠAc tus
ĠParis ius
ĠBer ol
Ġcontrovers iam
ĠN arb
Ġsapi entibus
Ġpraec edit
Ġori entis
ĠC OD
Ġciu itate
S ent
Ø §
in atio
Ġc yc
Ġid ent
Ġcal umni
Ġaed e
Ġeb riet
ĠF anum
Ġred arg
Ġarchiepiscop um
Ġmend ic
Ill ud
Ġimp iis
ĠCongreg ationem
Ġtrah ere
Ġerub esc
Î ¾
Ġtrans itu
ST R
Ġpic tor
tr ud
Ġsal vis
ĠSac r
Ġsuscit avit
r erum
Ġpecc avi
par s
Ġmerit orum
Ġard ua
ĠAuror Ã¦
Ġcat egoria
Ġviol enter
Ġelect ron
Ġhosp ites
ĠCaec ilius
ĠTeubneri ana
Ġpraest anti
ĠIp so
Ġbenedic tum
ĠBa al
ut ura
ĠEp igram
Ġdon ationis
ĠCel eberr
Ġastr on
ĠEnn ius
å ħ
ĠI er
iam que
Ġor ationi
Ġorient alem
j am
n ulla
Ġpr inc
Ġad de
ch is
Î± Î¹
im elech
tit iÃ¦
Ġspiritu ales
ĠLeg is
ĠL od
ĠT rit
ĠH yd
Ġtempor alis
Ġdoc ens
Ġlat itudinis
ĠSto ici
Ġye ars
Ã¦ orum
ĠTh es
Ġorigin ali
Ġull is
Ġmagnific entia
od ori
od ivers
Ġped is
Ġexempl aribus
Ġinn it
Ġtam diu
Ġplac ita
ĠCass i
ĠMercur ius
Ġpatrim onium
Ġp is
Ġimper atoribus
Ġpontific e
Ġdig itis
Ġpraed itus
ĠBon us
Ġexpon untur
ĠH ass
ĠY ou
ĠApp endix
U IT
Ġres olv
Ġnecess ariae
ĠVir orum
Ġfem in
Ġproced at
Ġadha er
Ġex eunte
Ġfor amen
Ġpet at
Ġmiser ia
ĠMan ich
Ġmen str
H unc
S ec
im p
gn e
Ġ: :
Ġvoc ata
Ġinv ito
Ġconiug e
Ġrepet ere
Cat egoria
us io
ĠPr ius
osc o
Ġepist ulas
ĠEucharis tiam
Ġde hinc
Ġconf ectum
Ġfec issent
Ġ15 84
ĠIud ex
Ġcongr ua
ĠPhara o
ĠPhilisth im
w ig
ĠM anif
Ġconc ip
Ġj an
Ġadi ectis
Ġaccid entia
Ġfi ebant
13 6
Ġcanon ibus
ĠUnivers itas
U RI
Ġin hum
ĠT estim
Ġcap iat
ĠAr io
ĠMo enum
ĠAtt icum
Ġw r
Ġmis eris
Ġth ere
ĠJohann i
Ġemend atum
Ġpulchr itudo
Ġpersuas um
enci is
Ġi vit
Ġmens ium
Ġbarb arorum
Ġvill is
Ġaud itor
Ġregn as
." :
Ar s
Ġfinit imis
u ente
Ġperf ecit
Ġdiffer entiae
Ġbrev ibus
Ġidone a
ĠG n
Ġf c
Ġun ionem
Ġu ere
13 4
Ġredi ens
Ġadulter ium
ĠHIS TOR
Ġr ix
Ġlegit imus
Ġh aesit
ĠV aria
Ġexc uti
ĠPar tem
Ġstudios us
ĠC yc
ĠR ecte
Ġexp end
Ġtum ulum
Ġpersec utus
m arg
it ul
ig ere
Ġfab rica
Ġadduc i
Ġquinqu agesimo
ĠSym m
ĠN escio
13 2
Ġher bis
Ġmonst ra
Johann es
Ġadm ittere
Ġpraedic atorum
ĠQuis quam
ĠPublic o
x isse
Ġtrans form
ĠFl ori
Ġincon veniens
N UM
Ġpar entem
ĠCruc e
Ġoccident ali
L ugd
Ġinf allib
Îµ Ïģ
Ġtrid uum
ĠPro per
Ġpet entibus
ĠprÃ¦ par
ĠSch w
ĠSep tentr
Ġabsol ut
ĠJud aeorum
Ġs ab
ĠAd voc
Ġspeci ale
Ġsimplic em
Or emus
ĠMos i
Ġcamp i
Ġd otis
ĠCel s
Ġasper n
ĠMed icae
Ġdistingu untur
Ġsuperfici em
B rit
ĠG or
ĠPr uss
ĠPra en
ĠPro x
Ġdivers itate
Im age
ĠCruc em
Ġut ens
Ġpers crut
Ludov icus
æ ŀ
Ġl ecta
ens ia
Ġor avit
Ġintellig o
Ġgrav ibus
Ġprofess ionis
Ġadiut or
ĠåĮĹäº¬ pk
Arist ot
Ġv enter
im al
ĠI D
Ġinter u
Ġcre ator
uri arum
ĠLeg em
hab et
Ġdii udic
b ar
Ġnarr are
Ġprosequ itur
Ġres pir
Ġhistor icis
ĠMon achi
ĠInd ulg
ĠCas par
he um
Ġcoll ecti
Ġordin atum
Ġintellig entiam
Ġpraescrip tis
A vic
dic it
Ġfug ats
ĠImper atorum
Ġconfess ionis
Ġcav e
ĠF it
Ġcomm ittitur
Ġdign is
Ġten uis
Ġbi ennium
Ġex ierunt
Ġrom anae
ĠIov i
Ġc eper
ĠE DI
ĠV ul
Ġconf r
14 7
Ġcontemp tum
Ġrevert etur
Ġvariet as
ĠMar is
tic arum
ĠHier arch
3 00
b ib
Ġad erat
Ġunivers as
Ã¶ r
Ġvine is
ĠMort uus
ã Ĥ
Ġalt itudinis
ĠComment ariis
ĠPhil em
Ġc areat
ĠAth enas
Ġcam pos
M em
ĠS yl
ĠI ter
ĠL itt
Ġinter itu
idunt ur
de a
ĠÎ ¿
v v
Ġconst antiam
Ġuirtut e
ĠM ale
ri f
ĠA ul
iat ae
Ġco acti
con tent
Ġdevo tionis
w ard
Ġr ump
ra li
Ġmod estia
Ġpraedic tam
Ġpersec utionem
ĠNob il
ĠHebrae os
Ġintu eri
TION ES
ĠMA XIM
p ice
ĠThom e
Ġdiffer re
ĠCardin alem
Ġexerc uit
Ġaccip iet
ĠHieronym um
Ġpacific e
ĠHip pon
S em
h ardi
ter etur
Ġpos uisti
Ġadd itum
ĠAN TI
Ġtransm ar
Ġventur a
Ġabn eg
aret h
ĠFr ed
Ġlong itudinis
Ġtoll e
ĠSol uta
ĠNot ae
m un
ac int
ĠV V
ĠL L
ĠF ere
Ġabsol vit
Ġnihil que
Ġserv atur
Ġprec ed
Ġfund i
ĠPrael aturae
d ig
Ġfr etus
Ġsempiter ne
Joann is
Ġexs urg
Ġspeci alem
ĠV era
Ġposs emus
ĠPar tis
Ġnonn ihil
Ġvac are
hol m
Ġin us
Ġtra di
Ġaudi erit
Ġconiunc tio
ĠSyn opsis
Comment arii
u U
y k
Ġposs itis
Ġcommod ius
Ġdec ert
Ġalien ig
ir st
ĠPR OP
Ġhe u
h unc
om um
Ġel ong
iv s
Ġhab itis
Ġsub it
Ġimp un
Ġ15 00
Ġ14 5
Ġcinem at
Ġsum it
Ġdign am
ĠGr ec
ĠGeorg ium
odivers ity
Ġcoll ect
ĠTr ibus
Ġsan itas
ĠNat alis
êĿ «
+ +
Ġv ind
ri gitur
13 7
Ġprom issum
Ġass enti
Ġstudios orum
ĠRatis b
Ġ other
Ġv nde
Ġad ium
ĠA re
ĠD et
Ġvic tis
ĠHierosolym is
ĠAsper iores
ĠP re
Ġtyrann us
Ġfrum ento
Ġpur am
Ġcorrup ta
Ġsubscrip si
Ġmere amur
Be ati
ĠImm acul
ĠD orm
Ġos tia
ĠPsal morum
Ġfix a
ĠNeap oli
Ġevad ere
Ġstud uit
Ġcustod iat
Ġnon aginta
14 3
Ġabsol utus
Ġaedific iis
Ġmerc atores
M ulta
j e
ĠS ele
Ġes c
Ġsol es
ĠChristi anam
Ġatt est
ĠRuss ia
ĠB is
ass es
Ġthe atrum
Ġunivers itas
Ġmig ravit
Ġp iper
od ius
and arum
ita que
ĠAli us
Ġminis tro
Ġpostul are
ĠBaptis mum
Ġl an
Ġsecret is
Ġexpress um
ĠEcclesiast ici
ĠOccident alis
Ġin uit
ll um
Ġfr etum
Ġomni que
Ġprox imos
Ġdisput atae
Ñģ Ðº
C A
Ġform ulam
ĠHa ered
ĠSpec ulum
Ġpluv ia
il ate
Ġap tius
Ġco eg
Ġdoct issimi
Ġchristifid elium
Ġgen ibus
Ġmolesti a
ym n
Ġ12 6
Ġtoti es
ac ii
Ġjus te
Ġexc itat
Ġcupid o
Ġaccep isset
Ġdecem bris
Ġampl issima
ĠCol oniensis
Ġpoet as
Ġquaec unque
Ã¨ re
Ġpauper is
ĠConstant ino
Ġopportun um
Ġidi om
ĠQuoc irca
d apibus
and rum
Ġrec edere
Ġvan itas
ĠGener ali
ĠDOMIN I
Ġex act
Ġam nem
ĠAp ost
ĠE cl
Ġcer tius
Ġscriptur arum
ap se
Ġsol os
Ġfere batur
Ġcrucif ixus
J ud
ĠL amb
Ġ15 50
Ġthe odos
Ġdistinc tum
Ġcapit ulis
E ur
Ġinter iorem
Ġdef ecit
ĠOmnipot ens
ĠEt ym
Ġfor i
Ġins ect
ĠMax imum
Ġdiffic ilius
XXX VII
Ġae qui
ĠChrysost omi
ĠMex ic
p atr
Ġciv ilem
Ġserv it
Ġprod ita
Ġfab ulos
Ġprox im
Ġnunti is
Ġaestim are
ĠGuili elmus
Ġanimad vertit
Ġatting ere
Ġdisc imus
ĠFr on
Ġvig iliis
Ġabb at
Ġpet ivit
Ġpraem iis
Ġartific es
Ġinnumer abiles
ĠSECUND US
ĠM ensis
ĠDi u
Ġmagistr atuum
Ġgem itus
Ġtractat um
Ġsubs idio
ĠIndic es
Ġsap it
ĠC J
Ġfer ant
Ġoptim orum
âĢ³ ]
al uit
Ġpl anc
Ġpet itur
Ġdefic ere
Ġacadem ia
Ġexim ia
Ġinvas it
Ġregr essus
Ġc inere
ur ium
se par
Ġsuper at
Ġmor tific
Ġ12 4
Ġdiss ensio
Ġfirm am
ĠGu ido
Ġlibid inis
M D
W e
l itter
Ġf umus
ĠC ert
ĠP iet
Ġign arus
Ġreper tum
Ġnobil itas
ĠAnglic a
veni ente
" ]
od orum
eg a
Ġ12 9
Ġvulg ata
ĠFor ma
Ġintercess ione
odec imo
ĠM AN
Ġexerc ent
Ġdel ata
Ġch ili
ĠInferi oris
Ġm urus
ĠH S
Ġap ut
Ġind uxit
ĠKal end
ĠStr ig
Ġsurg e
ic at
Ġad emp
pon dit
Ġfund amentis
Ġcompos itionem
S usc
Ġam itt
Ġobed ire
Ġdiat essaron
qu Ã¦
Ġm enda
Ġmod ern
Ġcel s
Åĵ c
Ġsollem ni
ĠLup us
IN CIP
Ġrog are
Ġian uam
pl end
Ġrecep tis
Ġimit ationem
Ġinnoc entia
ĠDecret a
Ġalum ni
ĠElig endi
ill orum
Ġla ure
ane ant
Ġmet allic
Ġdefin it
ĠBas ilius
Ġmatur e
Ġquing entesimo
Ġper actis
ĠAb sol
Ġgrav itatis
Ġinduc ere
Ġconsenti re
Aug ustin
ĠNer onis
disc ret
M el
Ġten u
ĠRe gna
ĠPhilosoph orum
Ġsyll ab
c ium
ã ĥ
Ġconf ut
pl ac
Ġt in
ĠI is
Ġor aculum
Ġopportun e
E lem
av ig
Ġsol ic
Ġextr ins
Ġcompar atur
ĠDomin ic
ĠAn c
14 4
ĠAnd r
Ġincipi ens
Ġconfit etur
ĠN uper
Ġmin ut
Ġqua eritis
Ġconc ursu
Ġplur ies
Ġproc onsul
20 15
Ġsch ol
Ġbenefic iorum
Ġpraed ecess
Ġsubs idia
Num quam
Luc ret
Ġimport at
qu antum
Ġg av
Ġrem isit
Ġang ulos
Ġseptem bris
ĠN E
Ġred dam
Ġpet imus
Ġconiunc ti
Ġavar itiam
J ob
Ġl udic
Ġsen esc
Ġcod ex
Ġlabor ant
Ġdescrip tionibus
ĠInst it
Ġhodiern o
hen es
Ä ħ
Ġinc r
Ġlaud ate
ĠCor b
Ġev acu
Ġsem ib
ĠEpist olas
Ġaquil onem
Ġignomin ia
) /
Ġqui etis
Ġmir aculorum
Ġsil vam
rav imus
ĠEm manu
Ġnepot em
L aur
Ġin ed
Ġexerc et
Ġcoll ectis
Ġiuc unda
ĠDon ati
L ond
Ġv a
Ġven ias
uv io
Ġspect antibus
ĠIud am
Capit ulum
ĠD IC
Ġnomin are
Ġcand ida
ĠA CC
ip pus
ĠPh aed
pot ens
libr ary
ĠV ides
Ġsem inis
atr icem
pl us
Ġdomest ica
ĠPatriarch a
m entis
ĠC og
ĠJ ust
ill as
Ġcl avis
berg ensis
Ġaed ium
Ġsuffrag io
Ġsib imet
w ork
ĠP ugn
Ġid olis
Ġinv est
ĠAl terum
Ġprom ittit
err ent
ĠFl um
XXX V
Ġfrequ entius
Ġvin dem
ĠBelg ii
Ġvestig iis
Ġtri ennium
Ġback ground
u tiam
Ġ ï
Ġag erent
Ġhos tia
Ġmiss ionem
ĠCod ice
Ġsel ecti
Ġconsor tium
Ġd ote
ĠM EMOR
ator iae
ÃŃ s
ÑĢ Ð¾
Ġpun iatur
as per
ux isse
gr ed
13 1
Ġhabit antes
ĠApostol o
Ġpal mam
et s
al liae
ĠD U
Ġab sum
Ġinc ub
Ġproc eres
Ġflum inibus
Ġvill as
Ġtyr anni
A A
Ġl u
ĠC ell
ter us
Ġactu um
ist icae
Ġpet ens
Ġpati enter
ĠBal du
Ġduplic em
Ġsyst emat
qu c
ae u
os p
Ġvic iss
ul Ã³rum
Ġex ecr
ĠSumm ae
Ġconfus ione
ĠTig uri
ĠAl phon
ĠI LL
ĠM eum
Ġred uxit
ĠSal utem
Ġs ecta
Ġcur rum
h omo
Ġqu and
ad ibus
Ġign otum
Ġscrib endo
Ġquic unque
ĠVolup tate
Ä ĥ
Ġat trah
Ġduc eret
Ġinde f
Ġquat er
Ġ25 0
Ġspirit ui
Ġprop emodum
ĠOr at
averit is
ĠPublic a
Ġc edit
ell endus
Ġtur res
Ġostend imus
Ġconvers atione
Ġrecens entur
ĠIudae a
Ġpolit icae
Ġexpedit ione
or ti
Ġqu apropter
Ġpo tior
Ġexercit atio
Ġfab ularum
Ġegreg ium
ĠIonath an
Ġlasc iv
N atus
V iv
] }
Ġhab uerint
Ġinc ess
ali is
pos iti
Ġproc ons
Ġlic ite
Ġquaer ens
ĠÃ³mn ibus
H Ã¦c
Ġfr egit
Ġpugn atum
Ġsch olam
? .
Qu ar
Ġius torum
Ġz el
Ġincep ta
Ġcongreg atio
Ġinferi ori
Ġtransl atio
l uc
im enti
atur is
Ġ14 4
Ġrom ano
ĠAristot ele
Ġimpos itum
ĠQuar tus
ĠN OMIN
Ġsapi entium
Ġ5 00
Ġsupplic ia
Ġleg ionem
OR EM
Ġsan itatis
Å¿ t
Ġeleg i
Ġterrit orium
ĠSaec ulo
ĠA ven
ter it
Ġali arumque
temp ore
Ġsanctu arium
T en
Ġqu erc
Ġl eni
14 6
Ġinven iet
Ġconstitu tio
Ġom issa
Ġinfirm us
Ġpeculi arem
jp g
Ġs eget
Ġt ecto
ud ine
Ġus q
ĠBar cin
Ġflam mis
V EN
Ġv icis
ĠI i
Ġloqu etur
Ġmitt itur
Ġnud um
Ġcommerc ium
ĠL an
Ġconsec uti
Ġ200 4
Ġp ii
16 5
Ġcan it
ĠDes erunt
Ġepiscop atu
ĠLeg um
Ġelect os
ĠA UC
ĠL inc
Ġcap t
Ġir re
Ġscrib ae
ĠPontific es
ill ud
Ġ* <
Ġperegr inus
ĠAccus amus
Ġap ti
Ġconc edi
Ġimped ire
Serm o
S aec
Ġc ath
Ġam as
Ġsub diac
AR IUM
Col oniae
ï¿½ï¿½ ï¿½ï¿½
ĠBith yn
ĠTyp ograph
n ensis
Â ©
Ġun ico
ĠAli is
Ġadm is
Ġnull ae
ohann es
Ġl atis
ot ti
ĠAl ma
13 3
UR IS
ĠArist oph
Ġaccommod ata
Ġremed iis
Ġsad ips
Ġp estis
Ġvid istis
Ġexercit ibus
Ġproduc tum
Ġdiac oni
Ġv ates
ĠC un
Ġg uer
Ġaffirm at
Comment aria
Ġn ation
om ag
end unt
ores que
Ã© m
Ġquant us
Ġparv ulus
Ġsel ecta
ĠConstantinopoli m
v d
Ġd andum
Ġqu es
ĠBo em
arm ac
n ig
Ġdi ver
ĠN ationum
Ġeg erit
ali quid
Ġdec re
Ġ17 0
Ġem isit
Ġtim entes
Ali enum
ĠNic om
Ġsuperfic ies
ĠS CH
ĠD etails
Ġput avi
Ġillustr atum
ĠEcclesias ticorum
Ġperfic itur
Ġci uitas
ob rog
14 8
Ġ200 1
ET H
ĠIM PER
- _
V ere
ĠF uga
Ġim a
ĠParis iensi
ĠSab aud
ĠUl tra
ĠSabb ato
Lin naeus
Ġpl erosque
ĠBr ute
Ġeleg erit
Ġsupr emo
Ġcrud elis
Ġiuc undum
Ġparadis o
k k
Ġdic turus
Ġu eter
Ġserv avit
Ġind ur
Ġpon te
Ġk ar
ĠSacram entorum
ĠRuf us
Ġtribun os
ĠOri entem
ĠCapit olio
Ġsuppl ementum
h elmus
ub e
Ġgaud eo
Ġdelic tis
Ġvex illum
Ġconvert ere
Ġtun ica
Ġs istens
Ġad pet
ven erunt
Ġexper imentum
Ġiur amentum
ĠCan ones
ĠCo el
ot as
ĠW illi
Ġvide am
Ġap tus
15 5
ĠDec imus
ĠCons ider
ĠCler ici
Ì Ĥ
Ġel ectis
Ġtur mas
ĠAnglic us
Ġvideb itis
ĠAtl ant
b re
ist s
Ġped ilus
Ġdisput ationem
ĠAg e
Ġdepos uit
ĠCh a
Ġdef endi
Ġunivers alem
Ġampl exus
Typ i
Ġcom itatum
ex erit
Ġul t
Ġtac tu
Ġconvers ione
Ġ29 4
Car oli
ĠArab um
Ġd ip
Ġsc il
Ġvis o
Ġev olv
Ġcelebr antur
Ġconsol ationem
Ġrecenti oribus
d ii
em et
Ġex ample
Ġor as
Ġpres um
Ġlap idis
Ġlegit imis
ĠHe idel
ĠÃ¦ter nam
er y
Ġ: /
Ġj ung
Ġreli quam
Ġequ itatus
Ãº s
F uit
ĠC AT
ĠQu inqu
he ight
ĠVers us
Ġ( '
Ġconst anti
Ġcop iarum
Ġmess is
p u
Ġut or
Ġb in
Ġb ina
ĠT anta
ĠF ulg
Ġpot uissent
Ġaug ere
Ġ14 1
ĠItal ica
ĠVener abiles
ĠA ure
Ġauctor itati
fer endis
Ep it
ĠVolup tates
Ãª tre
Om ne
Ġt onus
oc a
ch io
Ġjur amentum
Ġprodig ia
L uke
h erc
ĠH art
ix e
Ġunum quemque
ĠAegyp tii
Ġieiun ium
k b
Ġ itur
de f
iti or
Ġdomin ae
Ġdem and
Ġca erem
Ġvig ore
Ġrespond endum
Ġinfid el
I gn
is iones
ĠN orth
and ia
ĠR u
Ġcur riculum
Ġign ibus
Ġgem mis
Ġcam era
Ġm ire
ĠL or
Ġvol es
ch ar
itudin um
Ġtac ere
ĠOp tio
ĠM CCC
ĠT OM
Ġmin as
Ġal tis
Ã© l
ĠCor s
Ġconfirm ationem
ĠCruc if
Ġincorrup tib
Ġdiuers is
ĠPan egyr
Ġpriv atae
Ġcogit ationem
Ġpauper tate
Ġhier arch
Ġ16 09
Ġcred iderit
Ġq n
Ġpal p
ĠMaj i
Ġtun icam
ĠConra dus
Ġdeclar atur
ipot ens
Ġinnoc entem
end at
ĠF eb
Ġu ia
Ġangus tia
Hispan ice
Ġde gen
Ġaudi endi
Ġmagnific e
Franc isci
TIT U
Ġprohib etur
Ġnar ravit
d on
Ġc ir
Ġv ille
ĠM u
20 11
Ġser io
Ġmonach um
Ġancill am
Ġpect ora
ĠRE I
S UM
Ġul lius
Ġal arum
XX IX
ĠHibern ia
V R
l ag
Ġin haer
Ġf isco
ĠP oll
Ġ13 4
OR T
.] .
Ġhaered es
Ġargente a
Volup tatem
Ġjuc und
Ġa enig
ĠN ar
ug o
Ġnull os
ĠPrincip ium
ĠProph eta
ĠFon tes
Ġinter pres
Ġinc omm
Ġvid uae
ĠDi alogus
Ġinstitu ere
ĠBelg ae
Ġremiss io
Ġpermans it
ĠLATI N
et ium
Ġcar minis
Ġcuius vis
Ġstud ent
ĠZ e
n omin
Ġm ord
Ġform at
ĠGr an
ĠScrip turam
aph ium
Ġoporte bit
Ġprist inam
Georg ius
ĠCaes arum
ĠMul tum
Ġorient alium
Ġumb ram
discret iva
es iae
Ġhab uisset
ĠU lix
ES TI
á½ °
Ġgrammat ica
i aliter
ti les
ĠC ab
uti i
Ad ip
ĠSacram ento
Ñ Ĩ
å ĮĹäº¬
Ġomnibus que
Ġmor atus
Ġcad at
Ġreligios um
Ġinstit ui
Ġtyp ographia
Ġm anc
ĠP ir
Ġimp ortun
Ġtrad itus
Ġgrav itas
Ġdesider ant
ĠBalth as
ic eret
tic ia
Ġconsuetud inis
IO ANNES
Coll eg
, __
Ġv v
Ġsp ont
14 2
Ġfelic itatis
Ġtribul ationis
N il
ib u
ici atur
udi andae
Ġlegit imam
az ar
ĠCol oss
Ġiniur iis
ĠAnnot ationes
o y
uc tum
orem que
ĠG EN
Ġadip i
pr int
Ġvoc i
ĠApostol ici
Ġcelebr atum
Ġarm atus
Ġredemp tionem
temp or
ĠM abill
Ġrespond ent
ĠXen ophon
18 0
Ġprob ant
ĠCas tro
ĠC ann
Ġven irent
Ġnov iter
Ġinferi ora
Ġquadrag esimo
Ġer ipi
Ġeffic aciter
Ġchristi anos
Ġfrug es
Ġdisciplin as
B E
ĠV a
Ġar ithmet
Ġimp ati
Ã¡ ta
Ġle ones
Ġâ Ĺ
Ġstul tum
ĠL ob
IT A
ĠSteph anum
Ġinj uriam
Ġconn ex
Ġp assa
ot eca
ĠL anc
Ġhab endam
ost ant
esc entibus
Ġ17 00
17 0
Can on
Ġchristi ano
Îµ Î½
ĠDeb itis
ĠIncarn ationis
Ġpropos itis
Ġvid issent
Ġpatr onum
ĠHelvet iae
ĠIur idica
ĠI ra
ĠE ust
Ġ13 3
Ġtrad at
Ġnub e
ç »
Ġm amm
Ġpet ul
Ġdivers itatem
IC US
ĠC CL
ĠF ic
VI D
ĠFl ores
ĠTur n
Ġcav ere
Ġexclud it
ĠNaz ar
C J
p as
Ġdi f
Ġdel atum
Ġplus quam
Con sequ
Ġcopios e
ĠRem ig
ĠGron ov
Ġp elli
ĠL ectiones
ĠDuc em
Ġaccid erit
our n
Ġvent rem
Ġtr actu
Ġconc ursus
Ġhum iles
Ġstat uerunt
Ġmun erum
ĠPl ura
Ġgener ales
Ġperm ittitur
T i
ĠW itt
Ġartific io
á¿¶ Î½
Ġiur idica
ĠPrincip e
Ġcler icum
Ġviol entia
Ġconfit ebor
ĠCorint h
c ulo
Ð ¡
ati vi
ĠPra est
enas c
Ġliter ae
Ġpro venit
Ġnum mis
Ġerr at
Ġcens et
Ġcreatur as
) )
b ros
t issimi
it he
In tr
Ġ16 45
Ġ13 2
Ġpal m
ĠSim onem
Ġper st
Ġposter iores
Ġpostr idie
Ã ¥
ab amus
Ġcresc unt
Ġcat alogus
adip iscing
Ġeff udit
g em
Ġd oli
op ae
Ġg esti
osc ere
Ġappell ati
ĠServ us
ĠsÃ¦c ulum
ĠMort em
ĠS agit
up iter
iti Ã¦
Ġpres entia
Ġsignific et
ĠprÃ¦c ed
Ġster n
Benedic tus
Ġc antum
Ġin itiis
Ġcap ax
Ġhuman as
Ġaus i
Ġund er
Ġuti lem
Ġto ol
Ġdex trum
Ġmanif esto
Ġbeati fic
Ġministr are
Ġinj ur
Ġmal uit
ĠFab ricius
Ñ ħ
ip io
Ġvol uisset
Ġmun ita
ĠAb el
ĠMich a
â Ħ
od or
Ġob itus
Ġcap ac
Ġred de
Ġpet ita
Ġflag ell
ĠDol ab
h anc
ĠE un
itiv am
qu omodo
ĠF il
ĠEx pl
Ġfut uros
Ġadministr ationis
ĠT U
ag er
ĠDomin icus
Ġst atis
Ġmai estatem
Ġcoll is
Eccles iae
Ġvad o
Ġa is
ĠM yr
ĠL us
Ġat ton
Ġcongreg atione
Ġcorrig ere
Ġaccurat issime
v iri
in iis
ĠB d
Ġtr ac
Ġnum ina
Ġcunc torum
Ġperven iat
ĠPrincip i
Ġbene fici
ĠFl am
Ġpecun iis
Ġidol olatr
n im
pl ay
14 9
Ġret e
Ġdon are
ĠDic tum
Ġignomin iam
mort uus
Ġex ort
Ġst abant
Ġfirm itatem
ĠHannib alem
ĠMot u
in isc
ĠM ASS
ĠPr ol
Ġmuli ebr
Ġdub itat
Ġvolum inibus
Ġadnot ationibus
Ġaf ter
Ġluc tum
ĠRep rint
Ġdepr om
Ġne utrum
16 7
Ġcoll e
Ġparv uli
Ġfaciet is
Ġecclesiastic as
Ġadep to
ĠPyr enae
ĠSev eri
ĠArchit ecto
ĠBethl ehem
Ġ13 8
Ġspiritu um
Ġpropon ere
ĠClaud ium
Ġprem issis
Ġvideb imus
ĠAgric olae
Ġd arent
Ġv all
Ġexc udebat
Ġperson alis
Ġcarn ibus
Ġascend ens
iz io
fam ilias
ĠAUG US
Ġ oll
on nes
Ġantiqu us
Ġagr icul
h l
Ġsod alibus
Ġpraet ori
ĠCons pectus
Ġexcel sum
Ġherb arum
Ġintern ation
i È©
or que
ann os
Ġfl ere
Ġpraedic tus
Ġpros unt
Ste ph
S ax
Ġs yl
Ġom issis
Ġdelect ationem
Ġcoel orum
ĠCapit ulo
Ġdisciplin arum
d escrip
on tes
Ġco li
ĠImp edit
Ġn iv
ec umque
Ġf au
Ġg land
ĠB ri
Ġloc uta
ern ia
Ġum br
r ima
Ġmilit are
Ġiracund iam
Ġnuc le
P ax
per b
ĠV ulc
Ġ15 5
Ġ19 80
ĠW i
Ġscrib unt
Ġobserv atione
Ġamic itias
ĠMog unt
ĠAudit orio
Ġel ecta
ĠT alis
Ġmaxim eque
Ġcul tores
Ġuir tus
Ġnong entesimo
r atis
ĠF un
Ġaddit ionibus
ĠApostol os
ĠMin oris
Ġhaeret ici
ĠSC RIP
Ġv allum
Ġi ul
ĠC CCC
Ġten eret
Ġexcel so
ĠIsid orus
y on
ĠM ae
Ġadvers arios
Ġcognosc imus
ĠMerc atoris
angelis ta
> :
Ġac ut
Ġdol us
ĠJos ue
ĠA V
Ġde prim
ens imo
Ġbon as
Ġscrip toris
Ġpercus sus
Ġexprim itur
ĠI con
tr es
Ġ[ [
ĠPr ess
ĠAristot elem
ĠPrÃ¦ s
Ġe ph
ĠEd ita
Ġcondit iones
Ġvet at
Ġsubm ittit
s aepe
Ġins unt
Ġcog ito
Ġ200 2
Ġcav endum
ĠSix ti
Ġde plor
Ġsc utum
Ġcorpor aliter
Ġdec orem
Ġsumm orum
Ġcontr acta
Ġmagistr os
Ġspons am
ĠD er
Ġrel ata
Ġcurr ere
Ġprovis um
Ġexp and
15 3
Ġpros ec
Ġard ens
Ġpell icula
Ġinquir ere
o ff
Ġ omin
ĠC ec
ĠH amm
Ġamb iti
Ġsuccess orem
Ġsanct arum
ĠConsequ untur
Ġexisti r
in m
ĠMar th
Ġ19 99
Ġcont ulerunt
XXX III
Ġrelic tus
Ġbarb aros
Ġmanuscrip tis
qu ar
uc le
ĠT iti
Ġgr emio
Ġoptim am
ĠComment atio
Ġartic ulus
Ġdiff usa
Ġsoli o
Ġtransl ationem
Ġpollic etur
Ġverecund ia
Ġprimogen itus
Ġgenerat im
ec erint
ĠN om
Ġsuper f
ich t
Ġcompos itis
Ġcali dum
ĠAPOSTO LICAE
t est
u entes
ess ione
bi i
Ġgl ab
Ġini qua
Ġarm atorum
Ġfun us
ĠL u
Ġdic tio
ĠB rig
Ġjus ta
Ġang uli
ĠXXX VI
ĠMarg aret
ĠValentini anus
Ġimpro vis
an y
Ġex orta
Ġw ork
Ġduc ens
IT US
ĠBern ard
ĠOffic ii
Ġsepulch ro
Ġprob andum
Ġappell atio
Ġfamili is
Ġsimplic ibus
Ġplant ae
Ġdescend ens
her ed
ĠPatriarch ae
ĠM ori
Ġvers o
Ġpom pa
Ġserv a
Ġloqu entem
Ġinim ica
Ġfrequ enti
ĠMin ima
ĠPsal mi
ĠLiv ii
Ġvocab ulorum
Ġoctav am
h as
Ġse v
Ġrap it
Ġtransl atione
Ġdur ante
Ġindustr iae
ĠLugd un
Ġidenti dem
Ġe isque
anc ht
Ġimm an
Ġindic io
Ġz u
Ġmaj estatis
Ġincred ibile
Imper ium
P lin
Ġ14 7
alb ibliothek
ĠS irm
ĠP acis
QU AM
Ġquer ela
Ġcom prim
Ġmul c
ĠVic arii
arem ur
ĠTer entius
Ġdiscret ivam
ĠOce ani
Ġeffug ere
Ġinf antia
Ġpat ere
Ġcompar ationem
Ġsacrific iis
ĠSer aph
Ġlatr ocin
ĠAfric anus
ĠFR ANC
Ġm itis
ĠV e
ĠEx emplum
Ġproc essum
Ġt ectis
Ġal ma
ĠAr im
Ã¡ tem
Ġpraet oris
Ġhabit ae
Ġbov em
z io
å Ĳ
ter que
Ġpor tione
Ġdeb il
Ġorn at
Ġfam ulus
Ġcog i
Ġrevert atur
Ġexprim it
Ġsyll aba
o o
ĠT ic
Ġfac ilem
Ġetiam num
Ġtel um
m ento
Ġm atura
ist unt
Ġoffic ialis
Ġcurr u
Ġsurg it
ĠSamu elis
Ġab ut
Ġnatur e
Ġintr ep
Ġexam ine
Ġquer itur
Ġalac r
Ġobd orm
f al
v es
Ġdeb eri
ma il
ĠAl s
Ġ13 6
Ġdisper si
Ġrecord atus
Ġr as
Ġan ulo
ĠQu icquid
Ġlat ÃŃn
ĠGal eni
Ġminister ia
ĠOrig ine
Ġad un
end Ã¦
Ġes ister
Ġmut uam
Ġdim issis
Ġexisti eren
ĠInvent ore
ĠD olorum
Ġpos itae
qui em
Ġexist sein
Ġram os
Ġfuturus be
Ġesister eser
Ġexistieren Ãªtre
H uius
ĠU p
Ġpoter imus
Ġcopios a
ĠEs d
ĠSeren issimi
Ġp este
ĠN ationalis
Ġli que
Ġvir iliter
pr ec
Ġpecc avit
omen is
ĠK e
Ġcan em
Ġpropos itiones
Ġproduc it
Ġrecipi ant
Ġvestim entis
Ġacti va
ĠFr ob
Ġfug ientes
Ġ14 9
Ġadj ecit
Ġspirit alis
ĠWestmonaster ium
Ġcond on
Ġfin itum
Ġnatur alia
ĠReg ibus
circ a
ĠGaud ium
b es
ĠV ae
ane orum
Ġomnipot enti
Ġrecip roc
in ati
ĠF ugiat
Ġint endere
ĠGerman ico
Ġstatu as
Ġmaj ore
Ġconfer ri
Cl aud
Ġconsurg ens
Ġc es
an imi
Ġex ag
Ġius tam
Ġnov embris
Ġcognosc ant
Ġexis tat
Ġvoluc res
T est
Ġi umenta
ĠN eh
ĠMar onis
Ġprob ationem
Ġsucc edit
ĠM isit
ane os
Ġist ic
Ġaudi ant
Ġrequi es
ep hon
Ġliber ari
ĠAl ber
Ġgest orum
ĠHa fn
Ġtrah unt
U nus
u io
eb urg
Ġconv erti
Ġexercit io
ĠPhilosoph us
ĠGallic um
ĠTheolog i
Ġcontumeli a
Ġterr enis
ĠOrdin um
Ġobsc uri
Ġindig ent
Jo an
Ġl uto
Ġvel um
isc a
Ġinter ior
ĠCl u
Ġcred eret
ĠSac rum
ĠZ entr
uri fic
Ġcelebr at
Ġmori untur
Ġambul at
Ġdescend unt
Ġbo um
Ġvertic em
ĠN ou
Ġor ate
Ġcl adem
Ġorn amentis
Ġno uum
Ġcompos itus
Ġplag as
Ġamo en
ĠS OL
ĠE SS
Ġdic entis
ĠT erm
Ġme herc
Ġreg ali
Ġmon ths
oli bet
ĠRe vel
AN TI
Ġpal ma
Ġaedific ationem
Ġdesign at
TER AE
L ips
Ġnon agesimo
ĠO C
Ġprae lio
ĠHeli as
Ġpraecl arum
Ġi lico
Ġhab eatis
ĠAd vers
Ġconfirm amus
prae f
Ġr empublicam
Ġex struc
uc io
ĠO liv
ane am
Ġoccas u
Ġchar itatem
Ġsuav iter
ĠIllustr i
Ġconclud it
ĠDu odecim
Tab ulae
Ġimbec ill
n ata
o ys
Ġd eris
ĠC Ã¦
Ġex anim
Ġleg as
Ġep ul
Ġsomn us
Ġservi entes
Ġconfus io
V ix
ĠN eo
Ġnec ne
ĠU b
Ġu etus
ph y
ne a
Ġcoll aud
ĠCON C
ĠHieronym o
Ġinuti lis
Ġac tionum
Ġemend are
Ġp adding
Ġi uncta
ĠD uae
Ġcap itur
land ia
De f
Ġcup imus
Ġinfin itis
ĠInnoc entii
uv ius
Ġmanif esti
Ġstul titiam
ĠPoss imus
ĠComoed iae
g us
ĠS usp
Ġqui escere
Ġ16 18
Ġhon orum
Ġaper tis
Ġ13 1
Ġconven iant
Ġingr essum
ĠPan orm
odiversity library
m em
ĠN ap
Ġli ke
Ġliber ati
Ġrec esserunt
ĠDesider ius
i ata
á ĥ
Ġt elis
Ġinc us
Ġsemper que
Ġq vi
ĠAs iat
Ġparv us
Ġnup ta
ĠLoc orum
Ġconclus iones
Ġsublim e
ĠOn line
Ġel ud
ĠMar io
Ġpon t
itt untur
14 1
Ġput atis
ĠVirg ini
ĠWill elmo
P art
Ġm u
Ġdi rexit
Ġcomm endo
Ġconi ectura
Ġdon atio
Con tin
Ġindustr iam
Lucret ius
Ġc il
Ġd emp
Ġal te
In de
Ġub era
ĠTh erm
Ġeuch aris
Ġa ustrali
em er
Ġf isc
as ius
Ġcael estem
Ġic tum
ĠZentr albibliothek
m ans
ĠP ant
ers a
Ġpaenit et
pat er
De um
Ġdol et
Ġprox imam
Ġdemonstr are
Ġcess avit
Ä« s
Ver ba
Ġsoli di
ĠPol yc
Ġjub et
Ġs anum
Ġhab uimus
bi odiversitylibrary
ill atim
Ġposs ibil
Ġten orem
Ġvestr e
Ġcujus que
Ġoccid erit
Ġcompet ere
Ġpariet em
enci e
N ON
ĠNon as
Ġmens ae
Ġpass um
ĠDiv ino
Ġdepos ita
ĠAntioch us
ĠVinc entii
ĠAssum enda
d im
Ġius iurandum
ES U
ĠSol e
Ġthesaur i
Ġcomplet a
it s
Ġad c
Ġfin ium
Ġlo quebantur
Ġsimplic ium
ĠHab es
ĠSup ra
ĠOx ford
Ġmendac io
tram et
ĠDisput ationes
Ġs ho
Ġir rig
Ġpet itio
ĠFranc i
Ġ13 7
Ġger ens
E ph
v orum
Ġcomm eat
Ġd ue
ĠNos tram
Ġdioeces im
Ġinstrum entorum
ĠInstitu tio
Ġsepulc ro
ĠIustin iani
! :
ĠT el
Ġ17 5
Ġrel atum
Ġaccep tam
ĠHa eret
Ġinc olas
pr oc
Ġpur um
Ġiud icet
ĠConst at
ĠProph etae
ĠCup iditate
Ġmedioc ri
Ġintrod uxit
i endi
Ġdil exi
Ð° Ð»
F R
Ġin ire
25 0
Ġspiritu ale
Ġveni ebant
Ġexist ente
Ġoffer imus
Ġterrit orii
Ġindivid u
ĠE L
uc tu
Ġco ag
arch us
ĠDeip arae
Descrip tion
D iv
Ġpar al
ro v
Ġ19 62
Ġaccus atus
Ġ14 2
ĠPatr iae
Ġanc ipit
ĠBene fic
ĠProfess or
Ġpatriarch a
Ġqu estus
Ġac torum
Ġb ub
cc c
ĠCh am
15 4
Ġrepet it
Ġimperf ectum
Ġg erebat
AR II
ĠEur ip
li e
ab und
Ġco em
Ġem erit
ĠTit ulus
ĠAthanas ius
ĠO li
Ġch erub
Ġspect antes
Ġdet ulit
ĠArio vis
. \\
Ġfor ibus
Ġmol estum
ern e
Ġpugn avit
Ġgrav itatem
Ġpoet am
Ġdatur us
Ġben ed
ĠUtr iusque
Ġv anum
ĠF est
Ġviv ant
ĠIN TER
ĠServ ius
Ġdivid i
Ġpulchr itudine
ma gn
Ġillustr ati
ĠRob ertum
Ġdomn o
ĠCar p
Ġpraef uit
Ġfur to
Ġare am
ĠReli qua
Ġexpr essit
Ġ ÑĤ
ĠP hilos
19 0
Ġmultiplic iter
Ġinnoc entiae
ĠÃĨgyp to
ĠEzechi as
ĠM anus
Ġen t
ĠPasch ae
Ð» Ð°ÑĤ
P op
Ġvir idi
Ġsubi ug
itat am
Ġinc epit
Ġir reg
Ġ20 5
Ġoff erunt
Ġiniqu o
Ġam issis
ĠCh art
Ġst art
Ġcontr ariam
Ġdiv us
Ġfund atur
Ġcommend atur
E cc
Ġd ando
Ġsusc ipe
Ġdisc o
Ġ19 81
Ġmai estate
Ġpu ellis
Ġsuccess orum
Ġsat ag
Ġatting it
B l
ĠQu inta
ron ius
ĠLoc i
Ġrot und
ĠWill elmi
a per
c u
iss u
ĠB R
Ġcustod ibus
Ġexper s
Ġqu ipp
Ġtempor i
ert z
Ġeffic ax
ĠOr te
Ġval orem
Ġphys icae
Ġfat etur
ĠOvid ii
il lius
Ġqui eti
Ġpos cit
Ġ2 30
Ġdign itati
ori x
Ġlat initatis
Ġperf ectae
Ġindic avit
ath er
osc e
Ġdoctr inis
Ġsomn i
Ġhaeres es
Ġv allo
ĠquÃ¦ sumus
Ġsper at
Ġcompos itio
á½ Ĳ
Ġtyp ica
al as
17 5
Ġconsecr atae
Ġmitt ens
Ġmeth odum
M ulti
Ġfac t
Ġsuper esse
In f
ne um
Ġpropos iti
Ġarch ip
LI US
Ġexempl arium
Ġpresbyter o
Ġration abiliter
Ġ isque
Ġviv ente
ĠAr tem
Ġagn us
r ot
Ġcontin enter
ĠPublic e
sec ro
Ġimmort alis
se e
Ġer um
av erim
Ġmin imus
Ġhistor iis
Ä ±
ar icus
Ġsollic ite
Ġcred ebat
Ġ14 6
Ġadvers arius
ĠâĢ¦ ).
Ġinm ort
Ġspon si
v ius
Ġcom itum
Ġar tus
Ġrem oti
Ġ15 82
Ġmal ae
Ġmor eretur
Ġign av
Ġabs entia
Ġpraet eritis
ĠVic ario
opolit anae
m assa
is mata
on tis
ob i
Ġdeb itor
Ġcred amus
Ġadvers ariis
Ġfron tem
Ġadp rehend
Ġg az
Ġreg iis
ico gn
Ġprom isc
Ġintellig imus
ĠCo enob
ĠBasil icae
u ensis
Ġ13 9
ĠVic toria
Ġsalv ator
Ġdefens or
[...]
