{"<s>":0,"<pad>":1,"</s>":2,"<unk>":3,"<mask>":4,"!":5,"\"":6,"#":7,"$":8,"%":9,"&":10,"'":11,"(":12,")":13,"*":14,"+":15,",":16,"-":17,".":18,"/":19,"0":20,"1":21,"2":22,"3":23,"4":24,"5":25,"6":26,"7":27,"8":28,"9":29,":":30,";":31,"<":32,"=":33,">":34,"?":35,"@":36,"A":37,"B":38,"C":39,"D":40,"E":41,"F":42,"G":43,"H":44,"I":45,"J":46,"K":47,"L":48,"M":49,"N":50,"O":51,"P":52,"Q":53,"R":54,"S":55,"T":56,"U":57,"V":58,"W":59,"X":60,"Y":61,"Z":62,"[":63,"\\":64,"]":65,"^":66,"_":67,"`":68,"a":69,"b":70,"c":71,"d":72,"e":73,"f":74,"g":75,"h":76,"i":77,"j":78,"k":79,"l":80,"m":81,"n":82,"o":83,"p":84,"q":85,"r":86,"s":87,"t":88,"u":89,"v":90,"w":91,"x":92,"y":93,"z":94,"{":95,"|":96,"}":97,"~":98,"¡":99,"¢":100,"£":101,"¤":102,"¥":103,"¦":104,"§":105,"¨":106,"©":107,"ª":108,"«":109,"¬":110,"®":111,"¯":112,"°":113,"±":114,"²":115,"³":116,"´":117,"µ":118,"¶":119,"·":120,"¸":121,"¹":122,"º":123,"»":124,"¼":125,"½":126,"¾":127,"¿":128,"À":129,"Á":130,"Â":131,"Ã":132,"Ä":133,"Å":134,"Æ":135,"Ç":136,"È":137,"É":138,"Ê":139,"Ë":140,"Ì":141,"Í":142,"Î":143,"Ï":144,"Ð":145,"Ñ":146,"Ò":147,"Ó":148,"Ô":149,"Õ":150,"Ö":151,"×":152,"Ø":153,"Ù":154,"Ú":155,"Û":156,"Ü":157,"Ý":158,"Þ":159,"ß":160,"à":161,"á":162,"â":163,"ã":164,"ä":165,"å":166,"æ":167,"ç":168,"è":169,"é":170,"ê":171,"ë":172,"ì":173,"í":174,"î":175,"ï":176,"ð":177,"ñ":178,"ò":179,"ó":180,"ô":181,"õ":182,"ö":183,"÷":184,"ø":185,"ù":186,"ú":187,"û":188,"ü":189,"ý":190,"þ":191,"ÿ":192,"Ā":193,"ā":194,"Ă":195,"ă":196,"Ą":197,"ą":198,"Ć":199,"ć":200,"Ĉ":201,"ĉ":202,"Ċ":203,"ċ":204,"Č":205,"č":206,"Ď":207,"ď":208,"Đ":209,"đ":210,"Ē":211,"ē":212,"Ĕ":213,"ĕ":214,"Ė":215,"ė":216,"Ę":217,"ę":218,"Ě":219,"ě":220,"Ĝ":221,"ĝ":222,"Ğ":223,"ğ":224,"Ġ":225,"ġ":226,"Ģ":227,"ģ":228,"Ĥ":229,"ĥ":230,"Ħ":231,"ħ":232,"Ĩ":233,"ĩ":234,"Ī":235,"ī":236,"Ĭ":237,"ĭ":238,"Į":239,"į":240,"İ":241,"ı":242,"Ĳ":243,"ĳ":244,"Ĵ":245,"ĵ":246,"Ķ":247,"ķ":248,"ĸ":249,"Ĺ":250,"ĺ":251,"Ļ":252,"ļ":253,"Ľ":254,"ľ":255,"Ŀ":256,"ŀ":257,"Ł":258,"ł":259,"Ń":260,"Ġe":261,"is":262,"um":263,"er":264,"Ġa":265,"us":266,"in":267,"it":268,"qu":269,"Ġs":270,"or":271,"at":272,"en":273,"on":274,"Ġp":275,"Ġc":276,"Ġd":277,"es":278,"am":279,"em":280,"Ġn":281,"Ġm":282,"Ġqu":283,"et":284,"ur":285,"ic":286,"Ġv":287,"Ġin":288,"an":289,"ti":290,"li":291,"ec":292,"ar":293,"Ġt":294,"Ġi":295,"Ġet":296,"un":297,"ul":298,"Ġf":299,"ae":300,"os":301,"ut":302,"ol":303,"om":304,"im":305,"el":306,"Ġl":307,"as":308,"Ġr":309,"ent":310,"Ġpr":311,"Ġcon":312,"id":313,"ib":314,"ed":315,"que":316,"od":317,"Ġh":318,"ac":319,"Ġad":320,"st":321,"ĠS":322,"ĠA":323,"unt":324,"ĠC":325,"al":326,"ĠD":327,"ia":328,"ĠP":329,"oc":330,"Ġest":331,"ab":332,"ibus":333,"ĠI":334,"ip":335,"ra":336,"Ġex":337,"ati":338,"Ġut":339,"Ġnon":340,"ud":341,"il":342,"end":343,"per":344,"ect":345,"gn":346,"Ġde":347,"se":348,"orum":349,"ĠE":350,"ant":351,"ĠM":352,"Ġsu":353,"ius":354,"ere":355,"op":356,"tr":357,"Ġdi":358,"Ġip":359,"uc":360,"Ġan":361,"ter":362,"Ġsit":363,"eg":364,"ir":365,"Ġam":366,"Ġac":367,"ĠN":368,"Ġper":369,"Ġma":370,"Ġips":371,"olor":372,"Ġali":373,"ot":374,"Ġdolor":375,"Ġ1":376,"Ġvel":377,"ens":378,"ob":379,"Ġb":380,"Ġel":381,"ta":382,"ell":383,"io":384,"Ġcons":385,"Ġg":386,"ĠV":387,"enti":388,"Ġer":389,"ing":390,"Ġsed":391,"ium":392,"ation":393,"iv":394,"etur":395,"ull":396,"Ġre":397,"iss":398,"isc":399,"..":400,"omin":401,"Ġamet":402,"Ġqui":403,"te":404,"ap":405,"ĠL":406,"orem":407,"Ġquod":408,"Ġcum":409,"ili":410,"omn":411,"Ġli":412,"itat":413,"Ġipsum":414,"emp":415,"est":416,"Qu":417,"and":418,"Ġaut":419,"Ġomn":420,"itur":421,"ort":422,"Ġdic":423,"atur":424,"ĠR":425,"ĠT":426,"ll":427,"Ġpos":428,"Ġid":429,"Ġcom":430,"ore":431,"ĠH":432,"unc":433,"Ġ(":434,"ion":435,"ĠĠ":436,"iam":437,"Ġfac":438,"Ġaliqu":439,"ug":440,"Ġat":441,"Ġen":442,"Ġse":443,"Ġnec":444,"Ġquam":445,"Ġor":446,"eb":447,"fic":448,"Ġelit":449,"ĠF":450,"und":451,"ĠQu":452,"Ġtemp":453,"ris":454,"Ġpro":455,"Ġes":456,"Ġeg":457,"Ġenim":458,"ad":459,"iae":460,"ĠB":461,"tum":462,"esti":463,"inc":464,"Ġill":465,"ĠDe":466,"Ġme":467,"âĢ":468,"ĠG":469,"Ġvol":470,"Ġpar":471,"ĠIn":472,"av":473,"are":474,"mod":475,"Ġquae":476,"Ġab":477,"Ġlib":478,"Ġim":479,"up":480,"Ġver":481,"tis":482,"arum":483,"Ġquis":484,"Ġconsect":485,"Ġmagn":486,"Ġsc":487,"ub":488,"to":489,"re":490,"Ġnos":491,"tus":492,"aec":493,"Ġne":494,"Ġadip":495,"erit":496,"anc":497,"entum":498,"Ġar":499,"Ġvit":500,"Ġnis":501,"Ġeu":502,"ess":503,"Ġsunt":504,"Ġhab":505,"Ġsi":506,"ep":507,"lic":508,"Ġ2":509,"ari":510,"tiam":511,"Ġpl":512,"quam":513,"bus":514,"Ġconsectetur":515,"ri":516,"atis":517,"uit":518,"issim":519,"Ġinter":520,"ag":521,"Ġsem":522,"tat":523,"Ã¦":524,"tor":525,"Ġo":526,"entes":527,"Ġadipisc":528,"ula":529,"erunt":530,"ulla":531,"ui":532,"ĠO":533,"ro":534,"bi":535,"Ġap":536,"cc":537,"Ġven":538,"ĠU":539,"Ġsol":540,"Ġquo":541,"Ġesse":542,"jus":543,"ici":544,"Ġacc":545,"Ġadipiscing":546,"ita":547,"Ġ[":548,"ine":549,"...":550,"ulum":551,"tion":552,"Ġautem":553,"ov":554,"imus":555,"Ġeius":556,"Ġerat":557,"eo":558,"Ġun":559,"ue":560,"Ġvitae":561,"ĠSed":562,"ii":563,"II":564,"ass":565,"Ġtu":566,"Ġante":567,"atus":568,"Ġliber":569,"Lorem":570,"idunt":571,"Ġtr":572,"uris":573,"Ġnisi":574,"oll":575,"usc":576,"Ġinc":577,"ers":578,"ullam":579,"Ġu":580,"Ġmi":581,"Ġcor":582,"tra":583,"og":584,"iter":585,"Ġmagna":586,"Ġsp":587,"Ġeget":588,"Ġquid":589,"Ġ&":590,"ales":591,"ata":592,"ex":593,"ate":594,"Ġfr":595,"ci":596,"Ġlac":597,"Ġter":598,"Ġob":599,"ĠDomin":600,"Ġnostr":601,"sequ":602,"Ġul":603,"Ġpot":604,"uis":605,"Ġprop":606,"rum":607,"rip":608,"les":609,"ch":610,"Ġetiam":611,"Ġann":612,"ig":613,"ĠJ":614,"Ġ-":615,"Ġhoc":616,"ali":617,"erat":618,"Ġvid":619,"Ġneque":620,"Ġquia":621,"Ġop":622,"Ġmin":623,"Ġnunc":624,"ellus":625,"ill":626,"Ġlab":627,"isque":628,"ffic":629,"Ġtempor":630,"iis":631,"Ġpra":632,"Ġla":633,"Ġea":634,"Ġ:":635,"erm":636,"iat":637,"ene":638,"onec":639,"ĠAn":640,"atio":641,"Ġvir":642,"ĠEt":643,"di":644,"ĠCh":645,"ist":646,"ectus":647,"Ġsec":648,"ĠâĢ":649,"Ġconsequ":650,"Ġcur":651,"Ġ3":652,"Ġvelit":653,"ccles":654,"ff":655,"uli":656,"hil":657,"Ġtam":658,"Ġur":659,"eri":660,"oris":661,"Ġod":662,"Ġsub":663,"endum":664,"Ġnulla":665,"de":666,"atione":667,"ĠĠĠĠ":668,"Ġqua":669,"tin":670,"Ġvolup":671,"atum":672,"ilis":673,"erum":674,"int":675,"itud":676,"Ġanim":677,"anti":678,"risti":679,"Ġreg":680,"Ġal":681,"ans":682,"Ġultr":683,"antur":684,"Ġmod":685,"Ġoc":686,"Ġloc":687,"tim":688,"Ġco":689,"ulis":690,"erv":691,"estib":692,"Ġprim":693,"Ġposs":694,"estibulum":695,"lig":696,"pr":697,"Ġsuper":698,"Ġsic":699,"ei":700,"Ġres":701,"itate":702,"alis":703,"Ġtinc":704,"Ġcommod":705,"ĠDonec":706,"ann":707,"Ġeum":708,"Ġtincidunt":709,"amus":710,"Ġleg":711,"obis":712,"ica":713,"hi":714,"atr":715,"erc":716,"Ġdes":717,"api":718,"itus":719,"Ġgra":720,"Ġauc":721,"ven":722,"etus":723,"elis":724,"Ġatque":725,"Ġmul":726,"ores":727,"ĠUt":728,"Ġfili":729,"dic":730,"Ġimper":731,"Ġus":732,"Ġte":733,"Ġjus":734,"na":735,"isse":736,"go":737,"Ġtur":738,"itum":739,"entesque":740,"Ġlibero":741,"ellentesque":742,"all":743,"Ġcomm":744,"Ġodio":745,"inis":746,"Ġ\"":747,"tit":748,"Ġsemper":749,"ani":750,"aus":751,"he":752,"Ġsum":753,"ĠMa":754,"tur":755,"ulp":756,"ost":757,"sus":758,"ationem":759,"ina":760,"Ġint":761,"Ġdec":762,"eter":763,"Ġhomin":764,"uer":765,"Ġprae":766,"Ġcommodo":767,"Ġdiam":768,"Ġsapi":769,"ipit":770,"Ġas":771,"Ġullam":772,"Ġcr":773,"Ġ4":774,"vid":775,"Ġluc":776,"auc":777,"entia":778,"ĠX":779,"ĠCon":780,"Ġsusc":781,"Ġviv":782,"Ġpor":783,"Ġmon":784,"ux":785,"tio":786,"itu":787,"itas":788,"Ġsanc":789,"Ġvoluptat":790,"Ġleo":791,"Ġconsequat":792,"avit":793,"itatis":794,"untur":795,"assa":796,"Ġrec":797,"ĠPr":798,"Ġauctor":799,"ĠRom":800,"Ġmat":801,"Ġquibus":802,"Ġdolore":803,"Ġexp":804,"aret":805,"dum":806,"Ġaug":807,"ibh":808,"Ġmassa":809,"Ġrep":810,"Ġnibh":811,"isus":812,"Ġfelis":813,"pis":814,"entur":815,"Ġita":816,"Ġsecund":817,"Ġdign":818,"Ġconv":819,"dit":820,"Ġfor":821,"tem":822,"eret":823,"Ġtellus":824,"Ġarc":825,"Ġpur":826,"Ġmol":827,"Ġjusto":828,"itatem":829,"Ġcl":830,"Ġaliquam":831,"eli":832,"Ġullamc":833,"eat":834,"Ġ...":835,"Ġpotest":836,"Ġorci":837,"Ġsim":838,"Ġimp":839,"Ġis":840,"gr":841,"Ġquas":842,"ugiat":843,"ĠNam":844,"arius":845,"Ġtempus":846,"ĠAd":847,"Ġvero":848,"Ġconc":849,"ione":850,"Ġ.":851,"uius":852,"Ġdictum":853,"Ġlig":854,"Ġlacus":855,"Ġcap":856,"ori":857,"Ġ,":858,"Ġrisus":859,"Ġpost":860,"ensis":861,"Ġst":862,"Ġmoll":863,"Ġinf":864,"Ġgen":865,"Ġeos":866,"Ġsac":867,"Ġdis":868,"ihil":869,"Ġdu":870,"Ġmetus":871,"ato":872,"Ġman":873,"ras":874,"Ġbon":875,"vin":876,"Ġlorem":877,"Ġeo":878,"ĠMar":879,"pat":880,"Ġturpis":881,"Ġligula":882,"Ġaugue":883,"Ġgr":884,"ĠPra":885,"Ġmauris":886,"ĠÂ":887,"uere":888,"ices":889,"Ġplac":890,"Ġcond":891,"itudin":892,"Ġomnes":893,"Ġmolesti":894,"Ġfid":895,"Ġnisl":896,"Ġj":897,"Ġcomp":898,"Ġdeb":899,"Ġfacilis":900,"Ġeros":901,"Ġlectus":902,"Ġmax":903,"ulo":904,"ionem":905,"Ġvolut":906,"ini":907,"usp":908,"Ġvolutpat":909,"ĠAli":910,"Ġdui":911,"esc":912,"ie":913,"Ġius":914,"Ġpul":915,"Ġocc":916,"Ġurna":917,"Ġexerc":918,"Ġsuscipit":919,"Ġconf":920,"iscop":921,"Ġ5":922,"Ġapud":923,"ulus":924,"enean":925,"Ġhis":926,"Ġarcu":927,"Ġpo":928,"cus":929,"ĠPh":930,"ph":931,"Ġins":932,"ern":933,"Ġag":934,"ĠPro":935,"Ġcorp":936,"Ġfauc":937,"Ġvoc":938,"land":939,"Ġnobis":940,"irc":941,"Ġtamen":942,"Ġpret":943,"Ġpurus":944,"Ġpec":945,"iti":946,"Ġfaucibus":947,"tu":948,"Ġport":949,"ure":950,"Ġnum":951,"Ġcaus":952,"Ġapp":953,"ĠCur":954,"esent":955,"eh":956,"Ġrem":957,"Ġess":958,"Ġfe":959,"Ġtot":960,"Ġmihi":961,"Ġnihil":962,"Ġei":963,"Ġquidem":964,"estas":965,"endi":966,"ert":967,"ĠEx":968,"Ġdomin":969,"ang":970,"icae":971,"oribus":972,"Ġtort":973,"Ġomnia":974,"Ġporta":975,"Ġelem":976,"edit":977,"Ġnomin":978,"Ġph":979,"ada":980,"Ġtortor":981,"entis":982,"iet":983,"Ġminim":984,"Ġsapien":985,"ortis":986,"pon":987,"dam":988,"Ġti":989,"Ġluctus":990,"Ġinv":991,"abitur":992,"eris":993,"icum":994,"Ġsal":995,"oreet":996,"ebat":997,"fend":998,"Ġeorum":999,"ĠDuis":1000,"ram":1001,"Ġoper":1002,"Ġlaoreet":1003,"ĠAenean":1004,"ĠNulla":1005,"Ġscrip":1006,"Ġpop":1007,"ĠDei":1008,"ente":1009,"apibus":1010,"Ġdix":1011,"Ġorn":1012,"illa":1013,"Ġpat":1014,"dem":1015,"antum":1016,"Ġexc":1017,"Ġciv":1018,"Ġeuis":1019,"Ġcar":1020,"Ġdapibus":1021,"alesu":1022,"Ġcursus":1023,"Ġeuismod":1024,"edi":1025,"alesuada":1026,"Ġbib":1027,"le":1028,"Ġmalesuada":1029,"Ġsoc":1030,"ĠCum":1031,"din":1032,"Ġep":1033,"incip":1034,"tes":1035,"Ġdie":1036,"ibi":1037,"Ġegestas":1038,"ora":1039,"Ġanno":1040,"Ġaud":1041,"qui":1042,"Ġfuit":1043,"Ġbland":1044,"sum":1045,"orbi":1046,"ĠEccles":1047,"Ġpretium":1048,"edic":1049,"Ġeccles":1050,"ma":1051,"ando":1052,"icies":1053,"utate":1054,"Ġvulp":1055,"icet":1056,"agit":1057,"Ġposuere":1058,"Ġvenen":1059,"Ġelementum":1060,"Ġconst":1061,"Ġvulputate":1062,"enas":1063,"imentum":1064,"hon":1065,"Ġsecundum":1066,"vers":1067,"crip":1068,"Ġdom":1069,"aud":1070,"Ġultricies":1071,"Ġtibi":1072,"Ġblandit":1073,"Ġferm":1074,"orper":1075,"Ġpers":1076,"Ġhaec":1077,"Ġdisc":1078,"entibus":1079,"aris":1080,"ale":1081,"ĠDeus":1082,"Ġullamcorper":1083,"Ġquem":1084,"ĠAliquam":1085,"inia":1086,"Ġiac":1087,"Ġmollis":1088,"oli":1089,"Ġfeugiat":1090,"Ġfin":1091,"ĠLorem":1092,"Ġfu":1093,"In":1094,"Ġnov":1095,"ĠEtiam":1096,"ios":1097,"ias":1098,"Ġnatur":1099,"Ġdoc":1100,"ĠFr":1101,"ire":1102,"Ġoffic":1103,"Ġvenenatis":1104,"lli":1105,"Ġmag":1106,"ĠSanc":1107,"Ġlabore":1108,"icus":1109,"ums":1110,"icula":1111,"ublic":1112,"Ġred":1113,"Ġub":1114,"Ġinterdum":1115,"uspend":1116,"Ġserv":1117,"udic":1118,"Ġveh":1119,"Ġdel":1120,"Ġfermentum":1121,"Ġ_":1122,"Ġsagit":1123,"itis":1124,"Ġfec":1125,"Ġ6":1126,"Ġsicut":1127,"Ġcondimentum":1128,"Ġsollic":1129,"Ġfl":1130,"eifend":1131,"Ġlacinia":1132,"ationis":1133,"rerit":1134,"Ġultrices":1135,"diet":1136,"ix":1137,"Ġomnibus":1138,"Ġsint":1139,"uspendisse":1140,"Ġcirc":1141,"Ġhend":1142,"Ġeleifend":1143,"Ġverb":1144,"Ġimperdiet":1145,"isset":1146,"Ġscel":1147,"ero":1148,"Ġvarius":1149,"erra":1150,"si":1151,"Ġ;":1152,"Ġhendrerit":1153,"Ġmolestie":1154,"asc":1155,"ĠAr":1156,"Ġdignissim":1157,"ĠVestibulum":1158,"Ġveniam":1159,"allis":1160,"Ġsagittis":1161,"vida":1162,"Ġ16":1163,"âĢĿ":1164,"Ġmodo":1165,"Ġaliquet":1166,"ive":1167,"umsan":1168,"Ġsod":1169,"tius":1170,"ĠNullam":1171,"Ġgravida":1172,").":1173,"Ġejus":1174,"Ġcong":1175,"Ġ15":1176,"Ġvestibulum":1177,"ingilla":1178,"vinar":1179,"Ġsibi":1180,"Ġaccumsan":1181,"Ġilli":1182,"Ġfacilisis":1183,"eger":1184,"Ġrerum":1185,"uper":1186,"Ġlob":1187,"Ġfringilla":1188,"Ġinst":1189,"Ġpulvinar":1190,"ĠEp":1191,"Ġornare":1192,"Ġten":1193,"th":1194,"aecenas":1195,"ord":1196,"Ġpraes":1197,"Ġlobortis":1198,"Ġmagis":1199,"Ġtristi":1200,"Ġgl":1201,"ĠNunc":1202,"Ġmattis":1203,"Ġpraec":1204,"Ġcontra":1205,"Ġ19":1206,"ationes":1207,"ĠChristi":1208,"ite":1209,"Ġubi":1210,"Ġpellentesque":1211,"entem":1212,"Ġviverra":1213,"ĠAl":1214,"Ġ/":1215,"tas":1216,"Ġtristique":1217,"entiam":1218,"Ġnot":1219,"aretra":1220,"ĠQuisque":1221,"Ġsodales":1222,"Ġpharetra":1223,"Ġprincip":1224,"vis":1225,"ĠCom":1226,"Ġeam":1227,"titor":1228,"Ġw":1229,"Ġsollicitudin":1230,"Ġhum":1231,"utrum":1232,"Ġporttitor":1233,"ĠSuspendisse":1234,"Ġalter":1235,"Ġipse":1236,"Ġusque":1237,"Ġcongue":1238,"ilia":1239,"tibus":1240,"Ġbibendum":1241,"00":1242,"Ġquoque":1243,"Ġomnis":1244,"honcus":1245,"erisque":1246,"Ġvehicula":1247,"Ġconvallis":1248,"Ġrhoncus":1249,"rae":1250,"Ġsep":1251,"anus":1252,"asellus":1253,"icis":1254,".,":1255,"Ġfam":1256,"Ġiaculis":1257,"Ġrutrum":1258,"ĠInt":1259,"ĠAp":1260,"ĠPraesent":1261,"Ġeffic":1262,"eni":1263,"fer":1264,"ana":1265,"Ġsup":1266,"enta":1267,"gni":1268,"reh":1269,"Ġquasi":1270,"ĠW":1271,"usce":1272,"ĠMorbi":1273,"ĠMaecenas":1274,"Ġlit":1275,"Ġaliqua":1276,"Ġ7":1277,"Ġplur":1278,"Ġcas":1279,"Ġund":1280,"olog":1281,"ivers":1282,"Ġplacerat":1283,"Ġmis":1284,"Ġscelerisque":1285,"pe":1286,"ĠMauris":1287,"torum":1288,"ile":1289,"Ġduc":1290,"Ġind":1291,"Ġergo":1292,"10":1293,"ivamus":1294,"ust":1295,"Ġ8":1296,"ret":1297,"Ġiam":1298,"ua":1299,"Ġego":1300,"oph":1301,"ĠPellentesque":1302,"ionis":1303,"ĠCurabitur":1304,"Ġmaxim":1305,"ĠChris":1306,"Ġhac":1307,"emus":1308,"ĠAm":1309,"ĠCras":1310,"Ġipsa":1311,"Ġsine":1312,"Ġcogn":1313,"Ġpen":1314,"rib":1315,"Ġurb":1316,"Ġdo":1317,"Ġtempore":1318,"Ġquos":1319,"Ġstat":1320,"Ġtrans":1321,"Ġpecc":1322,"ver":1323,"ĠProin":1324,"ĠInteger":1325,"ico":1326,"oqu":1327,"Ġpon":1328,"Ġmal":1329,"alem":1330,"ĠDominus":1331,"tam":1332,"ano":1333,"Ġdef":1334,"onis":1335,"Ġpublic":1336,"ĠPhasellus":1337,"irm":1338,"Ġ17":1339,"gitur":1340,"ĠAt":1341,"ĠFusce":1342,"tione":1343,"Ġmor":1344,"Ġsive":1345,"Ġvoluptatem":1346,"Ġmil":1347,"Ġincid":1348,"pos":1349,"Ġmort":1350,"tionem":1351,"vi":1352,"ĠĠĠĠĠĠĠĠ":1353,"Ġnam":1354,"orm":1355,"Ġmem":1356,"ym":1357,"Ġlaud":1358,"Ġcommun":1359,"entium":1360,"enda":1361,"ĠOr":1362,"Ġtra":1363,"Ġesset":1364,"Ġthe":1365,"ino":1366,"ilium":1367,"Ġcont":1368,"Ġfi":1369,"Ġvis":1370,"ong":1371,"aria":1372,"ĠVivamus":1373,"Ġadipis":1374,"III":1375,"Ġsua":1376,"De":1377,"ĠII":1378,"16":1379,"anum":1380,"adem":1381,"XX":1382,"Ġfug":1383,"Ġch":1384,"Ġhic":1385,"Ġ18":1386,"vit":1387,"Ġvic":1388,"ĠTh":1389,"Ġmea":1390,"ient":1391,"Ġ'":1392,"Ġpa":1393,"omen":1394,"tae":1395,"Ġexercit":1396,"icing":1397,"ne":1398,"Ġeiusmod":1399,"etr":1400,"15":1401,"estr":1402,"ĠIs":1403,"era":1404,"Ġpatr":1405,"Ã©":1406,"tium":1407,"ĠDomini":1408,"ĠâĢľ":1409,"Ġproc":1410,"antium":1411,"tific":1412,"ator":1413,"Ġtum":1414,"iones":1415,"atibus":1416,"Ġadipisicing":1417,"12":1418,"Ġquin":1419,"ath":1420,"US":1421,"Ġhon":1422,"Ġilla":1423,"Ġnostrud":1424,"Ġnecess":1425,"Ġmed":1426,"Ġfaci":1427,"inum":1428,"Ġmai":1429,"endo":1430,"Ġsuis":1431,"17":1432,"Ġeis":1433,"ĠReg":1434,"TI":1435,"arium":1436,"quit":1437,"oh":1438,"pl":1439,"),":1440,"ĠNon":1441,"quid":1442,"Ġed":1443,"Ġiudic":1444,"Ġsuo":1445,"oniam":1446,"ito":1447,"entiae":1448,"one":1449,"itt":1450,"Ġhabet":1451,"uta":1452,"tic":1453,"ĠSi":1454,"Ġomnium":1455,"Ġped":1456,"Ġille":1457,"ostol":1458,"Ġno":1459,"ĠHis":1460,"ĠCar":1461,"Ġem":1462,"Ġpropter":1463,"rehend":1464,"Ġign":1465,"Ġ9":1466,"aes":1467,"ĠCl":1468,"Ġspec":1469,"ER":1470,"andum":1471,"18":1472,"Ġsing":1473,"sc":1474,"ĠLat":1475,"no":1476,"ane":1477,"Ġcoll":1478,"Ġprof":1479,"ĠK":1480,"Ġcup":1481,"ael":1482,"Ġaccus":1483,"arii":1484,"Ġcuius":1485,"Ġtantum":1486,"oann":1487,"ecto":1488,"raec":1489,"emo":1490,"ĠLib":1491,"etuer":1492,"ach":1493,"Ġillo":1494,"Ġillum":1495,"hib":1496,"Ġir":1497,"Ġdicit":1498,"yp":1499,"sit":1500,"uti":1501,"Ġunde":1502,"13":1503,"Ġincididunt":1504,"Ġmund":1505,"ve":1506,"Ġmus":1507,"Ġigitur":1508,"ustr":1509,"Ġvul":1510,"Ġuti":1511,"yr":1512,"Ġimm":1513,"osc":1514,"14":1515,"Ġneg":1516,"uisse":1517,"ĠDeo":1518,"erent":1519,"uum":1520,"UM":1521,"Ġlat":1522,"Ġcausa":1523,"oni":1524,"Ġdolorem":1525,"anis":1526,"Ġsen":1527,"inus":1528,"Ġspir":1529,"Ġconsectetuer":1530,"Ġnasc":1531,"Ġaliquid":1532,"Ġ10":1533,"19":1534,"Ġerr":1535,"antes":1536,"Ġregn":1537,"Ġsuum":1538,"Ġfer":1539,"Ġillud":1540,"Ġcred":1541,"tut":1542,"lius":1543,"Ġput":1544,"inae":1545,"ectum":1546,"ĠUn":1547,"mn":1548,"plic":1549,"Ġunivers":1550,"ĠIta":1551,"ĠRe":1552,"ĠQuod":1553,"ĠAc":1554,"Ġsuam":1555,"idic":1556,"str":1557,"ipi":1558,"Ġintell":1559,"imo":1560,"Ġlong":1561,"Ġcel":1562,"Ġepiscop":1563,"Ġaper":1564,"ationibus":1565,"Ġmun":1566,"quis":1567,"inde":1568,"ys":1569,"Ġ20":1570,"urg":1571,"Ġordin":1572,"ebant":1573,"ider":1574,"Ġpet":1575,"Ġcontin":1576,"Ġ12":1577,"ebr":1578,"Ġvos":1579,"tos":1580,"Ġstud":1581,"Ġerit":1582,"Ġdicitur":1583,"Â»":1584,"Ġmagnis":1585,"ĠSp":1586,"atu":1587,"rig":1588,"Ġdixit":1589,"Ġseu":1590,"idit":1591,"Ġefficitur":1592,"IS":1593,"ice":1594,"Ġsae":1595,"ĠPl":1596,"Ġbell":1597,"Ġprob":1598,"ima":1599,"umque":1600,"ĠAug":1601,"umm":1602,"ĠGraec":1603,"enter":1604,"Ġnomen":1605,"Ġduo":1606,"omo":1607,"Ġbene":1608,"Ġhos":1609,"Ġaliquip":1610,"Ġto":1611,"anae":1612,"Ã¡":1613,"ĠFranc":1614,"Ġmontes":1615,"Ġcui":1616,"endis":1617,"Ġratione":1618,"uo":1619,"Ġcu":1620,"ĠAb":1621,"hilos":1622,"Ġadm":1623,"atem":1624,"rit":1625,"Ġcer":1626,"ide":1627,"Ġrespon":1628,"abo":1629,"equ":1630,"ard":1631,"Ġq":1632,"ura":1633,"andi":1634,"Ġvobis":1635,"erd":1636,"Ġunum":1637,"Ġcan":1638,"Ġnato":1639,"empl":1640,"Ġnostra":1641,"Ġpac":1642,"Ġprimum":1643,"Ġmar":1644,"Ġhuius":1645,"Ġnomine":1646,"Ġterra":1647,"ecta":1648,"Ġpu":1649,"ĠâĢĶ":1650,"Ġtua":1651,"Ġnull":1652,"isi":1653,"ento":1654,"ĠQui":1655,"Ġsent":1656,"oth":1657,"ign":1658,"Ġdum":1659,"ensi":1660,"ons":1661,"ĠÂ«":1662,"Ġfort":1663,"Ġcol":1664,"âĢ¦":1665,"Ġsociis":1666,"Ġloco":1667,"Ġeff":1668,"Ġalia":1669,".\"":1670,"ĠPa":1671,"Ġsequ":1672,"Ġnatoque":1673,"Ġfinibus":1674,"ĠPat":1675,"ĠEr":1676,"Ġaliis":1677,"Ġ14":1678,"Ġval":1679,"Ġlitter":1680,"Ġmut":1681,"11":1682,"Ġarg":1683,"Ġpenatibus":1684,"ĠThe":1685,"qua":1686,"Ġform":1687,"Ġibi":1688,"itia":1689,"ĠComm":1690,"Ġminus":1691,"Ġinven":1692,"Ġobs":1693,"20":1694,"Sed":1695,"Ġpartur":1696,"Ġvirtut":1697,"onem":1698,"ulos":1699,"ĠTr":1700,"Ġculp":1701,"Ġperf":1702,"Ġanti":1703,"yn":1704,"ĠPar":1705,"ber":1706,"Ġomni":1707,"Ġaff":1708,"Ġceter":1709,"Ġsui":1710,"eque":1711,"Ġsolum":1712,"Ġpertin":1713,"ĠquÃ¦":1714,"sa":1715,"Ġridic":1716,"Ġcupid":1717,"num":1718,"Ã³":1719,"Ġreprehend":1720,"Ġparturient":1721,"Ġdem":1722,"ĠSc":1723,"Ġillis":1724,"epit":1725,"Ġvolunt":1726,"ĠGr":1727,"Ġsens":1728,"iatur":1729,"onum":1730,"Ġconsul":1731,"Ġnascetur":1732,"ones":1733,"uv":1734,"Ġ0":1735,"inam":1736,"Ġabs":1737,"odem":1738,"Ġrel":1739,"Ġappell":1740,"Ġling":1741,"Ġpag":1742,"lia":1743,"Ġfacere":1744,"Ġit":1745,"Ġsumm":1746,"ionibus":1747,"Ġreli":1748,"Ġsimul":1749,"Ġridiculus":1750,"ON":1751,"Ġsalut":1752,"idem":1753,"Ġ13":1754,"eretur":1755,"ĠAng":1756,"utus":1757,"oria":1758,"ĠIm":1759,"rag":1760,"ĠCaes":1761,"Ġmaximus":1762,"erea":1763,"abat":1764,"icam":1765,"Ġexercitation":1766,"Ġlaboris":1767,"inem":1768,"ich":1769,"Ġnostrum":1770,"Ġparte":1771,"tionis":1772,"uerunt":1773,"Ġtant":1774,"Ġmiser":1775,"Ġnatus":1776,"itio":1777,"fr":1778,"ario":1779,"Ġfuerit":1780,"odo":1781,"ĠCor":1782,"Ġvestr":1783,"abit":1784,"hilosoph":1785,"Ġsaec":1786,"Ġvoluptate":1787,"ies":1788,"Ġtim":1789,"imum":1790,"CC":1791,"Ġdist":1792,"Ġev":1793,"esse":1794,"Ġarch":1795,"ĠEpiscop":1796,"AE":1797,"Ġquoniam":1798,"Ġcre":1799,"Ġsupra":1800,"Ġtrib":1801,"endit":1802,"Ġcog":1803,"AN":1804,"ĠprÃ¦":1805,"ÃŃ":1806,"ante":1807,"Ġprod":1808,"Et":1809,"Ġdicta":1810,"Ġexplic":1811,"ĠDeum":1812,"Ġpri":1813,"Ġprom":1814,"Ġullamco":1815,"Ġmaxime":1816,"Ġded":1817,"antibus":1818,"Ġth":1819,"ev":1820,"ecti":1821,"aliter":1822,"Ġsci":1823,"Ġrex":1824,"Ġgrati":1825,"Ġdies":1826,"Ġcontr":1827,"ĠVir":1828,"Ġsex":1829,"ĠPet":1830,"OR":1831,"Ġuna":1832,"ĠIII":1833,"Ġnoc":1834,"Ġrebus":1835,"ola":1836,"Ġhanc":1837,"unti":1838,"tiones":1839,"Ġait":1840,"urr":1841,"ilicet":1842,"issima":1843,"Ġloqu":1844,"Ġculpa":1845,"Ġidem":1846,"pici":1847,"Ġadvers":1848,"Ġerant":1849,"Ġreprehenderit":1850,"ariis":1851,"Ġmir":1852,"EN":1853,"Ġbeat":1854,"ĠGal":1855,"Ġofficia":1856,"Ġrei":1857,"ilio":1858,"estim":1859,"ax":1860,"Ġcael":1861,"Ġtuum":1862,"ier":1863,"Ġprimis":1864,"ena":1865,"put":1866,"vinc":1867,"Ġsign":1868,"lim":1869,"Ġdilig":1870,"ohann":1871,"Ġspect":1872,"aur":1873,"Ġmei":1874,"Ġfecit":1875,"ĠPer":1876,"imis":1877,"Ġing":1878,"Ġpropr":1879,"Ġang":1880,"Ġof":1881,"Ġher":1882,"Ġfrat":1883,"isti":1884,"pet":1885,"icorum":1886,"Ġfratr":1887,"ident":1888,"An":1889,"atae":1890,"Ġsacerd":1891,"ĠPon":1892,"Ġord":1893,"Ġhabent":1894,"olum":1895,"atia":1896,"Ġrelig":1897,"ĠCap":1898,"va":1899,"uxta":1900,"ĠNov":1901,"Ġhomines":1902,"alibus":1903,"Ġhomo":1904,"ĠEcclesiae":1905,"Ġadh":1906,"Ġpossit":1907,"Ġiste":1908,"Ġquorum":1909,"Ġpraet":1910,"enedic":1911,"Ġipso":1912,"Ġnostri":1913,"Ġfugiat":1914,"Ġsatis":1915,"ĠIes":1916,"anorum":1917,"Ġscilicet":1918,"Ġvita":1919,"Ġux":1920,"ros":1921,"issimi":1922,"ĠOmn":1923,"Ġtrad":1924,"Ġiure":1925,"iorum":1926,"enus":1927,"DF":1928,"Ġterram":1929,"Ġgener":1930,"atorum":1931,"Ġfieri":1932,"Ġtunc":1933,"Ġquando":1934,"eper":1935,"Ġini":1936,"ĠQuid":1937,"Ġtab":1938,"Ġnumquam":1939,"act":1940,"Ġ*":1941,"Ġmet":1942,"Ġmand":1943,"Ġcal":1944,"uet":1945,"ung":1946,"Ġlicet":1947,"LI":1948,"Ġdolores":1949,"Ġmeum":1950,"ĠSac":1951,"Ġfacta":1952,"Ġscrib":1953,"Ġipsam":1954,"Ġasper":1955,"alia":1956,"ustin":1957,"Ġvoluptas":1958,"Ġref":1959,"ense":1960,"Ġass":1961,"cep":1962,"VI":1963,"Ġmagni":1964,"non":1965,"ecund":1966,"ulae":1967,"Can":1968,"Ġcorporis":1969,"ni":1970,"Ġdiv":1971,"Ġetc":1972,"Ġiis":1973,"Ġpariatur":1974,"Ġconi":1975,"itatibus":1976,"Ġeadem":1977,"ĠSic":1978,"Ġserm":1979,"Ġost":1980,"illum":1981,"Ġvix":1982,"Ġipsi":1983,"ĠGerm":1984,"Ad":1985,"Ġdet":1986,"Ġvidetur":1987,"ilius":1988,"ox":1989,".)":1990,"Ġadd":1991,"Ġbe":1992,"issimum":1993,"Ġdiscip":1994,"idi":1995,"Ġdeserunt":1996,"Ġaur":1997,"uerit":1998,"Ġhu":1999,"Ġopus":2000,"Ġopp":2001,"Ġhominum":2002,"Ġeodem":2003,"Ġhistor":2004,"Ġhabit":2005,"Ġillius":2006,"Ġtest":2007,"oti":2008,"issime":2009,"ulg":2010,"essus":2011,"itut":2012,"Ġadi":2013,"Ġsaepe":2014,"avi":2015,"Ġarb":2016,"Ġinquit":2017,"Ġmens":2018,"Ġfilius":2019,"Ġmilit":2020,"lib":2021,"Ġmuli":2022,"Ġhunc":2023,"Ġtotam":2024,"Ġret":2025,"endam":2026,"Ġdil":2027,"Ġipsius":2028,"Ġdiem":2029,"cce":2030,"Ġque":2031,"Ġlocum":2032,"Ġlaborum":2033,"Ġquad":2034,"ona":2035,"Ġca":2036,"iles":2037,"tea":2038,"ulorum":2039,"Ġdiss":2040,"ĠDomine":2041,"Ġfut":2042,"ES":2043,"AR":2044,"alium":2045,"xit":2046,"Ġdivin":2047,"enit":2048,"Ġperm":2049,"Ġpass":2050,"Ġpars":2051,"Ġsucc":2052,"iri":2053,"Ġiter":2054,"elli":2055,"itudinem":2056,"ellig":2057,"Ġmater":2058,"Ġterr":2059,"pect":2060,"let":2061,"Ġhabere":2062,".]":2063,"Ġcop":2064,"Ġposse":2065,"Ut":2066,"ĠÂ§":2067,"Ġpraedic":2068,"inta":2069,"raph":2070,"Ġdim":2071,"rup":2072,"Ġideo":2073,"aed":2074,"22":2075,"lo":2076,"Ġexempl":2077,"mus":2078,"Ġmulta":2079,"Ġtac":2080,"Ġpede":2081,"ÂŃ":2082,"Ġindic":2083,"ĠDec":2084,"ummy":2085,"erus":2086,"averunt":2087,"Ġcirca":2088,"ĠIoann":2089,"gnific":2090,"ĠSancti":2091,"ton":2092,"ĠSal":2093,"ĠÃ":2094,"erem":2095,"essit":2096,"Ġpoter":2097,"anda":2098,"Ġinde":2099,"angu":2100,"err":2101,"ĠXX":2102,"Ġdub":2103,"par":2104,"Ġvide":2105,"Ġminis":2106,"Ġpartem":2107,"ĠDomino":2108,"ĠSpir":2109,"ĠâĢĵ":2110,"25":2111,"ebus":2112,"Ġbre":2113,"ĠScrip":2114,"Ġvi":2115,"Ġsuae":2116,"Ġnonummy":2117,"Ġaequ":2118,"Ġnatura":2119,"Ġconven":2120,"23":2121,"enae":2122,"antia":2123,"Ġaute":2124,"atam":2125,"Ġaliud":2126,"24":2127,"ulit":2128,"rah":2129,"uus":2130,"Ġveritatis":2131,"Ġcust":2132,"Ġedit":2133,"ĠApostol":2134,"Ġadhuc":2135,"Ġnob":2136,"Ġrev":2137,"Ġx":2138,"Ġintellig":2139,"uae":2140,"Ġphilosoph":2141,"Ġoccaec":2142,"ĠZ":2143,"Ġintr":2144,"Ġredd":2145,"Ġvig":2146,"Ġaeter":2147,"Ġlibri":2148,"uam":2149,"andae":2150,"Ġdol":2151,"acob":2152,"Ġdiff":2153,"Ġquantum":2154,"Ġaet":2155,"Ġfactum":2156,"ĠIll":2157,"iens":2158,"Ġpraef":2159,"ĠNos":2160,"Ġfuisse":2161,"Ġprimo":2162,"Ġporro":2163,"Ġfilii":2164,"ĠLe":2165,"org":2166,"Ġmemor":2167,"Ġexs":2168,"ĠInter":2169,"Ġlic":2170,"itudine":2171,"Ġapostol":2172,"Ġregis":2173,"nam":2174,"Ġpres":2175,"Ġoff":2176,"ĠAs":2177,"quae":2178,"ĠQ":2179,"Ġerror":2180,"iliter":2181,"ebatur":2182,"het":2183,"tent":2184,"Ġtui":2185,"Ġdebet":2186,"Ġitaque":2187,"iunt":2188,"ĠSt":2189,"Ġirure":2190,"Ġmot":2191,"Ġcorpus":2192,"Non":2193,"Ġdivers":2194,"ĠHoc":2195,"Ġtex":2196,"Ex":2197,"ĠId":2198,"Ġanimi":2199,"Ġon":2200,"Ġunus":2201,"atos":2202,"Ġsancti":2203,"fac":2204,"Ġinvent":2205,"Ġmanu":2206,"Ġoptim":2207,"Ġprec":2208,"Ġ11":2209,"ĠVen":2210,"bis":2211,"Ġwisi":2212,"Ġbonum":2213,"Ġmiss":2214,"imi":2215,"erant":2216,"itudo":2217,"itates":2218,"ĠQuae":2219,"ce":2220,"ĠIud":2221,"ĠBr":2222,"quir":2223,"Ġtuam":2224,"tia":2225,"Ġquisquam":2226,"ĠIV":2227,"inqu":2228,"Ġalii":2229,"Ġdedit":2230,"issent":2231,"Ġtempora":2232,"Ġperpet":2233,"IN":2234,"ĠLuc":2235,"andem":2236,"Ġdiu":2237,"AT":2238,"ĠMon":2239,"30":2240,"Ġrect":2241,"ast":2242,"Ġfund":2243,"28":2244,"Ġpossunt":2245,"Ġprox":2246,"greg":2247,"ĠVer":2248,"erint":2249,"Ġcillum":2250,"Ġgratia":2251,"Ġprima":2252,"ĠCr":2253,"athol":2254,"Ġpros":2255,"Ġcunc":2256,"Ġvitam":2257,"ĠFl":2258,"ĠDominum":2259,"mi":2260,"ĠEcclesia":2261,"Ġmulti":2262,"ecum":2263,"Ġhod":2264,"ĠEst":2265,"ote":2266,"Ġnemo":2267,"oss":2268,"udi":2269,"yst":2270,"Ġoport":2271,"Ġfugit":2272,"Ġperic":2273,"Ġpriv":2274,"Ġcustod":2275,"Ã¦c":2276,"ĠCons":2277,"amp":2278,"Ġser":2279,"ilii":2280,"Ġtor":2281,"enn":2282,"uri":2283,"arr":2284,"Ġk":2285,"lus":2286,"Ġquidam":2287,"Ġcelebr":2288,"Ġeaque":2289,"Ġopera":2290,"abant":2291,"Ġquar":2292,"pp":2293,"Ġdesc":2294,"Ġquant":2295,"Ġamb":2296,"Ġpraest":2297,"su":2298,"umus":2299,"Ġcondic":2300,"Ġcub":2301,"Ġcircum":2302,"esci":2303,"\".":2304,"26":2305,"27":2306,"ĠÂ»":2307,"Ġpostea":2308,"issimus":2309,"ĠHistor":2310,"angeli":2311,"ĠGerman":2312,"PDF":2313,"onium":2314,"Ġverba":2315,"eres":2316,"omodo":2317,"Ġsignific":2318,"ĠVI":2319,"lar":2320,"Ġprius":2321,"Ġfacit":2322,"].":2323,"olit":2324,"lin":2325,"Ġprovinc":2326,"Ġverum":2327,"Ġequ":2328,"Ġalias":2329,"Ġpauc":2330,"Ġpal":2331,"Ġintelleg":2332,"Ġext":2333,"ĠVic":2334,"arch":2335,"urum":2336,"oed":2337,"Ġmeus":2338,"Ġnav":2339,"ok":2340,"Ġfit":2341,"Ġconstitu":2342,"Ġ<":2343,"prob":2344,"Ġmov":2345,"Ã¢":2346,"dus":2347,"tores":2348,"iarum":2349,"Ġaccep":2350,"Ġtit":2351,"br":2352,"Ġdeinde":2353,"ea":2354,"Ġcul":2355,"atores":2356,"itionem":2357,"Ġusu":2358,"Ġvim":2359,"ior":2360,"Ġcogit":2361,"eant":2362,"Ġpropri":2363,"Ġgaud":2364,"Ġmanus":2365,"aster":2366,"Ġmeam":2367,"Ġdomum":2368,"cum":2369,"21":2370,"entus":2371,"Ġmultis":2372,"ĠMat":2373,"nis":2374,"Ġfab":2375,"ulas":2376,"ulam":2377,"ĠConc":2378,"IV":2379,"Ġpropos":2380,"Ġearum":2381,"ilem":2382,"rog":2383,"Ġomnem":2384,"liae":2385,"Ġaperiam":2386,"Ġvers":2387,"pret":2388,"natur":2389,"Ġepist":2390,"Ġclar":2391,"piciatis":2392,"sal":2393,"Ġvenit":2394,"asse":2395,"Ġquibusdam":2396,"ĠJes":2397,"Ġdoctr":2398,"Ġconsequatur":2399,"icem":2400,"Ġdon":2401,"trum":2402,"Ġannos":2403,"Ġpater":2404,"Ġquat":2405,"Ġsuos":2406,"Ġpartes":2407,"modum":2408,"icos":2409,"Ġfidem":2410,"itr":2411,"Ġpecun":2412,"Ġmagnam":2413,"lis":2414,"Ġcompl":2415,"Ġfruc":2416,"Ġbona":2417,"Ġdiebus":2418,"Ġpugn":2419,"Ġiud":2420,"Ġnesci":2421,"modi":2422,"Ġassum":2423,"Ġillustr":2424,"Ġgrav":2425,"ĠSch":2426,"Ġfere":2427,"Ġimag":2428,"Ġbeatae":2429,"teur":2430,"Ġelig":2431,"ivit":2432,"IC":2433,"Ġobserv":2434,"Ġaux":2435,"Ġtuo":2436,"ĠAnno":2437,"Ġarm":2438,"Ġtres":2439,"Ġfamili":2440,"ebit":2441,"Ġeiusdem":2442,"29":2443,"orios":2444,"press":2445,"trib":2446,"Ġhas":2447,"Â«":2448,"ĠImper":2449,"ĠHier":2450,"Ġista":2451,"ĠNec":2452,"Ġfuer":2453,"Ġcoram":2454,"IT":2455,"ith":2456,"ond":2457,"ĠJohann":2458,"Ġsequi":2459,"Ġalt":2460,"och":2461,"Ġhominis":2462,"Ġrest":2463,"Ġfal":2464,"Ġperson":2465,"bris":2466,"Ġecclesias":2467,"EM":2468,"Ġreper":2469,"Ġannum":2470,"Ġexcep":2471,"Ġcognosc":2472,"ema":2473,"Ġarchit":2474,"ĠCic":2475,"ĠQuam":2476,"Ġperc":2477,"Ġpraecip":2478,"pic":2479,"Ġnostris":2480,"Ġpopuli":2481,"enum":2482,"Ġplus":2483,"Ġasc":2484,"Ali":2485,"ba":2486,"Ġinim":2487,"omm":2488,"Ġdistinc":2489,"Ġinteg":2490,"vo":2491,"Ġingr":2492,"issimo":2493,"Ġperspiciatis":2494,"atat":2495,"issa":2496,"cepteur":2497,"Ġquaedam":2498,"Ġmodi":2499,"Ġratio":2500,"Ġtemporibus":2501,"Ġextr":2502,"itae":2503,"Ġlocis":2504,"Ġist":2505,"ĠVol":2506,"ella":2507,"\",":2508,"Ġfide":2509,"Ġinventore":2510,"Ġillam":2511,"Ġpopulo":2512,"Ġmatr":2513,"asti":2514,"Ġoccaecat":2515,"ĠConst":2516,"Ġpraeter":2517,"Ġmult":2518,"Ġproident":2519,"ocr":2520,"amentum":2521,"Ġmiseric":2522,"Cap":2523,"tri":2524,"aretur":2525,"ĠNe":2526,"Ġum":2527,"eps":2528,"lem":2529,"arent":2530,"ates":2531,"idum":2532,"Ġiuxta":2533,"ĠHaec":2534,"Ġanima":2535,"Pr":2536,"arem":2537,"etis":2538,"ecim":2539,"Ġprovid":2540,"quod":2541,"ĠDav":2542,"Ġquaer":2543,"UL":2544,"abilis":2545,"ugn":2546,"Ġsoli":2547,"Ġmundi":2548,"Ġuno":2549,".:":2550,"Ã¨":2551,"Ġ?":2552,"ĠThom":2553,"Ġviri":2554,"Ġlap":2555,"Ġspiritu":2556,"Ġcupidatat":2557,"ulc":2558,"Ġ[...":2559,"antem":2560,"Ġden":2561,"ime":2562,"Ġaccusantium":2563,"âĢĶ":2564,"Ġvinc":2565,"ogn":2566,"Ġegr":2567,"iit":2568,"Ġlaudantium":2569,"Ġsubst":2570,"lium":2571,"Ġadipisci":2572,"âĢĻ":2573,"ĠSecund":2574,"Cum":2575,"Ġsch":2576,"ĠDi":2577,"Ġecclesia":2578,"esta":2579,"Ġdomini":2580,"libet":2581,"la":2582,"utum":2583,"Ġpotius":2584,"ĠHisp":2585,"Ġjam":2586,"ariae":2587,"do":2588,"Ġfirm":2589,"ĠSuper":2590,"ĠIp":2591,"ecit":2592,"ĠSep":2593,"ĠTer":2594,"Ġdicens":2595,"Ġib":2596,"uxit":2597,"Ġdomus":2598,"ult":2599,"ĠPontific":2600,"Ġsangu":2601,"uetud":2602,"itione":2603,"Ġmortem":2604,"Ġeas":2605,"Ġand":2606,"ĠEpist":2607,"Ġodit":2608,"Ġspeci":2609,"atoris":2610,"Ġomnino":2611,"Ġiuris":2612,"35":2613,"uni":2614,"mo":2615,"ĠUnde":2616,"Ġhominem":2617,"Ġcaput":2618,"Si":2619,"Ġrespond":2620,"Ġtamquam":2621,"ĠAcc":2622,"Ġarchitecto":2623,"oniae":2624,"bum":2625,"Ġfur":2626,"Ġgraec":2627,"Ġfames":2628,"ook":2629,"Ġsti":2630,"39":2631,"Ġsuas":2632,"ĠÎ":2633,"Ġmeo":2634,"Ġpuer":2635,"Ġconsequuntur":2636,"Ġdoloremque":2637,"Ġnostro":2638,"Ġdicere":2639,"34":2640,"Ġrog":2641,"Ġregem":2642,"ĠChristum":2643,"ĠChristo":2644,"ĠErgo":2645,"ibli":2646,"ĠGen":2647,"olis":2648,"enique":2649,"con":2650,"Ġipsis":2651,"Ġhered":2652,"Ġfilium":2653,"Ġpartic":2654,"Ġpati":2655,"OM":2656,"Ġintra":2657,"Ġsacram":2658,"iores":2659,"anos":2660,"Ġdam":2661,"ectio":2662,"eth":2663,"Ġby":2664,"endus":2665,"Ġmollit":2666,"Ġglor":2667,"ĠĠĠ":2668,"Ġessent":2669,"ĠRes":2670,"Ġterrae":2671,"Ġanimo":2672,"Ġomne":2673,"onia":2674,"ota":2675,"Ġav":2676,"Ġquaesti":2677,"ĠChristus":2678,"Ġannis":2679,"Ġchristi":2680,"Ġinterpret":2681,"ara":2682,"Ġatt":2683,"estum":2684,"eribus":2685,"ĠFac":2686,"VII":2687,"lum":2688,"Ġingen":2689,"othec":2690,"Ġmerit":2691,"Ġplura":2692,"eph":2693,"Ġle":2694,"ectis":2695,"ĠVirg":2696,"ĠDavid":2697,"Ġha":2698,"ĠAnti":2699,"ĠQua":2700,"iber":2701,"Ġfinem":2702,"Ġprophet":2703,"Ġantiqu":2704,"pera":2705,"AM":2706,"Ġexplicabo":2707,"Ġvirg":2708,"min":2709,"Ġverbum":2710,"Ġfacilisi":2711,"Ġforte":2712,"Ġitem":2713,"itter":2714,"Ġperd":2715,"Ġpraecep":2716,"eces":2717,"ech":2718,"tionibus":2719,"Ġfig":2720,"36":2721,"ĠExcepteur":2722,"Ġhodie":2723,"Ġrepell":2724,"Ġecclesiae":2725,"Ġquinque":2726,"Ġfidei":2727,"tatem":2728,"andam":2729,"inistr":2730,"ĠArch":2731,"enr":2732,"omus":2733,"Ġclam":2734,"Ġaudi":2735,"Ġextra":2736,"Ġos":2737,"Ġconstit":2738,"Ġbellum":2739,"Ġmodum":2740,"umen":2741,"ron":2742,"Ġnoster":2743,"Ġ25":2744,"Ġmolestiae":2745,"Ġfre":2746,"Ġy":2747,"Ġstr":2748,"Ġcens":2749,"Ġiusto":2750,"alog":2751,"ĠQuo":2752,"ĠAeg":2753,"Ġgenus":2754,"Ġconfirm":2755,"Ġnesciunt":2756,"ĠNeque":2757,"40":2758,"ilibus":2759,"Ġprimus":2760,"Ġamp":2761,"ĠPatr":2762,"Ġcant":2763,"ĠIuli":2764,"una":2765,"erentur":2766,"ĠEdit":2767,"Ġcujus":2768,"Ġpauper":2769,"olae":2770,"Ġcruc":2771,"pus":2772,"ĠEn":2773,"Ġsubi":2774,"Ġtotum":2775,"estis":2776,"ĠAnton":2777,"Ġmedic":2778,"Ġdicendum":2779,"Ġexis":2780,"Ġlud":2781,"],":2782,"ĠAlex":2783,"erci":2784,"âĢľ":2785,"ĠEv":2786,"itati":2787,"Ġaspernatur":2788,"Ġtota":2789,"sis":2790,"Donec":2791,"obus":2792,"Ġhor":2793,"ĠBar":2794,"Ġall":2795,"31":2796,"itatum":2797,"Ġappar":2798,"....":2799,"Ġposter":2800,"Ġtorqu":2801,"actat":2802,"Ġperven":2803,"ĠPetr":2804,"Ġverbis":2805,"Ġsacerdot":2806,"ĠRomani":2807,"ĠRomae":2808,"Ġincidunt":2809,"Ġregnum":2810,"fici":2811,"ĠFrancisc":2812,"Ġrationem":2813,"Ġfratres":2814,"da":2815,"Ġhominibus":2816,"Ġcert":2817,"Ġdominus":2818,"Ġmisericord":2819,"icit":2820,"ĠMag":2821,"Ġdisput":2822,"Con":2823,"Ġnaturae":2824,"Ġsil":2825,"eta":2826,"38":2827,"ulli":2828,"Ġutrum":2829,"ĠÃ¦":2830,"libus":2831,"Ġtotius":2832,"Åĵ":2833,"ationum":2834,"Ġbenedic":2835,"iÃ¦":2836,"Ġtem":2837,"ĠâĢ¦":2838,"Ġsoluta":2839,"Ġcausam":2840,"Ġz":2841,"Ġrefer":2842,"Ġsumus":2843,"ese":2844,"Ġanni":2845,"ĠQuis":2846,"aptis":2847,"ĠJoann":2848,"37":2849,"lam":2850,"ĠColl":2851,"Ġabb":2852,"Ġ24":2853,"elic":2854,"be":2855,"anam":2856,"enis":2857,"anif":2858,"Ġcorpore":2859,"edific":2860,"anu":2861,"\\\\":2862,"Ġadv":2863,"so":2864,"abatur":2865,"Ġultim":2866,"inceps":2867,"Ġopin":2868,"ĠUr":2869,"itam":2870,"Ġdemon":2871,"Ġceteris":2872,"ruc":2873,"Ġposset":2874,"ow":2875,"Ġsor":2876,"Ġstatim":2877,"edia":2878,"Ġalio":2879,"ĠAcadem":2880,"episcop":2881,"Ġnol":2882,"Ġvari":2883,"ares":2884,"ĠMariae":2885,"antis":2886,"Ġom":2887,"ĠSoc":2888,"nae":2889,"Ġtuae":2890,"Ġcorrup":2891,"Ġuel":2892,"Ġtestim":2893,"Ġpopulum":2894,"ĠLiber":2895,"Ġcod":2896,"rist":2897,"ete":2898,"Ġexper":2899,"ĠGe":2900,"VIII":2901,"Ġhujus":2902,"ĠItaque":2903,"Ġarbitr":2904,"Ġcapit":2905,"Ġillos":2906,"50":2907,"idis":2908,"Ġolim":2909,"Ġquomodo":2910,"Ġmer":2911,"ida":2912,"ou":2913,"Ġlibro":2914,"Ġaqu":2915,"Ġmedio":2916,"Ġconsuetud":2917,"ĠAugus":2918,"ific":2919,"Ġfactus":2920,"ĠOc":2921,"Ġcomment":2922,"ĠCommun":2923,"Ġquic":2924,"ĠPetri":2925,"Ġreliqu":2926,"Ġpossess":2927,"ebantur":2928,"Î½":2929,"Ġargum":2930,"Ġhora":2931,"Ġiustit":2932,"gnum":2933,"Ġusus":2934,"aut":2935,"Ġdefin":2936,"ologiae":2937,"ĠPol":2938,"Ġoportet":2939,"ĠVal":2940,"if":2941,"Ġalios":2942,"Ġabsol":2943,"Ġofficiis":2944,"Ġtuus":2945,"arg":2946,"Ġlabor":2947,"enses":2948,"rorum":2949,"ereb":2950,"Ġurbe":2951,"Ġtract":2952,"aph":2953,"Ġincep":2954,"ĠEd":2955,"Ġsusp":2956,"ietatis":2957,"rem":2958,"Ġexerci":2959,"Ġvest":2960,"inti":2961,"Ġsimili":2962,"OS":2963,"ĠAlexand":2964,"icarum":2965,"arn":2966,"ĠMax":2967,"ke":2968,"Ġiur":2969,"Ġiterum":2970,"modo":2971,"ĠItem":2972,"quidem":2973,"Ġadeo":2974,"Ġdesider":2975,"ĠGu":2976,"rim":2977,"Quod":2978,"33":2979,"Ġcumque":2980,"Ġaccip":2981,"uisset":2982,"Ġnonn":2983,"Ġsocios":2984,"Ma":2985,"atim":2986,"eterum":2987,"Ġmulto":2988,"Ġquaes":2989,"Î¿":2990,"tate":2991,"Î±":2992,"tig":2993,"Ġdecem":2994,"Ġpas":2995,"ĠAg":2996,"Ġorig":2997,"ides":2998,"Ġostend":2999,"Ġaltera":3000,"Ġsingulis":3001,"Ġminima":3002,"issimis":3003,"pere":3004,"ĠÐ":3005,"Ġmonaster":3006,"tro":3007,"Ġgratiam":3008,".'":3009,"ĠPap":3010,"ĠOb":3011,"ĠLeg":3012,"Ġaedific":3013,"uf":3014,"Nam":3015,"Ġecce":3016,"Ġconsec":3017,"Ġdex":3018,"Ġinn":3019,"Ġpredic":3020,"Ġdescrip":3021,"ĠHenr":3022,"Ġgenere":3023,"ĠPost":3024,"edere":3025,"rep":3026,"ĠIN":3027,"pectu":3028,"ind":3029,"ertim":3030,"Ġsumma":3031,"ĠAut":3032,"mat":3033,"ĠDE":3034,"atuor":3035,"Ġtemporis":3036,"yl":3037,"averit":3038,"olarum":3039,"ĠEgo":3040,"ograph":3041,"Ġmanif":3042,"ĠInd":3043,"uch":3044,"ĠSim":3045,"Ġsper":3046,"Ġeven":3047,"Ġpopulus":3048,"Ġdonec":3049,"Ġurbem":3050,"ativ":3051,"Ġdiffic":3052,"ĠIesu":3053,"Ġadversus":3054,"ĠAugustin":3055,"Ġpulch":3056,"by":3057,"ĠIsrae":3058,"Ġprot":3059,"escrip":3060,"Ġvia":3061,"Ġtation":3062,"entorum":3063,"lud":3064,"iepiscop":3065,"Ġmalum":3066,"45":3067,"Ġmore":3068,"Ġseptem":3069,"Ġinstitu":3070,"ĠNum":3071,"Ġfuerunt":3072,"Ġtuis":3073,"Ġagn":3074,"Ġmortuus":3075,"ectionem":3076,"tii":3077,"enam":3078,"ĠCat":3079,"Ġexter":3080,"Ġdep":3081,"Ġobl":3082,"Ġharum":3083,"Ġnun":3084,"ĠNic":3085,"Ġpotenti":3086,"ĠEl":3087,"ĠHic":3088,"Ġplate":3089,"Ġusum":3090,"ATI":3091,"Ġpatris":3092,"estig":3093,"ĠCan":3094,"tris":3095,"Ġlingua":3096,"ionum":3097,"Ġmel":3098,"Ġcanon":3099,"elicet":3100,"Ġforma":3101,"Ġcompos":3102,"Ġclass":3103,"Ġ26":3104,"78":3105,"ilipp":3106,"ĠCal":3107,"Ġveter":3108,"onym":3109,"Ġspiritus":3110,"ĠAegyp":3111,"Ġregni":3112,"ĠTe":3113,"¿½":3114,"art":3115,"Ġjudic":3116,"Ġlegit":3117,"ĠInc":3118,"Ġhi":3119,"ines":3120,"Ġdomo":3121,"ï¿½":3122,"Ġadul":3123,"Ġ[...]":3124,"ĠVII":3125,"Ġexistim":3126,"Ġlect":3127,"entius":3128,"ĠPrincip":3129,"tura":3130,"Ġlo":3131,"Ġdux":3132,"Ġlitora":3133,"dis":3134,"ht":3135,"32":3136,"Ġrecus":3137,"Ġpere":3138,"ido":3139,"ania":3140,"Ġvirtute":3141,"ĠAnd":3142,"Ġda":3143,"ĠClass":3144,"Ġtribus":3145,"Ġsea":3146,"Ġaliquando":3147,"AL":3148,"ĠEur":3149,"ĠMo":3150,"ĠET":3151,"ationi":3152,",âĢĿ":3153,"Ġ28":3154,"Ġlege":3155,"hor":3156,"Ġhinc":3157,"tore":3158,"Ġsacri":3159,"Ġmensis":3160,"Ġrad":3161,"aniae":3162,"Ġvere":3163,"men":3164,"RI":3165,"Ġgloria":3166,"ĠCiv":3167,"ĠDoc":3168,"ĠLatin":3169,"ĠSe":3170,"endas":3171,"Ġpraem":3172,"amur":3173,"eterea":3174,"Ġanimam":3175,"Ġfem":3176,"Ġexhib":3177,"ĠParis":3178,"Ġsuccess":3179,"Ġmori":3180,"Ġpraesent":3181,"Ġauctoritate":3182,"nus":3183,"Ġignor":3184,"atorem":3185,"Ġexped":3186,"Ġ30":3187,"Ar":3188,"Ġconvers":3189,"Ġmelius":3190,"Ġfacile":3191,"ump":3192,"Ġ200":3193,"isit":3194,"com":3195,"Ġquaerat":3196,"Ġdei":3197,"Ġmaiores":3198,"ĠIsrael":3199,"Ġprud":3200,"Ġcathol":3201,"Ġordine":3202,"inibus":3203,"Ġsalv":3204,"Ġstatu":3205,"Ġpostul":3206,"ĠXII":3207,"Ġmaj":3208,"Ġdecret":3209,"Ġsanctus":3210,"Ġscripta":3211,"Ġimpedit":3212,"bo":3213,"entio":3214,"Ġdicunt":3215,"scrip":3216,"ĠBrit":3217,"itasse":3218,"Ġnecesse":3219,"Ġcompar":3220,"Ġdivis":3221,"Ġtaciti":3222,"gna":3223,"Ġprohib":3224,"red":3225,"Ġnecessitatibus":3226,"Ġemend":3227,"Ġ21":3228,"Ġtoll":3229,"Ġcubilia":3230,"Ġconsilio":3231,"Ġvt":3232,"AS":3233,"ĠMD":3234,".âĢĿ":3235,"Ġhuic":3236,"Ġvac":3237,"ĠSen":3238,"ric":3239,"Ġmit":3240,"Ġfon":3241,"Pro":3242,"Ġbenefic":3243,"ĠBenedic":3244,"Ġalic":3245,"ÏĦ":3246,"az":3247,"Ġmerc":3248,"ĠAdd":3249,"Ġ27":3250,"res":3251,"eniti":3252,"Ġsump":3253,"Ġerud":3254,"Ġecclesiast":3255,"itium":3256,"ĠDic":3257,"Ġdenique":3258,"ĠSpiritus":3259,"Ġadhib":3260,"este":3261,"XXX":3262,"Ġaptent":3263,"Ġdeser":3264,"Ġnesc":3265,"At":3266,"Ġmagno":3267,"Ġconub":3268,"Ġgub":3269,"Ġ29":3270,"Ãº":3271,"ĠSent":3272,"egor":3273,"Ġmeli":3274,"sed":3275,"Ġampl":3276,"ellum":3277,".[":3278,"Ġlocus":3279,"Ġquodam":3280,"Ġii":3281,"of":3282,"onom":3283,"ga":3284,"Ġsanct":3285,"Ġsimplic":3286,"uss":3287,"Ġaqua":3288,"uven":3289,"Ġglad":3290,"Ġpartibus":3291,"Ġ^":3292,"Ġparum":3293,"44":3294,"Ġnumero":3295,"Ġ22":3296,"ileg":3297,"OL":3298,"tidi":3299,"olus":3300,"Ġmultum":3301,"Ġfidel":3302,"ĠTemp":3303,"itudinis":3304,"Ġvener":3305,"Ġrever":3306,"estin":3307,"ĠCas":3308,"Ġunius":3309,"Ġcae":3310,"Ġpostquam":3311,"Â°":3312,"prim":3313,"Ġaliquo":3314,"ĠGl":3315,"Ġsingul":3316,"ĠCurae":3317,"Ġiniqu":3318,"Ġsociosqu":3319,"Ġrepudi":3320,"ĠNemo":3321,"Ġmeis":3322,"atas":3323,"Ġtandem":3324,"Ġsanctorum":3325,"iret":3326,"Ġlaet":3327,"Ġquatuor":3328,"Ġaliorum":3329,"Ġfuga":3330,"ET":3331,"urus":3332,"Ġcad":3333,"ute":3334,"Ġplatea":3335,"Ġpontific":3336,"Ġnim":3337,"ĠIacob":3338,"Ġdico":3339,"Ġcrim":3340,"ardi":3341,"ĠGeorg":3342,"Ġcongreg":3343,"Ġcura":3344,"osa":3345,"Ã«":3346,"iu":3347,"Ġalterum":3348,"ĠBibli":3349,"ĠMaria":3350,"ĠPos":3351,"Ġlibris":3352,"Ġvera":3353,"ins":3354,"Ġpleb":3355,"Ġsequitur":3356,"ĠCol":3357,"entiarum":3358,"Ġhabeat":3359,"Ġdev":3360,"Ġmanum":3361,"Ġeligendi":3362,"cumque":3363,"Ġreligios":3364,"Ġhaud":3365,"Ġcolor":3366,"EC":3367,"60":3368,"ĠBas":3369,"Ġconubia":3370,"ww":3371,"ĠVide":3372,"Ġnomina":3373,"Ġdio":3374,"Ã¼":3375,"Ġlonge":3376,"ĠPhilipp":3377,"Ġtenetur":3378,"Â§":3379,"ĠProp":3380,"Ġrecep":3381,"ĠPetrus":3382,"Ġveni":3383,"Ġvidelicet":3384,"ĠCaesar":3385,"Ġcondit":3386,"Ġdeus":3387,"ho":3388,"Ġmare":3389,"48":3390,"Ġutil":3391,"uram":3392,"Ġplures":3393,"Ġviam":3394,"ĠTur":3395,"atius":3396,"Ġdeclar":3397,"rahel":3398,"Ġaliquis":3399,"byter":3400,"Ġfrequ":3401,"ĠSam":3402,"elium":3403,"Ġcommodi":3404,"ĠQuia":3405,"olo":3406,"Ep":3407,"emor":3408,"Ġconsider":3409,"sunt":3410,"ĠVIII":3411,"Ġdup":3412,"Ġpap":3413,"Ġoccas":3414,"andis":3415,"ĠUnivers":3416,"Ġduobus":3417,"ĠLud":3418,"Ġnunti":3419,"antiam":3420,"Ġpeccatum":3421,"Ġultra":3422,"Ġconsilium":3423,"ĠPrae":3424,"Ġinterf":3425,"enaeos":3426,"Ġhabitasse":3427,"ensem":3428,"Ġtorquent":3429,"Ġhost":3430,"atura":3431,"Ġcler":3432,"Ġfilios":3433,"Ġspectant":3434,"Ac":3435,"Qui":3436,"toris":3437,"age":3438,"Ġ=":3439,"onibus":3440,"Ġloci":3441,"yc":3442,"Ġinfra":3443,"Ġinceptos":3444,"Ġsin":3445,"Ġ23":3446,"Ġsuorum":3447,"Ġort":3448,"turi":3449,"Ġdia":3450,"endere":3451,"Quid":3452,"ha":3453,"oriosam":3454,"ectione":3455,"ĠXI":3456,"Ġquamvis":3457,"ĠAnn":3458,"undem":3459,"ĠBe":3460,"Ġfuerat":3461,"abili":3462,"Ġmale":3463,"Ġdiffer":3464,"ĠOp":3465,"Ġdelic":3466,"Ġnostrae":3467,"ĠPom":3468,"Ġmedi":3469,"ardus":3470,"55":3471,"ursus":3472,"uas":3473,"Ġsalutem":3474,"Ġsuffic":3475,"Ġsententia":3476,"Ġmorbi":3477,"__":3478,"Ġindi":3479,"Ġbello":3480,"ĠAth":3481,"UR":3482,"Ġchar":3483,"Ġfilio":3484,"Ġregione":3485,"ĠMin":3486,"Ġlegem":3487,"ectu":3488,"Ġurbis":3489,"ĠAfr":3490,"Ġpagina":3491,"Ġsimilique":3492,"Ġinfirm":3493,"Ġfacul":3494,"Ġdioeces":3495,"Ġull":3496,"Ġson":3497,"odi":3498,"Ġcat":3499,"ĠVid":3500,"ĠIsrahel":3501,"abula":3502,"acta":3503,"Ġdomino":3504,"Ġminister":3505,"ty":3506,"ĠBritann":3507,"Ġhim":3508,"Ġdemonstr":3509,"á½":3510,"ĠAmen":3511,"46":3512,"Ġiub":3513,"</":3514,"oseph":3515,"Ġprope":3516,"Ġsupplic":3517,"aginta":3518,"aribus":3519,"Ġamplius":3520,"47":3521,"ille":3522,"Ġfiliis":3523,"Ġvin":3524,"49":3525,"Ġpraesid":3526,"Ġspecies":3527,"Ġvictor":3528,"Ġdolorum":3529,"Î¹":3530,"Ð°":3531,"Ġpotuit":3532,"Ġexercitu":3533,"Ġprincipes":3534,"Ġnova":3535,"ioni":3536,"Ġfiat":3537,"Ġgloriam":3538,"egit":3539,"Vic":3540,"inas":3541,"ĠPers":3542,"Ġdig":3543,"Ġcerte":3544,"Ġnullo":3545,"58":3546,"eum":3547,"ĠâĢĺ":3548,"ĠOrd":3549,"Ġcorde":3550,"Ġmanibus":3551,"Ġvoluptatum":3552,"liam":3553,"Ġfuerint":3554,"Ġrecens":3555,"Ġdictumst":3556,"ĠIudae":3557,"Ġoccid":3558,"utis":3559,"rav":3560,"Ġpraesertim":3561,"Ġcivitatis":3562,"--":3563,"Ġliter":3564,"Ġoccup":3565,"Ġgeneris":3566,"ivi":3567,"Ġexig":3568,"ĠPraeterea":3569,"au":3570,"Ġadf":3571,"Ġlev":3572,"Ġdiscipl":3573,"Ġâ":3574,"Ġdelect":3575,"Ġdebitis":3576,"ative":3577,"Ġbonis":3578,"abunt":3579,"Ġduos":3580,"Ġren":3581,"Ġsuperi":3582,"Ġpossimus":3583,"atoribus":3584,"Ġhabuit":3585,"Ġfrater":3586,"UN":3587,"Ġtanta":3588,"eti":3589,"Ġhuman":3590,"Ġejusdem":3591,"Ġnullum":3592,"Ġunam":3593,"ĠCant":3594,"ites":3595,"Ġtran":3596,"Ġsese":3597,"ĠOrdin":3598,"Pra":3599,"ĠArist":3600,"ĠPal":3601,"endae":3602,"ĠJud":3603,"Ġcib":3604,"ittere":3605,"ĠPater":3606,"Ġ{":3607,"Ġconsens":3608,"):":3609,"Ġgentes":3610,"tionum":3611,"enc":3612,"Ġstudio":3613,"Ġduod":3614,"Ġsyn":3615,"Ġadj":3616,"Ġoculis":3617,"ĠHer":3618,");":3619,"ĠEurop":3620,"pend":3621,"Ġpotestate":3622,"ĠMed":3623,"Ġerunt":3624,"orn":3625,"ĠCo":3626,"lex":3627,"Ġrequir":3628,"Ġangel":3629,"Ġmorte":3630,"ariorum":3631,"anquam":3632,"Ġsuff":3633,"Nov":3634,"Ġvalde":3635,"amen":3636,"Ġdefend":3637,"ips":3638,"ĠÃł":3639,"ĠComment":3640,"Ġquot":3641,"Ġaliter":3642,"Ġsan":3643,"Ġlucem":3644,"Ġordinem":3645,"Ġmatrim":3646,"ĠJesu":3647,"Ġvidit":3648,"Ġore":3649,"Ġpublica":3650,"Ġmisit":3651,"âĢĵ":3652,"ĠIo":3653,"Ġobtin":3654,"ĠPo":3655,"Ġnocte":3656,"ĠMor":3657,"Ġvulg":3658,"Ġnaturam":3659,"Ġaccusamus":3660,"ĠSol":3661,"Ġpacem":3662,"urae":3663,"berg":3664,"ĠĠĠĠĠĠĠĠĠĠĠĠ":3665,"Ġepiscopus":3666,"Ã²":3667,"leg":3668,"ĠOpera":3669,"Ġline":3670,"Ġmilia":3671,"Ġiudicium":3672,"Ġtrium":3673,"Ġcupiditate":3674,"Ġlaboriosam":3675,"Ġnem":3676,"Ġmo":3677,"Ġinsign":3678,"Ġtoto":3679,"Ġnote":3680,"Etiam":3681,"Th":3682,"Ġuir":3683,"etum":3684,"ĠNo":3685,"Ġpotestatem":3686,"acula":3687,"ensium":3688,"tuor":3689,"ippe":3690,"ĠXXX":3691,"inere":3692,"Ġlibros":3693,"ipot":3694,"arb":3695,"abile":3696,"Ġpraesentium":3697,"Ġoptio":3698,"Ġanimae":3699,"ĠVel":3700,"Ġnostram":3701,"Ġmotus":3702,"Ġves":3703,"Ġdeleniti":3704,"Ġsenti":3705,"Ġaed":3706,"Ġcastra":3707,"Ġconcess":3708,"Ġpatet":3709,"eam":3710,"Ġtheolog":3711,"ĠDom":3712,"Ġhuiusmodi":3713,"Ġordinis":3714,"70":3715,"Ġmala":3716,"ef":3717,"CI":3718,"terea":3719,"ĠSte":3720,"ĠInst":3721,"Ġpropria":3722,"Ġquisque":3723,"Lat":3724,"Ġmox":3725,"Omn":3726,"Ġcarn":3727,"abis":3728,"ĠRomanorum":3729,"Ġpraed":3730,"Ġcommune":3731,"Ã³m":3732,"Ġtut":3733,"Ġhimenaeos":3734,"Ġecclesiam":3735,"gress":3736,"Ġconfess":3737,"Ġplaceat":3738,"tribu":3739,"Ġcivitatem":3740,"Ġexist":3741,"itatus":3742,"atium":3743,"Ġdici":3744,"co":3745,"unque":3746,"Ġbonorum":3747,"Ġfoed":3748,"Ġnullam":3749,"Ġhabitant":3750,"Domin":3751,"ĠRex":3752,"ĠAmer":3753,"Ġrecte":3754,"Ġquum":3755,"aculum":3756,"Ġdispos":3757,"Ġ]":3758,"Ġdivina":3759,"ialis":3760,"Ġscriptum":3761,"ĠSub":3762,"Ġdeduc":3763,"ĠMan":3764,"Ġexercitationem":3765,"Ġnonum":3766,"torem":3767,"ĠPhil":3768,"Äģ":3769,"ĠPaulus":3770,"embris":3771,"ixit":3772,"ĠTheod":3773,"Ġsimil":3774,"tif":3775,"Ġnarr":3776,"Ġcivitate":3777,"endos":3778,"mum":3779,"rius":3780,"Ġvoluptatibus":3781,"otum":3782,"//":3783,"Ġexst":3784,"Ġduas":3785,"ĠDuc":3786,"ĠIesus":3787,"Ġdamn":3788,"Ġfuisset":3789,"Ġbrev":3790,"Ġpublicae":3791,"Ġdelectus":3792,"edunt":3793,"Ġlocutus":3794,"Ġvas":3795,"Ġvirtus":3796,"ĠRh":3797,"eunt":3798,"tior":3799,"Ġsepar":3800,"Ġnegoti":3801,"eno":3802,"Ġturb":3803,"Ġdistinctio":3804,"atic":3805,"otis":3806,"ustra":3807,"ome":3808,"Ġcit":3809,"DI":3810,"Ġducimus":3811,"rehens":3812,"Ġabst":3813,"80":3814,"Ġpp":3815,"Ġproduc":3816,"ela":3817,"90":3818,"ĠConf":3819,"Ġol":3820,"Ġmagnum":3821,"asset":3822,"ij":3823,"ĠPauli":3824,"Ġsecundo":3825,"ĠMiss":3826,"ariam":3827,"Ġalius":3828,"Tit":3829,"ĠJacob":3830,"Liber":3831,"ĠEvangeli":3832,"ĠCommunia":3833,"item":3834,"tav":3835,"ique":3836,"Ġvirum":3837,"Ġinfin":3838,"Ġsacrific":3839,"erg":3840,"Ġoculos":3841,"Ġexercitus":3842,"Ġrap":3843,"EL":3844,"Caput":3845,"Ġadministr":3846,"Ġsomn":3847,"Ġsolus":3848,"41":3849,"Ġpraeb":3850,"65":3851,"abantur":3852,"ĠTest":3853,"Ġseptim":3854,"Ġsententiam":3855,"Ġlex":3856,"Ġepiscopi":3857,"Ġard":3858,"Ġmans":3859,"Ġlitteris":3860,"Ġtribun":3861,"Ġlux":3862,"icon":3863,"rac":3864,"ĠQU":3865,"ĠFab":3866,"uers":3867,"Im":3868,"Ġfaciem":3869,"itiones":3870,"Ġvult":3871,"ĠMac":3872,"turae":3873,"=\"":3874,"Ġillorum":3875,"Ġaccid":3876,"Ġglori":3877,"eas":3878,"Ġder":3879,"imedia":3880,"ĠIt":3881,"ĠDiv":3882,"ectionis":3883,"Ġsecunda":3884,"ĠQuibus":3885,"ĠBern":3886,"ĠRegis":3887,"Ġsustin":3888,"enim":3889,"ĠPor":3890,"our":3891,"Ġpossint":3892,"43":3893,"Ġmortis":3894,"Vicimedia":3895,"Ġ~":3896,"orio":3897,"Ġnovum":3898,"Ġsignum":3899,"Ġocto":3900,"Ġpatri":3901,"Ġrespondit":3902,"imur":3903,"irum":3904,"Ch":3905,"ĠLa":3906,"Ġoblig":3907,"Or":3908,"arios":3909,"Ġinterrog":3910,"Ġsepul":3911,"Ġrege":3912,"tiv":3913,"Ġmollitia":3914,"Ġvelut":3915,"Ġexpedita":3916,"Ġpatrem":3917,"IB":3918,"Ð¾":3919,"Ġservi":3920,"Ġmaior":3921,"Haec":3922,"Ġmolestias":3923,"ister":3924,"Ġdare":3925,"Nunc":3926,"Ġoratio":3927,"Ġconced":3928,"aci":3929,"Ġcorpora":3930,"ss":3931,"burg":3932,"Ġquattuor":3933,"67":3934,"QU":3935,"Ġpol":3936,"Ġpertinet":3937,"Aliquam":3938,"graph":3939,"issimae":3940,"Ġsolv":3941,"Ġcetera":3942,"Vestibulum":3943,"42":3944,"ĠAtque":3945,"ĠAuc":3946,"Ġdicuntur":3947,"Ġvidentur":3948,"div":3949,"Ġsaep":3950,"ĠMich":3951,"Ġibidem":3952,"Ġnumer":3953,"Ġinstit":3954,"otheca":3955,"Ġrepudiandae":3956,"ĠEcce":3957,"Ġnullus":3958,"eperunt":3959,"yth":3960,"abor":3961,"onii":3962,"itionis":3963,"ĠBon":3964,"Ġinferi":3965,"Ġrecogn":3966,"Ġaccipi":3967,"Ġjuxta":3968,"ule":3969,"illi":3970,"ĠHe":3971,"Ġmagistr":3972,"Ġiri":3973,"Ġgem":3974,"ermin":3975,"Ã©n":3976,"Ġiuv":3977,"Ġdata":3978,"ĠBo":3979,"orium":3980,"Ġtanto":3981,"Ġaliquot":3982,"Ġvestra":3983,"arunt":3984,"Ġviginti":3985,"ĠNihil":3986,"AC":3987,"Ġlegis":3988,"Ġmundo":3989,"ĠGregor":3990,"Ġrom":3991,"88":3992,"Ġtradit":3993,"Ġ--":3994,"Ġflum":3995,"Ġprovident":3996,"Ġcolleg":3997,"du":3998,"Ġparv":3999,"onio":4000,"ĠEcclesias":4001,"ĠAN":4002,"Ġquarum":4003,"ĠMet":4004,"Ġpisc":4005,"Ġexpl":4006,"Ġsane":4007,"Ġori":4008,"ĠSem":4009,"66":4010,"quo":4011,"ĠApud":4012,"Ġimperium":4013,"bra":4014,"eatur":4015,"Ġgentium":4016,"Ðµ":4017,"Ġdixi":4018,"ĠHab":4019,"ĠIus":4020,"erumque":4021,"Ġcess":4022,"ĠPraes":4023,"Ġcentum":4024,"Ġfides":4025,"ĠApr":4026,"ĠRec":4027,"Ġinstrum":4028,"Ġcoel":4029,"59":4030,"tiz":4031,"usque":4032,"Ġmeae":4033,"vel":4034,"Ġlum":4035,"vm":4036,"Ġambul":4037,"Ġvocem":4038,"Ġterm":4039,"ĠRerum":4040,"Ġrelic":4041,"Ġmateria":4042,"ibile":4043,"prop":4044,"Ġsummo":4045,"ularum":4046,"ĠAqu":4047,"ĠPR":4048,"Ġdicam":4049,"Ġcaelo":4050,"sch":4051,"cr":4052,"ĠEa":4053,"Ġmali":4054,"ĠIohann":4055,"Ġsociet":4056,"undi":4057,"Ïģ":4058,"ater":4059,"unic":4060,"Ġsacra":4061,"Ġipsos":4062,"Ġarma":4063,"tatum":4064,"estatis":4065,"Ġabsque":4066,"ello":4067,"pi":4068,"elmus":4069,"Ġhort":4070,"Å¿":4071,"Ġuxorem":4072,"âĢ¦]":4073,"itorum":4074,"Ġaure":4075,"tt":4076,"Ġtecum":4077,"iderunt":4078,"ĠHeb":4079,"Ph":4080,"Ġsola":4081,"ĠMagn":4082,"ay":4083,"Ġipsorum":4084,"esaur":4085,"Ġconserv":4086,"Ġmonach":4087,"ĠLic":4088,"Ġofficium":4089,"ĠSunt":4090,"onte":4091,"Ġsenectus":4092,"Ġlinguae":4093,"Ġ__":4094,"Ġplant":4095,"ĠAD":4096,"erius":4097,"Fr":4098,"entiis":4099,"Ġadmir":4100,"Ġeloqu":4101,"Ġpaulo":4102,"ĠHel":4103,"Ġbap":4104,"ĠCod":4105,"Ġcommend":4106,"Ġopere":4107,"57":4108,"Ġsecum":4109,"Ġleges":4110,"uth":4111,"Ġvindic":4112,"sic":4113,"pit":4114,"ĠOmnia":4115,"Ġmyst":4116,"Ġrelinqu":4117,"Ġversus":4118,"Ġiniur":4119,"Ġblanditiis":4120,"Ġexpos":4121,"entu":4122,"Ġconspectu":4123,"Ġov":4124,"imae":4125,"Ġmultos":4126,"Ġpossid":4127,"anno":4128,"ĠY":4129,"56":4130,"Ġprofess":4131,"Ġsancto":4132,"ĠCa":4133,"ĠOri":4134,"Ġbelli":4135,"Ġdignissimos":4136,"Ġui":4137,"Ġloca":4138,"Ġcav":4139,"esto":4140,"ĠPas":4141,"ĠhÃ¦c":4142,"ĠcÃ¦":4143,"Ġvoluptates":4144,"Ġviris":4145,"Ġantea":4146,"Ġdubit":4147,"ĠAristot":4148,"ondam":4149,"Ġcorrupti":4150,"Ġconting":4151,"yri":4152,"ĠRespon":4153,"emn":4154,"Ġanimum":4155,"Ġalium":4156,"ĠSu":4157,"Ġsanctum":4158,"istis":4159,"ortun":4160,"Ġdir":4161,"Ġimped":4162,"Nulla":4163,"Ġterrarum":4164,"Ġobi":4165,"Ġau":4166,"ĠSancto":4167,"Cur":4168,"Ġperfer":4169,"Ġquippe":4170,"Ġeleg":4171,"ĠEm":4172,"ipere":4173,"AP":4174,"ulta":4175,"Ġeveniet":4176,"Ġboni":4177,"Ġpror":4178,"Ġfine":4179,"Ġexcepturi":4180,"ĠCorn":4181,"admodum":4182,"Ġlup":4183,"ĠIun":4184,"Ġdominum":4185,"Ġcompet":4186,"Ġtext":4187,"Ġsur":4188,"Ġvariis":4189,"mina":4190,"Ġcapite":4191,"atore":4192,"ĠPhilosoph":4193,"Ġ00":4194,"ĠEius":4195,"aei":4196,"Duis":4197,"Ġsolet":4198,"Ġinduc":4199,"Ġnup":4200,"inn":4201,"ai":4202,"Ġfaciunt":4203,"ĠEpiscopi":4204,"Ġadduc":4205,"icumque":4206,"Ġhonor":4207,"Ġiudicio":4208,"rop":4209,"Ġtransl":4210,"Îµ":4211,"Ġbeati":4212,"Ġfelic":4213,"Ġtertia":4214,"Ġfore":4215,"ĠLibri":4216,"abus":4217,"Ġnunquam":4218,"arentur":4219,"ĠSteph":4220,"acia":4221,"ĠIX":4222,"eruntur":4223,"Ġpluribus":4224,"ĠMus":4225,"Ġtractat":4226,"antiae":4227,"ĠCathol":4228,"Ġalterius":4229,"Ġfacto":4230,"Ġnondum":4231,"Ġcec":4232,"exit":4233,"ĠGall":4234,"ectae":4235,"Ġnorm":4236,"ĠEcclesiam":4237,"ĠCapit":4238,"Ãł":4239,"mis":4240,"uerat":4241,"icas":4242,"ĠSa":4243,"Ġcaelum":4244,"adip":4245,"ĠSab":4246,"ingu":4247,"ĠQuin":4248,"Ġsubs":4249,"ĠRomanum":4250,"Ġhom":4251,"ĠTu":4252,"Ġconiunc":4253,"Ġcunctis":4254,"Ġconstitut":4255,"ommod":4256,"Ġsenatus":4257,"Ġcongr":4258,"Ġetsi":4259,"Ġfratribus":4260,"Ġabsc":4261,"69":4262,"Ġaquam":4263,"otus":4264,"Ġagr":4265,"Ġperegr":4266,"Ġactus":4267,"Ġaliam":4268,"Ġmultiplic":4269,"Re":4270,"77":4271,"68":4272,"Ġaccepit":4273,"tyr":4274,"Ġtria":4275,"ĠIoannis":4276,"Ġinu":4277,"Ġtabern":4278,"Ġsancta":4279,"ĠIoannes":4280,"Ġagere":4281,"ĠAur":4282,"Ġads":4283,"onus":4284,"anem":4285,"Ġpotentia":4286,"Ġconcep":4287,"ittit":4288,"Ð¸":4289,"ÏĤ":4290,"ensibus":4291,"stantibus":4292,"Ġamic":4293,"Ġplen":4294,"Ġtertio":4295,"ĠOffic":4296,"Ġdoloribus":4297,"Epist":4298,"Ġappet":4299,"Ġmilites":4300,"ĠMartin":4301,"amento":4302,"itiam":4303,"Sanc":4304,"Ġteneb":4305,"iscum":4306,"Ġubique":4307,"bat":4308,"Ġobsc":4309,"ÑĤ":4310,"Ġhabebat":4311,"Ġpariter":4312,"Ġlitteras":4313,"Ġprofic":4314,"Ġtalis":4315,"ĠIns":4316,"Ġnuper":4317,"andus":4318,"Ġdixerunt":4319,"ecc":4320,"Ġador":4321,"Ġtanquam":4322,"Ġcognov":4323,"ly":4324,"Ġ[âĢ¦]":4325,"Ġvetus":4326,"ĠDeinde":4327,"Ġprov":4328,"ak":4329,"Ġformam":4330,"Ġqual":4331,"Ġdebent":4332,"Ġvoce":4333,"nes":4334,"ĠDis":4335,"ĠServ":4336,"Ġverbo":4337,"Ġfilia":4338,"Ġsolis":4339,"ST":4340,"uisti":4341,"ĠVolum":4342,"ĠRep":4343,"ĠTunc":4344,"olv":4345,"fl":4346,"pir":4347,"Ġcorr":4348,"Ġinterc":4349,"Ġanc":4350,"eram":4351,"ĠSax":4352,"Ġbr":4353,"imam":4354,"Ġnecnon":4355,"mon":4356,"ĠDÃ³m":4357,"ellae":4358,"Ġgenera":4359,"load":4360,"Ġdesign":4361,"ĠRob":4362,"Ġassumenda":4363,"Ġmemoria":4364,"ĠâĢĿ":4365,"Ġsimiliter":4366,"ĠBaptis":4367,"Ġpedes":4368,"oro":4369,"Ġaeg":4370,"Ġmense":4371,"=âĢĿ":4372,"Ġnimis":4373,"ĠTum":4374,"toribus":4375,"Ġuid":4376,"Ġpond":4377,"Ġfuturum":4378,"Ġfaciam":4379,"Ġuxor":4380,"aedia":4381,"99":4382,"Ġinstitut":4383,"Ġconsecr":4384,"actus":4385,"Ġhonorem":4386,"Ã©r":4387,"ĠSanctus":4388,"Ġviro":4389,"ft":4390,"Ġaccur":4391,"sign":4392,"Ġ)":4393,"yll":4394,"âĨ":4395,"Ġregi":4396,"His":4397,"Ġactu":4398,"Ġast":4399,"Ġsemel":4400,"53":4401,"issert":4402,"Ġviol":4403,"Ġillic":4404,"ellis":4405,"pens":4406,"umentum":4407,"iii":4408,"Ġparticip":4409,"Ġgest":4410,"Ġdicti":4411,"esset":4412,"ĠEpiscopus":4413,"Ġagit":4414,"Ġpartim":4415,"undum":4416,"uto":4417,"Ġnetus":4418,"Ġregno":4419,"asi":4420,"Ġ+":4421,"Ġsecret":4422,"Ġpropon":4423,"Ġobli":4424,"54":4425,"Ġquadrag":4426,"Ġclaus":4427,"Ġaddit":4428,"xx":4429,"Ġquinqu":4430,"51":4431,"iciendis":4432,"ĠSer":4433,"Ġsuav":4434,"Ġobt":4435,"Ġvalet":4436,"ĠCam":4437,"Ġscire":4438,"Ġimpl":4439,"ĠPublic":4440,"Ġdepr":4441,"Ġquondam":4442,"Ġcurr":4443,"Ġsapiente":4444,"Ġeffici":4445,"umb":4446,"Ġofficio":4447,"Ġaccess":4448,"ierunt":4449,"iciis":4450,"Ġspl":4451,"Ġcand":4452,"Ġscripsit":4453,"Ġvehem":4454,"Ġvuln":4455,"issum":4456,"Ġprout":4457,"Ġminime":4458,"Ġfructus":4459,"ĠBal":4460,"Ġdoctrina":4461,"Ġhostium":4462,"ĠInterdum":4463,"nload":4464,"Ġomnipot":4465,"serv":4466,"ĠLoc":4467,"Ġprocur":4468,"circ":4469,"Ġrestitu":4470,"Ġscrips":4471,"ĠBel":4472,"Aenean":4473,"pro":4474,"Ġsigna":4475,"ĠSex":4476,"ĠCardin":4477,"Ġmaxima":4478,"Ġbaptiz":4479,"yd":4480,"Ġamore":4481,"aturae":4482,"Ġtestimonium":4483,"Ġcoepit":4484,"IX":4485,"Ġcollig":4486,"Ġtyp":4487,"line":4488,"Ġconj":4489,"Ġmetu":4490,"iliae":4491,"Ġtertium":4492,"Ġdur":4493,"Ġmom":4494,"ĠPatris":4495,"idus":4496,"Ġascend":4497,"Ġannorum":4498,"Ġconsci":4499,"Ġfortun":4500,"ĠMel":4501,"Ġscientia":4502,"Ġexpet":4503,"ĠDem":4504,"Quisque":4505,"ĠXIII":4506,"Ġpace":4507,"Ġpoterit":4508,"ĠVUL":4509,"Ġ40":4510,"itos":4511,"Ġdivid":4512,"ĠConstant":4513,"iali":4514,"Ġvet":4515,"Ġiriure":4516,"Ġnub":4517,"Ġmulier":4518,"ont":4519,"ĠSeptem":4520,"ologia":4521,"52":4522,"Ġlegibus":4523,"Ġvirtutem":4524,"Ġvoluntate":4525,"ĠSit":4526,"Ġdescend":4527,"Ġconiug":4528,"Ġlibrum":4529,"ĠFlor":4530,"ĠArg":4531,"Ġconfer":4532,"Ġpersec":4533,"Ġquare":4534,"Ġhabemus":4535,"tatis":4536,"entias":4537,"Ġsaltem":4538,"ĠAnt":4539,"ĠSci":4540,"Ġmur":4541,"Ġcausis":4542,"Ġfav":4543,"ĠVicip":4544,"Ġproeli":4545,"amenta":4546,"rev":4547,"ĠAndre":4548,"arc":4549,"ĠLudov":4550,"ĠJo":4551,"Ġorbis":4552,"Ġpresbyter":4553,"Ġdulc":4554,"Ġeduc":4555,"IM":4556,"Ġinvidunt":4557,"isci":4558,"Ġtextum":4559,"Ġhomine":4560,"Ġiuven":4561,"Ġrepellendus":4562,"Ġprincipio":4563,"Ġdetr":4564,"Ġsplend":4565,"ĠAngel":4566,"Ã¹":4567,"Ġinstruc":4568,"issis":4569,"rix":4570,"issimam":4571,"Ġvend":4572,"irmod":4573,"ebam":4574,"ĠVerum":4575,"tua":4576,"Ġpraecipue":4577,"Rom":4578,"Ġmedium":4579,"Ġvidere":4580,"Ġger":4581,"Ġministr":4582,"Ġvolumus":4583,"tob":4584,"79":4585,"Ġaestim":4586,"Ġtrig":4587,"ĠSyn":4588,"Ita":4589,"empe":4590,"'.":4591,"uos":4592,"Ġpatre":4593,"Ġpoet":4594,"erim":4595,"Ġignis":4596,"erusalem":4597,"escit":4598,"js":4599,"Ġpunc":4600,"etetur":4601,"Ġsensus":4602,"elius":4603,"ĠRomanae":4604,"://":4605,"Åį":4606,"Ġfoli":4607,"Ġoperibus":4608,"rex":4609,"Hoc":4610,"75":4611,"Ġpotes":4612,"Ġcommuni":4613,"Ġcaeli":4614,"Ġstip":4615,"Ġdat":4616,"Ġhorum":4617,"Ġconstat":4618,"ĠItal":4619,"Ġnominis":4620,"uerint":4621,"Ġeidem":4622,"ĠRomano":4623,"Ġdefens":4624,"olam":4625,"ĠHor":4626,"Ġextrem":4627,"Ġant":4628,"Al":4629,"ĠSumm":4630,"Ġrecusandae":4631,"Ġveritatem":4632,"Ġulla":4633,"Ġdorm":4634,"scing":4635,"Ġquadam":4636,"Ġorb":4637,"ĠCongreg":4638,"avimus":4639,"inos":4640,"ĠBer":4641,"Ġlegere":4642,"ĠMarc":4643,"Ġprinceps":4644,"Ġgubern":4645,"Ġnonumy":4646,"ĠEditio":4647,"Ġtent":4648,"Ġerga":4649,"Ġdefunc":4650,"eles":4651,"tex":4652,"Ġvirtu":4653,"Am":4654,"ĠSS":4655,"ĠOrdinis":4656,"98":4657,"Ġfinis":4658,"Ġdeo":4659,"ĠGermaniae":4660,"Ġrepet":4661,"Ġexercitum":4662,"Â».":4663,"Ġverborum":4664,"Ġinvid":4665,"ĠProvinc":4666,"emat":4667,"Ġarmis":4668,"Ġhuc":4669,"Ġfacti":4670,"Ġpeccata":4671,"Ġcausae":4672,"Ġrevoc":4673,"Ġmundum":4674,"Ġhomini":4675,"Ġdicat":4676,"ĠPars":4677,"Ġsuscep":4678,"Ġquidquid":4679,"eritis":4680,"Ġeirmod":4681,"Ġmodos":4682,"ĠUbi":4683,"Ġnobil":4684,"Ġpraeterea":4685,"Ġmunere":4686,"aro":4687,"64":4688,"Ġnego":4689,"fi":4690,"adipscing":4691,"ĠSanctorum":4692,"Ġmemoriam":4693,"Ġcam":4694,"ars":4695,"ĠSyr":4696,"âĢĿ.":4697,"Ġuer":4698,"Ġcomplect":4699,"ĠStat":4700,"Ġdomine":4701,"averat":4702,"Ġhostes":4703,"Ġreges":4704,"Ġinitio":4705,"Ġcasu":4706,"estus":4707,"Ġlitterarum":4708,"Ġexcus":4709,"Ġmilitum":4710,"Ġloqui":4711,"Ġrecipi":4712,"Ġsacr":4713,"ĠMos":4714,"Ġindig":4715,"opolit":4716,"undus":4717,"Ġveritate":4718,"uimus":4719,"orte":4720,"iliis":4721,"Ġpiet":4722,"Ġfiliorum":4723,"ĠLitter":4724,"Ã¶":4725,"Ġfaciat":4726,"Cor":4727,"abiles":4728,"ĠHom":4729,"Ġmari":4730,"ĠVicipaedia":4731,"ĠĠĠĠĠĠĠĠĠĠĠĠĠĠĠĠ":4732,"rexit":4733,"Ġauxilium":4734,"Ġsadipscing":4735,"Ġec":4736,"acc":4737,"Ġcondiciones":4738,"lav":4739,"Ġpossumus":4740,"Ġproced":4741,"Ġpron":4742,"Ġinvicem":4743,"Ġinquam":4744,"Ġuit":4745,"ages":4746,"Ġsa":4747,"Ġmalis":4748,"ĠFilius":4749,"Ġarchiepiscop":4750,"Ġgreg":4751,"ĠMatth":4752,"Ġaliquod":4753,"Ġfra":4754,"ipsum":4755,"Ġreiciendis":4756,"Ġmente":4757,"Ġduodecim":4758,"Ġtermin":4759,"ebunt":4760,"Ġinveni":4761,"duc":4762,"Ġvocatur":4763,"Ġpercus":4764,"Ġcondicionibus":4765,"Ġtemplum":4766,"bet":4767,"ulerunt":4768,"Ġsententiae":4769,"TA":4770,"Ġoppidum":4771,"Ġpropor":4772,"titia":4773,"toli":4774,"ĠAbrah":4775,"Ġmoribus":4776,"Ġincolarum":4777,"Ġdeum":4778,"oduc":4779,"Ġsaeculo":4780,"Ġloquitur":4781,"Ġelitr":4782,"62":4783,"ravit":4784,"Ġaliquem":4785,"Ġsupr":4786,"alogus":4787,"Ġostendit":4788,"Ġanimad":4789,"anter":4790,"Ġaetatis":4791,"Ġnumerus":4792,"Ġconclus":4793,"ĠLatine":4794,"Ġbarb":4795,"Ġdiligenter":4796,"ĠClaud":4797,"tera":4798,"Ġquaeque":4799,"loc":4800,"px":4801,"Ġperferendis":4802,"Ġfrig":4803,"Ġadol":4804,"Ġmoder":4805,"Ġsalutis":4806,"ĠAlb":4807,"Ġprincipium":4808,"ĠVirginis":4809,"Ġrob":4810,"Ġproprium":4811,"ĠRomam":4812,"Ġvivere":4813,"];":4814,"Ġnumerum":4815,"][":4816,"emur":4817,"Ġvirtutis":4818,"Ġfratrem":4819,"Ġhabeo":4820,"Ġdetermin":4821,"Ġpersequ":4822,"ulari":4823,"Ġbono":4824,"ĠPsal":4825,"Ġcredit":4826,"Ġdecima":4827,"Ġindign":4828,"Ġtractare":4829,"nec":4830,"Ġcommunic":4831,"Ġabund":4832,"Ġvoluit":4833,"ĠPDF":4834,"Ġadmodum":4835,"Ġcast":4836,"Ġadven":4837,"tifex":4838,"The":4839,"Ġtris":4840,"Ġmunus":4841,"85":4842,"Ġmecum":4843,"Ġvirorum":4844,"Ġantequam":4845,"ĠOmnes":4846,"Ġnut":4847,"Ġquadr":4848,"Ġae":4849,"Ġvoluntatem":4850,"ele":4851,"Ġquemadmodum":4852,"EG":4853,"ade":4854,"orus":4855,"Ġnecessaria":4856,"Nullam":4857,"amm":4858,"ĠXV":4859,"Ġmentis":4860,"her":4861,"Ġferre":4862,"Âª":4863,"Ġcivitas":4864,"Ġcamp":4865,"ĠCaesaris":4866,"Ġplane":4867,"Ġuol":4868,"Ġvocant":4869,"Ġdatur":4870,"ĠSpiritu":4871,"Ġvulgo":4872,"63":4873,"ami":4874,"Ġintro":4875,"ack":4876,"ors":4877,"87":4878,"ĠKal":4879,"ĠItaliae":4880,"onam":4881,"Ġmalo":4882,"Ġeandem":4883,"nos":4884,"inarum":4885,"á¼":4886,"ĠLiv":4887,"Ġbrevi":4888,"Ġasperiores":4889,"Ġtene":4890,"Ġuero":4891,"Ġflor":4892,"ĠCel":4893,"urrit":4894,"ĠAugust":4895,"mann":4896,"Cras":4897,"ĠXVI":4898,"Ġfun":4899,"Ġdecern":4900,"Ġsermo":4901,"not":4902,"61":4903,"ĠTrin":4904,"ĠLatina":4905,"Ġmitt":4906,"abilem":4907,"roque":4908,"Ġelect":4909,"Ġsanguine":4910,"ĠDolor":4911,"ĠPot":4912,"Ġutrius":4913,"ĠCON":4914,"Ġprocul":4915,"Ġeundem":4916,"ÑĢ":4917,"Ġsaecula":4918,"Ġdepos":4919,"Ġexemplum":4920,"Ġamor":4921,"Ġterris":4922,"Ġ31":4923,"Ġvoluptua":4924,"Ġstul":4925,"ĠLaur":4926,"Ġbibli":4927,"umma":4928,"Ġrepellat":4929,"Ġhonore":4930,"CL":4931,"89":4932,"onae":4933,"Ġrursus":4934,"umenta":4935,"',":4936,"Ġconsetetur":4937,"ragm":4938,"Ġsemp":4939,"Ġceleb":4940,"ĠHa":4941,"lu":4942,"Ġutique":4943,"lio":4944,"Ġpic":4945,"ĠIsa":4946,"Ġquanto":4947,"Ġspiritum":4948,"Ġconcord":4949,"Ġresp":4950,"ularis":4951,"Ġfecerunt":4952,"Ġgratias":4953,"nas":4954,"ĠQuaesti":4955,"72":4956,"ĠFer":4957,"Ġsacerdos":4958,"ca":4959,"Ġoperam":4960,"Ġtransm":4961,"Ġrevel":4962,"Ġpecuniam":4963,"oto":4964,"inorum":4965,"ĠVita":4966,"ugur":4967,"ĠColleg":4968,"ĠMil":4969,"Ġcuncta":4970,"Sh":4971,"Ġare":4972,"Ġcern":4973,"esis":4974,"ru":4975,"È©":4976,"Ġuniversa":4977,"Ġquamquam":4978,"Ġpaucis":4979,"uga":4980,"Ġconscrip":4981,"turb":4982,"Ġpeculi":4983,"anas":4984,"Ġdeos":4985,"ĠMDCC":4986,"Quae":4987,"ĠAnglic":4988,"olas":4989,"ĠHung":4990,"ĠAbb":4991,"Ġmodus":4992,"ĠAugusti":4993,"Ġminor":4994,"Ġcopios":4995,"ĠTra":4996,"ace":4997,"95":4998,"Ġsapientia":4999,"Ġlarg":5000,"Ġvox":5001,"Ġpoterat":5002,"Ġfall":5003,"ĠSalv":5004,"ĠLab":5005,"Ġconsol":5006,"Ġprior":5007,"ugd":5008,"Ġactum":5009,"iturg":5010,"estibus":5011,"eperit":5012,"Ġdictus":5013,"Ġpraescrip":5014,"Morbi":5015,"ĠInf":5016,"Ġmagister":5017,"ĠCicer":5018,"Ġsust":5019,"Cre":5020,"tiae":5021,"Ġsubj":5022,"Ġprivileg":5023,"Äĵ":5024,"uia":5025,"Ġfines":5026,"Ġpostr":5027,"Ġtrah":5028,"tentr":5029,"ĠDel":5030,"ĠThomas":5031,"Ġprol":5032,"cis":5033,"Ġexspect":5034,"Ġcapi":5035,"ĠAll":5036,"Ġduis":5037,"ensum":5038,"Ġreligionis":5039,"Ġimperio":5040,"Ġpersona":5041,"Ġaudire":5042,"Ġaquae":5043,"Ġaeternum":5044,"abiliter":5045,"ĠFebr":5046,"Ġdiceret":5047,"ps":5048,"atrum":5049,"ĠGer":5050,"Ġpolit":5051,"Ġoffer":5052,"Ġstudios":5053,"yam":5054,"ĠDie":5055,"IA":5056,"Ġviros":5057,"Cons":5058,"Ġsaepius":5059,"ĠLaud":5060,"Ġpatres":5061,"Ġreform":5062,"ĠRoma":5063,"Ġic":5064,"Ġinqu":5065,"ypis":5066,"Ġnig":5067,"ector":5068,"Ġtemper":5069,"ĠGalli":5070,"Ġutriusque":5071,"Ġintellectus":5072,"Ïĥ":5073,"Ġvestri":5074,"arm":5075,"Ġconsist":5076,"sp":5077,"Ġhabeant":5078,"Ġplacet":5079,"74":5080,"Ġinm":5081,"Ġequit":5082,"itibus":5083,"Ġobst":5084,"ĠVatic":5085,"Ġarte":5086,"Ġservus":5087,"82":5088,"Ġexpon":5089,"Ġduplic":5090,"hab":5091,"84":5092,"ĠGallic":5093,"ĠThomae":5094,"Ġsanctae":5095,"ĠMari":5096,"ary":5097,"Ġmentem":5098,"Ġcent":5099,"Item":5100,"Ġfacie":5101,"Ġhabens":5102,"angel":5103,"ĠJohannes":5104,"Ġfortasse":5105,"Ġinsid":5106,"Ġspes":5107,"Ġpublice":5108,"estate":5109,"Ġnostrorum":5110,"Ġbaptis":5111,"elle":5112,"pta":5113,"Ġmedia":5114,"Ġimpos":5115,"ĠAcademiae":5116,"atori":5117,"ujus":5118,"Ġcontemp":5119,"Ġdiab":5120,"oci":5121,"ĠMerc":5122,"Ġnota":5123,"Ġquatenus":5124,"ede":5125,"ĠMal":5126,"ĠAch":5127,"Res":5128,"Ġretin":5129,"las":5130,"Ġpossent":5131,"Ñģ":5132,"ibern":5133,"eros":5134,"IL":5135,"Ġora":5136,"ĠQuare":5137,"amenti":5138,"ĠAegypti":5139,"Ġoperis":5140,"Ġsensu":5141,"OP":5142,"eograph":5143,"Ġdiximus":5144,"icii":5145,"Ġnud":5146,"Ġpenitus":5147,"idio":5148,"Ġnotis":5149,"Ġdemum":5150,"Ġmagnific":5151,"Ġhumana":5152,"Ġpoenit":5153,"iensis":5154,"ĠAtt":5155,"Ġhistoria":5156,"Ġcotidi":5157,"Ġnatum":5158,"Ġlaudem":5159,"Ġrub":5160,"Ġvill":5161,"ĠCirc":5162,"idium":5163,"ĠProf":5164,"ED":5165,"IAE":5166,"iculum":5167,"76":5168,"queb":5169,"ĠFrider":5170,"Ġpecunia":5171,"tias":5172,"Ġsuffrag":5173,"ĠOcc":5174,"ĠHieronym":5175,"UT":5176,"ze":5177,"OC":5178,"73":5179,"Ġprorsus":5180,"ĠChr":5181,"Ġ....":5182,"ĠPatri":5183,"Ġcrud":5184,"Ġcali":5185,"Ġumquam":5186,"Ġmors":5187,"Ġrevers":5188,"overs":5189,"Ġimperii":5190,"anuarii":5191,"Ġtale":5192,"ĠSicut":5193,"ĠMul":5194,"Ġsanctific":5195,"Ġstet":5196,"Ġprimi":5197,"escens":5198,"94":5199,"Ġvideri":5200,"essi":5201,"Ġanimus":5202,"gen":5203,"vol":5204,"Ġhe":5205,"ecte":5206,"Ġvideatur":5207,"ostoli":5208,"Maecenas":5209,"Per":5210,"Ġtali":5211,"Ġbeni":5212,"Ġresurr":5213,"essum":5214,"ĠIdem":5215,"ĠâĢĿ.":5216,"escere":5217,"Ġposuit":5218,"Ġquarta":5219,"Ġpropriet":5220,"âĨĳ":5221,"ipp":5222,"Ġsermone":5223,"Ġcommunis":5224,"ĠSanctae":5225,"Ġrestit":5226,"Ġbonus":5227,"Ġecclesie":5228,"ĠTit":5229,"ĠTheolog":5230,"ĠDixit":5231,"Ġsacris":5232,"81":5233,"Ġdicentes":5234,"Ġmyster":5235,"tamen":5236,"Ġvocab":5237,"Ġsacerdotes":5238,"ĠAud":5239,"Ġmaris":5240,"Ġsuspic":5241,"Ġartic":5242,"92":5243,"ĠRem":5244,"Ġquicquid":5245,"Ġiug":5246,"tribution":5247,"Ġseri":5248,"Ġpacis":5249,"ĠLing":5250,"tenus":5251,"Qua":5252,"86":5253,"Ġmisericordia":5254,"Ġspem":5255,"Praesent":5256,"Share":5257,"Ġaccusam":5258,"ĠPetro":5259,"Ġpropterea":5260,"93":5261,"hort":5262,"iac":5263,"itor":5264,"Hic":5265,"Ġreduc":5266,"ĠOctob":5267,"Ġsollem":5268,"irent":5269,"til":5270,"Ġperman":5271,"ĠPri":5272,"Ġiussit":5273,"dom":5274,"crib":5275,"Ġutroque":5276,"Ġpud":5277,"Sic":5278,"ĠCommons":5279,"Creative":5280,"ĠPlin":5281,"Ġvenire":5282,"ĠVolup":5283,"obstantibus":5284,"Ġaltare":5285,"Ġagnosc":5286,"Ġevangeli":5287,"Ġfortuna":5288,"Ġtom":5289,"Ġsempiter":5290,"Ġimperator":5291,"ÏĢ":5292,"Ġangus":5293,"ĠAttribution":5294,"Ġacced":5295,"83":5296,"usus":5297,"ĠFoed":5298,"issimos":5299,"Ġaccommod":5300,"OD":5301,"Ġeb":5302,"ĠLicense":5303,"Ġexam":5304,"ĠMichael":5305,"diu":5306,"Ġexpress":5307,"Ġtang":5308,"Alike":5309,"ShareAlike":5310,"Ġperg":5311,"Curabitur":5312,"Nonobstantibus":5313,"Ġquicquam":5314,"Ġfiunt":5315,"icibus":5316,"Ġexpect":5317,"97":5318,"AB":5319,"Ġcolloc":5320,"Ġnamque":5321,"plex":5322,"alt":5323,"ĠVenet":5324,"Ġviribus":5325,"ectiones":5326,"Ġlibrorum":5327,"Ġdebeat":5328,"Ap":5329,"Ġidque":5330,"ĠAugustinus":5331,"Ġmagnus":5332,"01":5333,"Ġplurimum":5334,"ĠEu":5335,"ĠCumque":5336,"Ä«":5337,"Ġpasc":5338,"Ġdicto":5339,"Ab":5340,"Ð½":5341,"Ġnostros":5342,"Ġ#":5343,"ĠSocietatis":5344,"Ġglorios":5345,"Ġmores":5346,"Ġgrat":5347,"hel":5348,"Ġpertinent":5349,"Ġtriginta":5350,"ĠArchiepiscop":5351,"circo":5352,"Ġcaeter":5353,"Ġsuscipi":5354,"Ġprem":5355,"Ġciu":5356,"ĠEph":5357,"Ġpeccato":5358,"uplet":5359,"Ġnempe":5360,"91":5361,"abb":5362,"Ġastr":5363,"ominus":5364,"Ġhabetur":5365,"Ġgravi":5366,"Ġhosp":5367,"Ġplerumque":5368,"Ġvoluntas":5369,"ĠprÃ¦s":5370,"Ġvali":5371,"ĠCui":5372,"une":5373,"Ġcastris":5374,",...":5375,"orta":5376,"ĠLex":5377,"Ġaetate":5378,"Ġira":5379,"Quam":5380,"Ġvideb":5381,"Ġvent":5382,"ĠEs":5383,"Ġrevert":5384,"ĠApoll":5385,"ĠUl":5386,"Tr":5387,"iani":5388,"CH":5389,"Ġpossum":5390,"Ġnonnull":5391,"Ġcontenti":5392,"ĠUrb":5393,"ertus":5394,"EP":5395,"Ġcivitates":5396,"Ġfratrum":5397,"ĠStr":5398,"Ġartis":5399,"Ġfama":5400,"abuntur":5401,"ĠIndic":5402,"ĠHistoria":5403,"Ġestis":5404,"Ġration":5405,"ĠJuli":5406,"Ġvestrum":5407,"utio":5408,"mine":5409,"ĠRomanis":5410,"Ġhumanae":5411,"Ġwh":5412,"ĠNot":5413,"**":5414,"actum":5415,"Ġprovincia":5416,"ĠDuo":5417,"Ġinvoc":5418,"ĠAustr":5419,"iem":5420,"Cat":5421,"Ġdeorum":5422,"entii":5423,"Ġplag":5424,"Ġcoep":5425,"Ġsimilis":5426,"71":5427,"Vivamus":5428,"arus":5429,"form":5430,"Ġmane":5431,"ĠIam":5432,"Ġoccurr":5433,"reg":5434,"ĠDes":5435,"09":5436,"Ġtribu":5437,"Ġartific":5438,"Ġimmo":5439,"Ġpoena":5440,"Temp":5441,"Ġexcell":5442,"Ġpatria":5443,"Ġvenerunt":5444,"Ġmend":5445,"Ġvestris":5446,"Ġpraepar":5447,"Ġfacies":5448,"Ġregum":5449,"ĠBab":5450,"acter":5451,"odus":5452,"old":5453,"Ġedita":5454,"ĠBeat":5455,"Ġspecie":5456,"hoc":5457,"Ġmatris":5458,"ĠTomus":5459,"Ġgratiae":5460,"itias":5461,"Ġsig":5462,"vet":5463,"Ġcausas":5464,"ORUM":5465,"itte":5466,"ala":5467,"Quis":5468,"me":5469,"Ġimit":5470,"Ġjure":5471,"Ġuoc":5472,"Ġtoti":5473,"elibus":5474,"Ġhaberet":5475,"Ġaliquyam":5476,"Ġindustr":5477,"Ġcontinu":5478,"Ġinnoc":5479,"Ġhactenus":5480,"ĠJoh":5481,"Ġaeque":5482,"Ġrationibus":5483,"Ġdiversis":5484,"ĠCaput":5485,"Ġoratione":5486,"iant":5487,"Ġspe":5488,"Ġdictis":5489,"Ġpublicam":5490,"Ġbas":5491,"Ġpotestas":5492,"Ġjur":5493,"onius":5494,"pot":5495,"Ġpurg":5496,"Ġmarg":5497,"Ġinop":5498,"Ġcertam":5499,"Ġatr":5500,"Ġsuperb":5501,"ellam":5502,"itiv":5503,"Ġduae":5504,"05":5505,"Ġnovi":5506,"Ġveritas":5507,"Ġisti":5508,"Ġdescrib":5509,"Ġperse":5510,"aev":5511,"ĠRomanus":5512,"ectam":5513,"Ġexaud":5514,"Ġcordis":5515,"ĠPop":5516,"Ġcalc":5517,"Ġnat":5518,"athed":5519,"Comm":5520,"ĠBook":5521,"ki":5522,"Ġcorpor":5523,"ĠEcclesiast":5524,"ÃŁ":5525,"Ġauctore":5526,"96":5527,"ĠGo":5528,"Ġpartis":5529,"Ã¡n":5530,"Ġdiei":5531,"Ġmediocr":5532,"Ġtemporum":5533,"Ġmerito":5534,"ĠIpse":5535,"Ġire":5536,"ĠClar":5537,"Ġpatrum":5538,"ĠNicola":5539,"ĠRomana":5540,"Ġhumil":5541,"ĠContra":5542,"03":5543,"ectetur":5544,"Ġpastor":5545,"turam":5546,"Ġcommemor":5547,"ursum":5548,"ellas":5549,"Ġagitur":5550,"ĠPetrum":5551,"ĠMe":5552,"Ġamicit":5553,"Ġfo":5554,"Ġquoad":5555,"Ġsiue":5556,"Ġnaturalis":5557,"ĠNobis":5558,"ibilis":5559,"Ġcomed":5560,"\">":5561,"ĠFilium":5562,"Ġcorn":5563,".âĢĶ":5564,"Ġoccaecati":5565,"Ġhistoriae":5566,"Ġgentibus":5567,"ENT":5568,"Ġfol":5569,"Ġbesti":5570,"Ġputant":5571,"Est":5572,"Ġsummum":5573,"Ġmutatio":5574,"ĠâĢ¢":5575,"Ġanimal":5576,"Ġsaeculi":5577,"Ġtuos":5578,"Ġincor":5579,"Ġá¼":5580,"Ġbis":5581,"ĠSil":5582,"Ġconsensu":5583,"Ġargumentum":5584,"ĠRed":5585,"ĠSar":5586,"Î»":5587,"Ego":5588,"Inc":5589,"SS":5590,"ain":5591,"Ġnescio":5592,"ĠLugd":5593,"Ġsat":5594,"orumque":5595,"Ġorationem":5596,"Ġtyr":5597,"itiae":5598,"Ġmille":5599,"ĠActa":5600,"elix":5601,"ĠHinc":5602,"abilia":5603,"urn":5604,"Deus":5605,"Ġvan":5606,"ĠIsra":5607,"urs":5608,"ĠChrist":5609,"Ġinscrip":5610,"ĠGener":5611,"Ġinclin":5612,"Ġsanguinem":5613,"ril":5614,"DE":5615,"ĠHistoriae":5616,"ĠLips":5617,"Ġanimos":5618,"ĠPompe":5619,"Ġcarc":5620,"Ġhumani":5621,"ĠJoannis":5622,"Ġdicimus":5623,"Ġnit":5624,"Ġmodis":5625,"Ġcerta":5626,"sque":5627,"Ġnavig":5628,"Ġ32":5629,"opoli":5630,"ĠVis":5631,"Neque":5632,"iderat":5633,"yg":5634,"Ġgloriae":5635,"Ġmisericordiam":5636,"Ġalien":5637,"Mauris":5638,"ave":5639,"ĠBelg":5640,"ĠIoseph":5641,"Ġdeli":5642,"utionem":5643,"ĠIov":5644,"Ġdestr":5645,"Ġlign":5646,"Ġcirciter":5647,"Ġfraud":5648,"Ġmenti":5649,"Ġcontempl":5650,"02":5651,"Title":5652,"Ġreliqui":5653,"ĠEuropae":5654,"ĠFilii":5655,"Ġsolo":5656,"eteri":5657,"Ġinsuper":5658,"ĠIulii":5659,"ah":5660,"ĠProc":5661,"Ġdissim":5662,"ĠAprilis":5663,"Ġinterim":5664,"Car":5665,"Ã«l":5666,"Ġremiss":5667,"Ġquer":5668,"toria":5669,"xi":5670,"Ġegreg":5671,"aculo":5672,"ĠItalia":5673,"ancell":5674,"erti":5675,"TER":5676,"Ġcontig":5677,"esi":5678,"Ġlocorum":5679,"Ġsel":5680,"ĠTab":5681,"ĠAss":5682,"ĠQuem":5683,"gu":5684,"raque":5685,"Ġclem":5686,"ono":5687,"Pellentesque":5688,"Ġprimam":5689,"ns":5690,"Ġexpedit":5691,"Ġlumen":5692,"Ġplena":5693,"ĠCruc":5694,"Ġcomes":5695,"Ġdisper":5696,"ferre":5697,"ĠIst":5698,"Ġlittera":5699,"ĠPraec":5700,"Ġbook":5701,"Ġpericulo":5702,"Ġpraefect":5703,"ĠVitae":5704,"Ġ33":5705,"ĠMaii":5706,"ensa":5707,"Ġlocuplet":5708,"ĠIesum":5709,"IUS":5710,"Ġlinguam":5711,"Ġpax":5712,"mata":5713,"Ġvices":5714,"aron":5715,"Ġconcup":5716,"ĠCanon":5717,"Ġrequi":5718,"cf":5719,"Ġsolent":5720,"Ġmeos":5721,"Ġvires":5722,"ĠTrans":5723,"Ġpericulum":5724,"Ġvivit":5725,"ĠMartii":5726,"ting":5727,"Ġheb":5728,"eto":5729,"ĠFebru":5730,"ĠSalom":5731,"unda":5732,"ĠInv":5733,"Ġaltero":5734,"Ġpedibus":5735,"adis":5736,"Ġorient":5737,"issem":5738,"å½":5739,"Ġpraecepta":5740,"amb":5741,"Ġru":5742,"Ġsignificat":5743,"Ġurbs":5744,"quisque":5745,"Ġvex":5746,"ĠSec":5747,"ensus":5748,"Ġfluv":5749,"Ġlibertatem":5750,"ĠFrancisci":5751,"Ġmonte":5752,"Ġcardin":5753,"Ġnuncup":5754,"ĠÃĨ":5755,"iamus":5756,"ĠQuoniam":5757,"ucius":5758,"Ġimpr":5759,"Ġfiliam":5760,"Ġsis":5761,"oper":5762,"Ġ35":5763,"ĠPP":5764,"issertatio":5765,"Ġveri":5766,"Ġincipit":5767,"Ġcras":5768,"ĠTim":5769,"vs":5770,"Ġconstituit":5771,"^^":5772,"Ġnormam":5773,"Ġpeccatorum":5774,"Ġsanctis":5775,"ĠJesus":5776,"achi":5777,"Ġrebum":5778,"ĠcÅĵ":5779,"ĠSacram":5780,"Ġtriumph":5781,"ÄĻ":5782,"Ġdebere":5783,"06":5784,"Ġgradus":5785,"Ġpend":5786,"Ġappellantur":5787,"Ġvinum":5788,"Ġveluti":5789,"Ġcircuit":5790,"actatus":5791,"ocin":5792,"ĠXIV":5793,"Ġvisum":5794,"ĠClem":5795,"Ġperpetuum":5796,"ĠAmb":5797,"Ġnata":5798,"Ġveterum":5799,"Ġvidi":5800,"aeus":5801,"Ġscr":5802,"Ġrecip":5803,"ĠMagis":5804,"ria":5805,"orsum":5806,"Post":5807,"ĠArab":5808,"Ġvituper":5809,"Ġrationes":5810,"Ġcapita":5811,"Suspendisse":5812,"Ġthesaur":5813,"ĠGraeci":5814,"Ġutrumque":5815,"Ġprofecto":5816,"Ġben":5817,"undo":5818,"ĠStud":5819,"Ġcf":5820,"Ġvolo":5821,"Phasellus":5822,"Ġdeprec":5823,"ose":5824,"Ġscriptis":5825,"ĠChron":5826,"04":5827,"Ġalicuius":5828,"Ġpsal":5829,"St":5830,"'s":5831,"Ġmarty":5832,"Pl":5833,"Ġdatum":5834,"Ġisto":5835,"ENS":5836,"Ġlibera":5837,"Ġcarnis":5838,"Ġsingula":5839,"timus":5840,"Ġsacerdo":5841,"Ġspeciem":5842,"Ġsecundus":5843,"aniam":5844,"Ġvisit":5845,"ĠMedic":5846,"Ġ..":5847,"Ġeffectus":5848,"atii":5849,"Ġdomi":5850,"Ġturp":5851,"Ġphys":5852,"ner":5853,"Ġexcel":5854,"Ġoccul":5855,"Ġaliae":5856,"Ġvestig":5857,"Ġbenign":5858,"Ġitinere":5859,"å½©":5860,"Nec":5861,"Ġmaiorum":5862,"idia":5863,"uro":5864,"erere":5865,"acum":5866,"Ġseni":5867,"07":5868,"IO":5869,"ĠprÃ¦c":5870,"Ġfratris":5871,"ĠVolume":5872,"Ġcaro":5873,"Ġdivinae":5874,"ĠExc":5875,"imas":5876,"Ġemp":5877,"Ġhabitat":5878,"ĠPlat":5879,"Ġsolid":5880,"ĠSecundum":5881,"Ġputo":5882,"ittitur":5883,"Ġrationis":5884,"tinet":5885,"Ġoporte":5886,"Ġpericulis":5887,"uria":5888,"Ġproprio":5889,"Cl":5890,"ardo":5891,"ĠPraef":5892,"ĠRomanos":5893,"Ġtuas":5894,"Int":5895,"Ġquaestio":5896,"idere":5897,"Ġcuram":5898,"Ġpollic":5899,"etu":5900,"Ġlim":5901,"Er":5902,"08":5903,"itiis":5904,"Ġapparet":5905,"ĠAugustini":5906,"Ġresist":5907,"Ġadmon":5908,"ald":5909,"Ġadiuv":5910,"ogle":5911,"Ġnox":5912,"Ġcaptiv":5913,"eluia":5914,"anni":5915,"Ġcivibus":5916,"Ġcontinentur":5917,"ĠCaesare":5918,"Ġauth":5919,"Ġtenet":5920,"Ġhabita":5921,"ĠRo":5922,"Ġapprob":5923,"Ġocta":5924,"Inter":5925,"Ġfamilia":5926,"Ġindulg":5927,"Ġcondita":5928,"vae":5929,"Ġiustitia":5930,"ĠAbraham":5931,"Ġpaenit":5932,"Ġmalorum":5933,"Ġnecessitate":5934,"Ġordo":5935,"Note":5936,"Ġregim":5937,"nde":5938,"ĠMagni":5939,"Ġproprie":5940,"Ġliceat":5941,"Ġredemp":5942,"ĠAv":5943,"ĠMater":5944,"Ġpossim":5945,"VS":5946,"tates":5947,"Ind":5948,"Ġtribul":5949,"ĠsÃ¦c":5950,"ĠIndex":5951,"Ġfic":5952,"Ġingredi":5953,"Ġjuris":5954,"Ġ34":5955,"Ġvirtutibus":5956,"Ġquoti":5957,"ĠOmnis":5958,"Ġbeatus":5959,"ĠApostolicae":5960,"Ġfecerit":5961,"Ġepiscopo":5962,"ymb":5963,"hum":5964,"Ġfidelium":5965,"edo":5966,"andos":5967,".;":5968,"ĠPatrem":5969,"Ġpoll":5970,"ĠGrati":5971,"odie":5972,"Ġphilosophia":5973,"ĠChar":5974,"Ġvirtutes":5975,"Ġalienum":5976,"Ġmatrem":5977,"Ġmonstr":5978,"uorum":5979,"Ġdoctrinam":5980,"Ġitin":5981,"ĠBa":5982,"Ġonline":5983,"ek":5984,"Anno":5985,"Ġordines":5986,"onensis":5987,"Ġredi":5988,"Ġsurg":5989,"idens":5990,"Ġconvenit":5991,"ĠPrimum":5992,"AD":5993,"Ġutraque":5994,"Ġprincipis":5995,"Ġsubstantia":5996,"Ġpericula":5997,"Ġdocet":5998,"acto":5999,"Ã¹m":6000,"Ġfiant":6001,"ĠSequ":6002,"uic":6003,"Ġaurum":6004,"Ġmotu":6005,"Ġcertum":6006,"Ġdierum":6007,"isso":6008,"Ġlatine":6009,"atque":6010,"Ġ!":6011,"Ġstudium":6012,"ĠEum":6013,"Ġvolum":6014,"Ġprovinciae":6015,"unde":6016,"ts":6017,"init":6018,"Pa":6019,"tioni":6020,"Ġperpetua":6021,"entior":6022,"Ġregna":6023,"Ġoppos":6024,"Ġdeclin":6025,"Ġkal":6026,"ĠMoys":6027,"Ġfasti":6028,"Ġquadraginta":6029,"Ġprocess":6030,"Ġedidit":6031,"Ġpeccatis":6032,"Ġequidem":6033,"inter":6034,"ĠPs":6035,"Ġancill":6036,"CCL":6037,"pa":6038,"Ġedic":6039,"Ġtitulo":6040,"Latin":6041,"Ġnulli":6042,"ĠHon":6043,"Ġprogr":6044,"Ġiura":6045,"Ġfructum":6046,"Ġcontem":6047,"Ġapplic":6048,"acus":6049,"cons":6050,"Ġster":6051,"ĠIsraÃ«l":6052,"ĠHerm":6053,"eperat":6054,"ĠIllustr":6055,"ĠBen":6056,"Ġpueri":6057,"usquam":6058,"Ġcompon":6059,"Ġistis":6060,"Ġcolum":6061,"Ġpatriae":6062,"ĠDion":6063,"Ġsubito":6064,"Ġcontrovers":6065,"pell":6066,"Ġirr":6067,"econom":6068,"ĠPasch":6069,"cl":6070,"Ġeisdem":6071,"Ġparti":6072,"Ġdefic":6073,"uen":6074,"Ġsingulos":6075,"ĠNor":6076,"Ġpell":6077,"Ġdifficul":6078,"Ġflumen":6079,"ĠErat":6080,"Ġfacilius":6081,"Ġignem":6082,"Ã³n":6083,"Ill":6084,"ĠGraecorum":6085,"Ġhaeret":6086,"Ġscriptorum":6087,"hic":6088,"ĠScip":6089,"Ġsensum":6090,"Ġconvert":6091,"Ġdissenti":6092,"Ġvideo":6093,"ebas":6094,"Ġappellatur":6095,"ĠBl":6096,"Ġmac":6097,"Ġorbem":6098,"ĠMis":6099,"idam":6100,"Ġlibenter":6101,"Ġrefert":6102,"iz":6103,"ullius":6104,"usalem":6105,"odum":6106,"Ġvocibus":6107,"Ġnecessarium":6108,"yle":6109,"Ġoculi":6110,"Ġmanifest":6111,"Ġiudices":6112,"Ġvine":6113,"ientes":6114,"Ġfa":6115,"Ġnegleg":6116,",\"":6117,"Ġiuc":6118,"quia":6119,"Ġpaene":6120,"Ġflag":6121,"Ġinvenire":6122,"eca":6123,"ĠSanctum":6124,"Ġinitium":6125,"ĠBabyl":6126,"thag":6127,"ĠPic":6128,"iorem":6129,"Ġsublim":6130,"Ġdeinceps":6131,"Ġcomprehend":6132,"Ġexemplo":6133,"ĠPis":6134,"met":6135,"ĠIuda":6136,"ĠMaced":6137,"Ġqualis":6138,"ĠCf":6139,"ĠCass":6140,"tarum":6141,"ĠVerg":6142,"tiis":6143,"putatio":6144,"itata":6145,"Ġdestin":6146,"Ġdiscrim":6147,"ld":6148,"Ġduabus":6149,"Ġconviv":6150,"ĠCamp":6151,"Ġhabes":6152,"Ġrecord":6153,"gren":6154,"ĠHug":6155,"Ġquanta":6156,"ebo":6157,"Ġquotidi":6158,"Ġguber":6159,"Ġsatisfac":6160,"Ġconsumm":6161,"Ġquoc":6162,"...)":6163,"Ġsermonem":6164,"Ġidone":6165,"ĠPatre":6166,"ubi":6167,"Ġlin":6168,"Ġspectat":6169,"Ġcontum":6170,"bertus":6171,"etiam":6172,"Ġincon":6173,"Ġsitum":6174,"Ġuen":6175,"Ġoportere":6176,"illo":6177,"Ġmunera":6178,"ĠDisc":6179,"Ġsedes":6180,"Ġinnum":6181,"Ġwith":6182,"Ġhostibus":6183,"ĠTheologiae":6184,"Ġvelle":6185,"revi":6186,"Ġpraesens":6187,"ucc":6188,"Ġpatriam":6189,"Ġreliquis":6190,"Ġdignum":6191,"ĠIoannem":6192,"ĠHibern":6193,"ĠSup":6194,"Ġsponte":6195,"Ġluce":6196,"Ġgentis":6197,"Ġtranse":6198,"Ġpraepos":6199,"utione":6200,"ĠSacerd":6201,"Ġdivit":6202,"Ġmeth":6203,"Ġalteri":6204,"Ġsubm":6205,"osque":6206,"Ġgram":6207,"Ġdirig":6208,"elii":6209,"Ġjud":6210,"itatu":6211,"Ġterrit":6212,"ĠXL":6213,"asque":6214,"Ġcomprehens":6215,"ĠDecret":6216,"ge":6217,"Ġusur":6218,"ered":6219,"ĠHierusalem":6220,"ten":6221,"Ġaer":6222,"Ð»":6223,"Ġepic":6224,"ophi":6225,"dific":6226,"ĠMi":6227,"Ġlatr":6228,"ĠInstitu":6229,"Ġcorrum":6230,"Ġfiduc":6231,"eamus":6232,"usa":6233,"Ġaccipere":6234,"ĠAsc":6235,"Ġcasus":6236,"Ġobsequ":6237,"Ġsyst":6238,"Ġimpress":6239,"elmi":6240,"Ġlegitur":6241,"Ġaudit":6242,"Ġpaul":6243,"ommunic":6244,"ĠVoc":6245,"Ġdaem":6246,"Ġscientiam":6247,"ĠImp":6248,"ĠPapa":6249,"Ġacadem":6250,"ures":6251,"Novissima":6252,"Ġalibi":6253,"Ġtumul":6254,"www":6255,"ĠIgitur":6256,"ĠAntioch":6257,"Ġni":6258,"Ġforo":6259,"Ġistud":6260,"Ġscribit":6261,"ĠPort":6262,"ĠBib":6263,"Ġpraeced":6264,"Ġillas":6265,"ĠRuss":6266,"Ġrespons":6267,"ANC":6268,"rich":6269,"Ġfaciet":6270,"Ġlonga":6271,"Ġspons":6272,"Ġcivium":6273,"Ġclita":6274,"allic":6275,"Ġfuerant":6276,"Ġmanduc":6277,"Ġpropositum":6278,"Ġsummam":6279,"idibus":6280,"Proin":6281,"Ġreman":6282,"areat":6283,"Ġamici":6284,"Ġgubergren":6285,"ĠEi":6286,"Ġtol":6287,"Ġtemplo":6288,"Ġquarto":6289,"Ġ>":6290,"Ġstup":6291,"undam":6292,"ĠAngliae":6293,"idie":6294,"Ġinfer":6295,"ĠTro":6296,"Ġopportun":6297,"ĠWil":6298,"Ġactio":6299,"Ġcopia":6300,"Ġobedi":6301,"Ġmundus":6302,"ole":6303,"aco":6304,"Ġoptime":6305,"Ġmunic":6306,"Ġvirtutum":6307,"rii":6308,"Ġcarnem":6309,"ĠVit":6310,"uncta":6311,"Ġ36":6312,"Ġscriptor":6313,"Ġconclud":6314,"Ġmembra":6315,"Ġrecta":6316,"ENTI":6317,"acch":6318,"ĠTabula":6319,"ĠConstitu":6320,"Ġvestim":6321,"ĠHi":6322,"ĠNostri":6323,"ebis":6324,"Ġpublico":6325,"Ġpraeterit":6326,"ĠObserv":6327,"Ġexprim":6328,"Ġhodi":6329,"Ġaffirm":6330,"Ġmultitudo":6331,"arias":6332,"Ġundique":6333,"ĠGa":6334,"Ġreddit":6335,"Ġpersonae":6336,"sam":6337,"Ġmontem":6338,"ler":6339,"ĠOrient":6340,"noc":6341,"Ġmilitibus":6342,"ĠAcademia":6343,"Ġcives":6344,"ĠHenricus":6345,"Ġtrip":6346,"anim":6347,"ĠTac":6348,"Ġcalam":6349,"Ġmartyr":6350,"Ġpun":6351,"ĠEodem":6352,"alle":6353,"Ġtuorum":6354,"Ġsensibus":6355,"Ġconcupisc":6356,"ĠSive":6357,"ioris":6358,"Î¼":6359,"Ġfideles":6360,"Ġconstruc":6361,"ĠHann":6362,"Ġbella":6363,"caec":6364,"Ġhec":6365,"ity":6366,"Ġluptatum":6367,"Ġfaceret":6368,"nic":6369,"venit":6370,"Ġmanet":6371,"ĠAmeric":6372,"Ġgerm":6373,"Ġidcirco":6374,"ĠIbi":6375,"Ġacta":6376,"fid":6377,"200":6378,"temp":6379,"Ġdispon":6380,"Ġpect":6381,"ĠHos":6382,"Ġscio":6383,"ĠFranciae":6384,"Ġelev":6385,"ĠMer":6386,"Ġtalem":6387,"ĠBat":6388,"Ġtri":6389,"verit":6390,"ĠJun":6391,"iosa":6392,"Ġdiac":6393,"Ġmultitudine":6394,"Ġopt":6395,"ĠEpiscoporum":6396,"ĠEpiscopo":6397,"Ġmaiorem":6398,"Reg":6399,"Ġtulit":6400,"ĠJoseph":6401,"âĢ¢":6402,"ĠDecembris":6403,"Dic":6404,"auit":6405,"Ġeiusque":6406,"Ġinterret":6407,"Ġecclesiastic":6408,"Ġconse":6409,"ych":6410,"Ġdenuo":6411,"eget":6412,"Ġfrustra":6413,"Ġperpetuo":6414,"ĠEos":6415,"Ġreliqua":6416,"po":6417,"Ġinvenit":6418,"Ġdedic":6419,"ovit":6420,"Ġinsula":6421,"ĠTyp":6422,"Ġuni":6423,"OG":6424,"ĠVulg":6425,"Ġmilles":6426,"ĠCicero":6427,"Ġvellet":6428,"Ġdomest":6429,"osum":6430,"Ġimpon":6431,"Ġ\\\\":6432,"Ġvaria":6433,"nit":6434,"ertum":6435,"ĠRelig":6436,"ĠIdeo":6437,"othe":6438,"Ġnati":6439,"ĠPorro":6440,"ĠÂ·":6441,"Ġamorem":6442,"Ġsacrae":6443,"Ġquaesumus":6444,"ĠDani":6445,"Ġdispens":6446,"ĠFam":6447,"ĠContin":6448,"Gr":6449,"Ġsuperius":6450,"ĠGallia":6451,"Fusce":6452,"Ġunusquisque":6453,"Ġspatium":6454,"ĠOd":6455,"ĠâĢİ":6456,"etae":6457,"tol":6458,"Ġamoris":6459,"Ġnef":6460,"Ġsaeculorum":6461,"ĠSociet":6462,"Ġadulter":6463,"Ġ37":6464,"Ġsapientiae":6465,"Ġfamiliae":6466,"ĠRa":6467,"Ġdoctrinae":6468,"Ġplan":6469,"abil":6470,"Ġthis":6471,"Ġexcit":6472,"isce":6473,"Ġquinta":6474,"ĠAet":6475,"ĠApostolorum":6476,"Ġquaec":6477,".-":6478,"ĠNova":6479,",]":6480,"Ġcito":6481,"Ġperduc":6482,"Ġannot":6483,"Ġintenti":6484,"Ġfat":6485,"anto":6486,"Ġuniversis":6487,"Lib":6488,"ĠSapi":6489,".</":6490,"Ġlatere":6491,"ordi":6492,"Ġphilosophiae":6493,"Ġincend":6494,"Ġmorta":6495,"Ġdignitate":6496,"ĠFranciscus":6497,"ĠMC":6498,"Ġiii":6499,"Ġperv":6500,"ĠJoannes":6501,"Ġvoluntatis":6502,"Ġcreatur":6503,"Ġistam":6504,"ĠGra":6505,"Ġprofectus":6506,"Ġdog":6507,"ĠArn":6508,"des":6509,"Ġpanem":6510,"ĠInde":6511,"ept":6512,"TO":6513,"Ġiustitiae":6514,"Ġfrom":6515,"ĠSig":6516,"Ġperp":6517,"emper":6518,"Ġprocessus":6519,"Îº":6520,"Ġcaes":6521,"Ġinp":6522,"ĠGraece":6523,"Dec":6524,"ĠHol":6525,"Ġintellectu":6526,"Ġna":6527,"Ġvale":6528,"Ġflu":6529,"hilosophi":6530,"Ġsupradic":6531,"Ġingenio":6532,"Ġingressus":6533,"andas":6534,"Ġanimarum":6535,"Ġplacuit":6536,"ivis":6537,"Ġlabores":6538,"ĠLond":6539,"ĠHelvet":6540,"Ġmatur":6541,"gyp":6542,"Ġfeci":6543,"ĠJohannis":6544,"Ġvidet":6545,"anguis":6546,"Ġconsc":6547,"ĠIlle":6548,"Mar":6549,"Ġeffectum":6550,"ĠIpsum":6551,"Ġobv":6552,"Ġvesper":6553,"olia":6554,"Ġamicitia":6555,"ĠRegni":6556,"Ġinsol":6557,"Ġtradidit":6558,"TR":6559,"Ġ(...)":6560,"Ġhodiern":6561,"ĠEb":6562,"Ġnusquam":6563,"ĠEuch":6564,"Ġinvestig":6565,"Ġstatum":6566,"Eccles":6567,"Ġpotissimum":6568,"Ġintend":6569,"ANN":6570,"ĠNovembris":6571,"Ġpapa":6572,"Ġasp":6573,"Ġcarne":6574,"ĠOctobris":6575,"Ġminimum":6576,"Ġhabitus":6577,"ĠEras":6578,"ĠAdam":6579,"Ġquinquaginta":6580,"Ġpraev":6581,"Ġfieret":6582,"Ġpom":6583,"Ġrepr":6584,"ĠGalliae":6585,"Ġcerto":6586,"Ġct":6587,"ulibus":6588,"ipl":6589,"ĠIos":6590,"EX":6591,"Ġvariet":6592,"Ġuic":6593,"Ġmatrimonium":6594,"ila":6595,"Ġmeridi":6596,"ĠRead":6597,"Ġced":6598,"ĠâĢŀ":6599,"Ġquandam":6600,"eda":6601,"Ġpassim":6602,"Ġnil":6603,"Ġå":6604,"ĠSerm":6605,"oque":6606,"Ġventur":6607,"á¿":6608,"esque":6609,"Ġdelenit":6610,"Ġimprob":6611,"ĠDum":6612,"utem":6613,"ĠGraecis":6614,"ĠCaus":6615,"udum":6616,"Ġposita":6617,"Ġquoddam":6618,"ĠFratr":6619,"Ġdonum":6620,"Ġrot":6621,"itatur":6622,"Integer":6623,"Ġsacramentum":6624,"ĠAB":6625,"Ġregio":6626,"cor":6627,"Ġgradu":6628,"uel":6629,"Ġalb":6630,"ueris":6631,"aculis":6632,"Ġnominibus":6633,"actis":6634,"Ġsubdit":6635,"ĠIuris":6636,"ĠQuar":6637,"Ġterras":6638,"Ġfov":6639,"acem":6640,"Ġ38":6641,"mos":6642,"nunc":6643,"rium":6644,"imos":6645,"oniis":6646,"ugait":6647,"Ġhumili":6648,"augur":6649,"Ġquosdam":6650,"Ġerip":6651,"Ġmen":6652,"Ġmulieres":6653,"aepe":6654,"Ġsenatu":6655,"Dis":6656,"Ġmedit":6657,"Ġdeter":6658,"Ġmultas":6659,"Ġtalia":6660,"ĠSin":6661,"Ġmirum":6662,"Ġetiamsi":6663,"vam":6664,"Ġaere":6665,"Ġturba":6666,"\":":6667,"ecerunt":6668,"Ġamicis":6669,"Âł":6670,"lii":6671,"abam":6672,"Ġvehementer":6673,"Ġpartium":6674,"ĠPrima":6675,"Ġread":6676,"ĠFid":6677,"Ġceteros":6678,"ĠItaliam":6679,"entesimo":6680,"Ġcaec":6681,"avis":6682,"Ġdubio":6683,"ĠCuius":6684,"eis":6685,"ext":6686,"Ġorbe":6687,"Ġstatus":6688,"ĠMath":6689,"ĠIb":6690,"Ġsubl":6691,"Ġ50":6692,"Ġlibid":6693,"AG":6694,"Ġiustitiam":6695,"Ġsubd":6696,"Ġpropriis":6697,"lorum":6698,"Ne":6699,"Ġduce":6700,"Pag":6701,"Ġmaledic":6702,"Ġadulesc":6703,"aeque":6704,"Ġlun":6705,"Ġvoluerit":6706,"Ïħ":6707,"Ġfestum":6708,"ĠWill":6709,"ĠVener":6710,"Ġsemen":6711,"Ġremed":6712,"ĠSpec":6713,"Ġdona":6714,"Ġso":6715,"iliorum":6716,"Ġinimicus":6717,"ographia":6718,"ĠMaj":6719,"cap":6720,"Ġsabb":6721,"ĠMedi":6722,"Ġincipi":6723,"Ġilluc":6724,"En":6725,"orig":6726,"Ġsanguinis":6727,"ĠSumma":6728,"itarum":6729,"erp":6730,"ĠQuomodo":6731,"ugit":6732,"ĠJerusalem":6733,"Ġvad":6734,"Ġtabula":6735,"df":6736,"estium":6737,"titiam":6738,"Ġexplor":6739,"Ġtimore":6740,"Ġfigur":6741,"ĠNomin":6742,"Ġpronunti":6743,"Ġmach":6744,"Ġdabo":6745,"Ġfutura":6746,"Acta":6747,"ullus":6748,"eremus":6749,"Ġunquam":6750,"Ġlaude":6751,",'":6752,"Ġ//":6753,"Ġantiqui":6754,"ativa":6755,"Ġascendit":6756,"ĠDionys":6757,"Ġnovo":6758,"ĠAntonius":6759,"Ġprincipum":6760,"Ġprincipem":6761,"Ġperfic":6762,"Ġantiquis":6763,"Com":6764,"Ġvigil":6765,"Ġfel":6766,"Ġexim":6767,"Ġgaudium":6768,"aeum":6769,"Ġfeugait":6770,"Ġauro":6771,"Ġmunicip":6772,"Ġgladio":6773,"Ġfas":6774,"Ang":6775,"Å«":6776,"Ġclari":6777,"Ġpropriae":6778,"Ġdari":6779,"Ġpatribus":6780,"vum":6781,"Ġfing":6782,"ĠEdition":6783,"quaquam":6784,"issimorum":6785,"Ġsta":6786,"onc":6787,"entissime":6788,"uscrip":6789,"Ġscribere":6790,"vir":6791,"ĠQuad":6792,"ĠOl":6793,"Ġdefini":6794,"Ġexperi":6795,"Ġconsp":6796,"Ġverbi":6797,"ĠXVII":6798,"Ġperspic":6799,"Ġsemin":6800,"Ġsax":6801,"itionibus":6802,"Ġvidebatur":6803,"Ġdexter":6804,"Ġobcaec":6805,"Ġprou":6806,"Ġmeas":6807,"ĠPrimo":6808,"Ġpervenit":6809,"ĠGuli":6810,"Ġdeg":6811,"Ġorationis":6812,"erte":6813,"ĠBibliotheca":6814,"ĠIanuarii":6815,"Ġsedem":6816,"Ġmultorum":6817,"Ġtales":6818,"Ġidest":6819,"entos":6820,"Ġexempla":6821,"raesent":6822,"Ġconfit":6823,"turus":6824,"Ioann":6825,"Ġintroduc":6826,"usit":6827,"ĠTH":6828,"ĠVerbum":6829,"Ġregionibus":6830,"Ġsalute":6831,"ĠSatur":6832,"Ġfir":6833,"Ġassign":6834,"Ġfidelibus":6835,"Ġinj":6836,"Ġurbes":6837,"Ġcapitis":6838,"Ġsimpliciter":6839,"Ġigne":6840,"aequ":6841,"Ġalicui":6842,"issi":6843,"Ġantec":6844,"Ġdecimo":6845,"Ġliturg":6846,"ĠBy":6847,"ordin":6848,"Ġfructu":6849,"uat":6850,"ĠCarolus":6851,"Ġdignitatem":6852,"itit":6853,"Ġï¿½":6854,"umentis":6855,"Ġmateriam":6856,"erebat":6857,"erimus":6858,"Ġhtt":6859,"Ġmemoriae":6860,"Ġoppido":6861,"Ġullo":6862,"Ġprincipibus":6863,"ĠCaesarem":6864,"ĠEX":6865,"Ġalteram":6866,"Ġinius":6867,"Ġaccidit":6868,"ĠKar":6869,"ĠPlac":6870,"Ġpossessionem":6871,"ĠDon":6872,"Ġstudiis":6873,"Ġeur":6874,"ĠCarthag":6875,"Ġepistola":6876,"Sc":6877,"ĠLac":6878,"ariter":6879,"ĠBur":6880,"ancip":6881,"Ġdow":6882,"Ġdedi":6883,"Ġfesti":6884,"Ġreliquit":6885,"ĠFrancorum":6886,"Ġliberis":6887,"Ġdistrib":6888,"Ġistius":6889,"iew":6890,"Ġconsilia":6891,"Ġcomper":6892,"anes":6893,"Ġiudex":6894,"rb":6895,"ownload":6896,"Ġdicebat":6897,"Ġabiit":6898,"Ġservitut":6899,"Ġferri":6900,"Ġinquis":6901,"Ġdiscipulis":6902,"ĠEST":6903,"Ġrite":6904,"Ġducem":6905,"Ġrust":6906,"Ġdiscipuli":6907,"erer":6908,"uls":6909,"ĠHenrici":6910,"Ġmultitudinem":6911,"Ġexcommunic":6912,"rosanc":6913,"Ġveli":6914,"Ġclaud":6915,"Ġsole":6916,"PER":6917,"Ġvilla":6918,"ĠMen":6919,"ĠGab":6920,"Ġment":6921,"erii":6922,"Ġdiversa":6923,"Ġclaritatem":6924,"Ġaliqui":6925,"Ġmiles":6926,"ĠFor":6927,"Ġhostem":6928,"ĠSeptembris":6929,"IIae":6930,"Ġveteres":6931,"Ġampli":6932,"Ġsequuntur":6933,"uarum":6934,"Ġsimilitudinem":6935,"asd":6936,"ĠFebruarii":6937,"âĢĿ,":6938,"ĠTar":6939,"Ġecclesiastica":6940,"Ġnostras":6941,"Ġ39":6942,"Ġproelio":6943,"äº":6944,"ĠVes":6945,"lat":6946,"ĠMore":6947,"Ġsap":6948,"ĠBene":6949,"Ġdisciplina":6950,"ĠRespond":6951,"Ð²":6952,"uctus":6953,"veni":6954,"ĠCorpus":6955,"Ġvideretur":6956,"ĠBenedicti":6957,"Ġauctoritatem":6958,"Ġaa":6959,"Ġperag":6960,"Ġ45":6961,"Ġullum":6962,"Ġadversum":6963,"ubr":6964,"Ġimo":6965,"Ġmonasterio":6966,"Ġprincipia":6967,"itti":6968,"Ġservum":6969,"Ġintus":6970,"abimus":6971,"ĠImperii":6972,"dibus":6973,"Ġcontinet":6974,"Ġlep":6975,"ĠLipsiae":6976,"hus":6977,"Ġfree":6978,"Ġgrammat":6979,"Ġconvenire":6980,"Ġtheologiae":6981,"Ġcoron":6982,"Ġsuperst":6983,"Ġprecibus":6984,"Ġmetr":6985,"Ġvirgo":6986,"Ġquicumque":6987,"Ġpeccati":6988,"Ġmath":6989,"Ġaeternam":6990,"ineat":6991,"Ġdefer":6992,"Ġcondemn":6993,"Ġdescendit":6994,"Ġcorrig":6995,"Ġobiit":6996,"eu":6997,"Ġhabentes":6998,"Ġfragm":6999,"Ġimb":7000,"Ġegredi":7001,"Ġincarn":7002,"Ġconfus":7003,"apud":7004,"terius":7005,"terum":7006,"cunque":7007,"amentis":7008,"ĠSat":7009,"Ġcastig":7010,"ĠOpus":7011,"Ġadep":7012,"Quo":7013,"ĠMartini":7014,"Ġaegr":7015,"othecae":7016,"Ġinterfic":7017,"ĠChrys":7018,"Ġdimis":7019,"ĠProph":7020,"cat":7021,"Ġpietatis":7022,"Ġimaginem":7023,"ĠTestamentum":7024,"Ġnovem":7025,"Ġfecisti":7026,"Ġscientiae":7027,"ĠOratio":7028,"Ã¬":7029,"Ġmenses":7030,"Ġquartum":7031,"Ġ100":7032,"Ġlegimus":7033,"Ġimperatoris":7034,"ĠHanc":7035,"za":7036,"Ġtotus":7037,"Ġcredere":7038,"Ġaduers":7039,"amque":7040,"Ġliberum":7041,"Ġhujusmodi":7042,"Ġirac":7043,"Ġveloc":7044,"Ġscand":7045,"Ġcontend":7046,"tentrion":7047,"ĠCorp":7048,"Ġsancte":7049,"alli":7050,"scrib":7051,"Ġyou":7052,"ĠPres":7053,"ĠEcc":7054,"Ġobsid":7055,"ipitur":7056,"ectorum":7057,"Ġmotum":7058,"Ġfratre":7059,"Ġdiscere":7060,"Ġcomplet":7061,"ĠScriptores":7062,"ĠNob":7063,"Ġsimile":7064,"Ġadiut":7065,"onumenta":7066,"ecus":7067,"Ġconss":7068,"Ġdetra":7069,"Ġoptimum":7070,"ĠLatinae":7071,"Ġpopul":7072,"ĠHerc":7073,"Ġattinet":7074,"acul":7075,"ĠJus":7076,"ĠEcclesiÃ¦":7077,"tatibus":7078,"Ġsecur":7079,"ordia":7080,"Ġlav":7081,"ott":7082,"Psal":7083,"ĠNatur":7084,"Ġabbas":7085,"Ġconsenti":7086,"Ġcresc":7087,"Ġparoch":7088,"Ġimpetr":7089,"ĠAdi":7090,"Franc":7091,"osis":7092,"Ven":7093,"Ġformas":7094,"entini":7095,"Ã¤":7096,"Ġfulg":7097,"erb":7098,"osus":7099,"Ġdubium":7100,"Secund":7101,"hac":7102,"Ġfactis":7103,"Ġpari":7104,"ĠVinc":7105,"Ġperi":7106,"Ġerroribus":7107,"ĠChristoph":7108,"ianus":7109,"Ġambi":7110,"Ġprist":7111,"ynam":7112,"Ġmonasterii":7113,"Ġosc":7114,"Ġrecenti":7115,"Ġliberos":7116,"Ġmisc":7117,"Ġpublicum":7118,"Ġpreces":7119,"Ġsaeculum":7120,"Ġtransf":7121,"Ġhistoriam":7122,"gg":7123,"Ġtyrann":7124,"arumque":7125,"Ġmillia":7126,"Epistula":7127,"Ġgesta":7128,"Ġmaximum":7129,"Ġobliv":7130,"Ġauri":7131,"Ġdeput":7132,"Ġpanis":7133,"agog":7134,"Ġxx":7135,"turum":7136,"Ġimpetus":7137,"ipublic":7138,"Ġduxit":7139,"Dominus":7140,"ĠOs":7141,"ĠLin":7142,"Ġfiliae":7143,"Ġthat":7144,"olym":7145,"yph":7146,"Ġpertinere":7147,"?\"":7148,"Ã®":7149,"VM":7150,"Ġrip":7151,"olaus":7152,"ĠAlexandr":7153,"ĠSpiritum":7154,"Ġnonne":7155,"Ġprogress":7156,"Ġiei":7157,"emque":7158,"ĠVi":7159,"Ġnovae":7160,"Ġnegotium":7161,"Ġsuad":7162,"Ġmix":7163,"Ġmaius":7164,"schema":7165,"ĠVULA":7166,"Ġge":7167,"Ġimperf":7168,"pra":7169,"ĠSacrae":7170,"ĠHum":7171,"iore":7172,"Ġpromiss":7173,"ĠIIII":7174,"Ġreserv":7175,"eantur":7176,"Ġmateri":7177,"Ġsect":7178,"Ġcircums":7179,"Ġheres":7180,"Ġpersonam":7181,"Ġgenti":7182,"arie":7183,"Ġoperum":7184,"Nos":7185,"ĠPaulo":7186,"vc":7187,"Ġanimalium":7188,"Ġmovet":7189,"Ġnotum":7190,"Ġaufer":7191,"Ġcapti":7192,"dec":7193,"Ġfui":7194,"Ġduces":7195,"Ġcommut":7196,"ĠCaroli":7197,"Ġvias":7198,"Ġiisdem":7199,"Ġauthor":7200,"ules":7201,"estatem":7202,"able":7203,"Î·":7204,"Ġstudia":7205,"Ġpraefecturae":7206,"Ġinterest":7207,"icia":7208,"Ġpert":7209,"quin":7210,"Ġadim":7211,"Ġvocavit":7212,"Ġplantarum":7213,"ĠSaul":7214,"icio":7215,"Ġlibere":7216,"Ġinterv":7217,"Ġepiscopum":7218,"ochi":7219,"man":7220,"Ġcharacter":7221,"Ġdioc":7222,"Ġtertiam":7223,"ĠDa":7224,"Ġpassus":7225,"Ġillumin":7226,"ĠNovi":7227,"aldus":7228,"Ġorg":7229,"Ġmonasterium":7230,"OT":7231,"Ġproximo":7232,"abilium":7233,"Ġiuss":7234,"Ġultima":7235,"itius":7236,"ĠRad":7237,"Ġaccessit":7238,".>":7239,"Ġdidic":7240,"Quaesti":7241,"propinqu":7242,"ebris":7243,"Ġaures":7244,"Index":7245,"Ġattrib":7246,"Ġmissus":7247,"ĠConstantin":7248,"Ġsapiens":7249,"acti":7250,"Ġsapientiam":7251,"ropter":7252,"phi":7253,"Ġamicus":7254,"ĠVirgo":7255,"LIC":7256,"allo":7257,"arit":7258,"ism":7259,"Ġ2016":7260,"natus":7261,"Ġurg":7262,"Ġiubet":7263,"Ġliberi":7264,"ĠDescrip":7265,"nox":7266,"Ġproficisc":7267,"Ġauxilio":7268,"Ġsemet":7269,"tÃ¦":7270,"verunt":7271,"Ġproper":7272,",[":7273,"Ġincorrup":7274,"Ġhym":7275,"haec":7276,"sec":7277,"ĠAstr":7278,"imenta":7279,"Ġtorm":7280,"idae":7281,"Ġsita":7282,"Ġfigura":7283,"Ġperturb":7284,",,":7285,"avisse":7286,"Ġdownload":7287,"Ġsecus":7288,"Ġgraecis":7289,"ĠCast":7290,"ĠConcilii":7291,"Ġpersever":7292,"Ġoption":7293,"Ġ44":7294,"ĠOper":7295,"Ġnotitia":7296,"Ġhiem":7297,"Ġhostis":7298,"Ġprovoc":7299,"unctis":7300,"ĠMagna":7301,"Ġdicant":7302,"Ġincred":7303,"Ġagro":7304,"Ġ[...].":7305,"cit":7306,"Ġfestin":7307,"Ġlegi":7308,"Ġdoct":7309,"Ġpetit":7310,".Â»":7311,"Ġcathed":7312,"ĠXVIII":7313,"Ġresid":7314,"ĠApp":7315,"ĠPub":7316,"apropter":7317,"Ġdebemus":7318,"Ġreligione":7319,"Ġsuppl":7320,"Ġtenebris":7321,"Ġcibo":7322,"Ġrenov":7323,"Ġpup":7324,"aturum":7325,"iturum":7326,"Ġcaritate":7327,"urb":7328,"Ġomnipotens":7329,"Ġartem":7330,"osi":7331,"Ġponit":7332,"eru":7333,"Ġinquir":7334,"ĠIncipit":7335,"amini":7336,"Ġausp":7337,"Ġgeneralis":7338,"XL":7339,"otam":7340,"ĠMol":7341,"Ġcontinuo":7342,"Ġdigna":7343,"Ġcredo":7344,"Ġintim":7345,"Ġsiquidem":7346,"Ġcomplectitur":7347,"Ġorigin":7348,"ĠPrimus":7349,"Ãłm":7350,"Ġinfern":7351,"Ġpropinqu":7352,"ĠDam":7353,"Ġmob":7354,"Ġcentur":7355,"trah":7356,"Ġformae":7357,"Ġnativ":7358,"ĠMarty":7359,"erique":7360,"Ġsubscrip":7361,"Ġunc":7362,"Ġdepon":7363,"Ecce":7364,"Ġperegrin":7365,"omi":7366,"Ġsacerdotum":7367,"Ġexpugn":7368,"Ġgraece":7369,"ades":7370,"icul":7371,"Ġactionem":7372,"ence":7373,"Ġistum":7374,"neque":7375,"ĠMarcus":7376,"Ġcaritas":7377,"Ġoeconom":7378,"Ġintellectum":7379,"Ġcomput":7380,"Ġtertius":7381,"pote":7382,"Ġpotentiam":7383,"Ġdesper":7384,"anarum":7385,"ĠTusc":7386,"cn":7387,"ĠConv":7388,"Ġaccipit":7389,"Ġvice":7390,"ĠAristotelis":7391,"ĠDan":7392,"Ġneminem":7393,"edem":7394,"Ġhae":7395,"Ġmandata":7396,"Ġinform":7397,"ĠArc":7398,"ĠDu":7399,"Comment":7400,"aturus":7401,"Ġscriptores":7402,"Ġpre":7403,"Ġlibertate":7404,"Ġtanti":7405,"ĠApostolica":7406,"Ġnecessario":7407,"Ġsubstanti":7408,"Ġperdit":7409,"ĠBoh":7410,"ĠCu":7411,"Ġdabit":7412,"esserunt":7413,"Ġpern":7414,"Ġsuarum":7415,"Ġantiqua":7416,"lix":7417,"ĠCre":7418,"Ġnovam":7419,"Ġpraesenti":7420,"Bibli":7421,"Ġindice":7422,"der":7423,"ament":7424,"ĠLX":7425,"Ġoppugn":7426,"ectionibus":7427,"ioribus":7428,"quot":7429,"Domine":7430,"Ġpalam":7431,"ĠDn":7432,"Ġhttp":7433,"ester":7434,"Ġpromp":7435,"Ġproximum":7436,"Ġpariet":7437,"Ġsuus":7438,"ĠAmbros":7439,"fus":7440,"ĠMod":7441,"Ġdest":7442,"Ġuxore":7443,"Ġspatio":7444,"ĠOx":7445,"Ġmillesimo":7446,"Ġabi":7447,"Vol":7448,"iora":7449,"illis":7450,"Ġdicatur":7451,"Ġfideliter":7452,"Ġtenere":7453,"ä¸":7454,"Ġcaritatis":7455,"Ġhaberi":7456,"Ġprael":7457,"Ġhabitu":7458,"Ġbrevis":7459,"ĠRog":7460,"ĠDenique":7461,"Ġpacto":7462,"ĠLong":7463,"ĠMartyr":7464,"Ġcontinetur":7465,"Ġcontinens":7466,"Ġvoces":7467,"LA":7468,"Ġvag":7469,"Ġiu":7470,"Ġnex":7471,"Ġ41":7472,"Ġmandatum":7473,"Ġtel":7474,"Ġsupersunt":7475,"ĠBeth":7476,"Ġpublicis":7477,"Ġdevo":7478,"ĠVeter":7479,"ĠMediol":7480,"ĠConfess":7481,"anensis":7482,"Ġtestes":7483,"Ġexercituum":7484,"turis":7485,"Ġmendac":7486,"ysi":7487,"Ġauctoritas":7488,"Ġultimum":7489,"Ġconduc":7490,"Ġsinc":7491,"ĠRos":7492,"ĠIgn":7493,"alitas":7494,"Ðº":7495,"utam":7496,"Ġrig":7497,"Ġpretios":7498,"Ġamicos":7499,"Nemo":7500,"ĠOmnium":7501,"umn":7502,"ĠAtheni":7503,"ĠHomin":7504,"ĠCiceronis":7505,"ĠProfess":7506,"Ġquaecumque":7507,"Ġpotuerunt":7508,"editur":7509,"enia":7510,"Ġuis":7511,"Ġlegum":7512,"Ġquinto":7513,"Ġcrucis":7514,"Ġreb":7515,"Ġappareat":7516,"Ġreddere":7517,"Ġcuique":7518,"Ġieiun":7519,"erta":7520,"Ġpropriam":7521,"RE":7522,"Ġtak":7523,"Ġapparuit":7524,"Ġcerv":7525,"Ġfaciendum":7526,"Ġpign":7527,"elem":7528,"uerant":7529,"Ġparentes":7530,"eci":7531,"ipe":7532,"Ġadvoc":7533,"ecr":7534,"ĠXXII":7535,"Ġcepit":7536,"Ġdistingu":7537,"CAP":7538,"Ġcognoscere":7539,"ĠÏĦ":7540,"Ġpess":7541,"Ġcorporum":7542,"Ġtabulis":7543,"Ġrum":7544,"ĠsuÃ¦":7545,"Ġquaestiones":7546,"ĠAC":7547,"Ġoccasione":7548,"ĠGregorius":7549,"iturus":7550,"Ġconsules":7551,"Ġplurima":7552,"ĠBurg":7553,"ĠAene":7554,"Ġincom":7555,"Ġ2017":7556,"ĠAnim":7557,"anea":7558,"Ġplebis":7559,"ĠFilio":7560,"Ġvert":7561,"mae":7562,"Ġpref":7563,"tric":7564,"ffer":7565,"Ġcommunem":7566,"Ġstyle":7567,"Ġdicis":7568,"Ġnihilo":7569,"Ġuniversi":7570,"Scrip":7571,"elch":7572,"Ġ42":7573,"eccles":7574,"Ġinvenitur":7575,"ago":7576,"Ġsacrificium":7577,"Ġteg":7578,"Ġsort":7579,"Ġrepugn":7580,"Ġfortis":7581,"Ġregibus":7582,"ĠCaec":7583,"ĠJesum":7584,"Ġcontradic":7585,"Ġpoenam":7586,"ĠTractatus":7587,"ĠPatrum":7588,"ĠUniversitatis":7589,"ster":7590,"ĠAlt":7591,"Ġmaiestatis":7592,"Id":7593,"ittam":7594,"Ġexemp":7595,"Ġhabitum":7596,"Ġcolloqu":7597,"Ġmemin":7598,"Ġmelior":7599,"Ġsinguli":7600,"Ġgaudio":7601,"orld":7602,"Ġfrum":7603,"Ġdolo":7604,"iderit":7605,"Ġfaciant":7606,"fica":7607,"Ġaeterna":7608,"ĠSecundo":7609,"cfr":7610,"Ġceteri":7611,"Ġquolibet":7612,"Ġreput":7613,"ebitur":7614,"Ġfalsum":7615,"ĠIunii":7616,"ĠQuorum":7617,"><":7618,"ende":7619,"Ġputamus":7620,"ĠLIB":7621,"uitur":7622,"htt":7623,"Ġexamin":7624,"Ġfung":7625,"biter":7626,"Ġuter":7627,"ĠprÃ¦dic":7628,"Ã´":7629,"Ġvon":7630,"ĠAgrip":7631,"Par":7632,"Ġelabor":7633,"Ġorator":7634,"ĠScripturae":7635,"Ġindustria":7636,"TOR":7637,"Quia":7638,"ĠGoth":7639,"Ġpraeclar":7640,"Ġcivitatibus":7641,"Ġlegati":7642,"Ġscit":7643,"Ġbov":7644,"Ġmagnitudine":7645,"Ġiracund":7646,"anta":7647,"OMIN":7648,"Ġdemonst":7649,"Ġorigine":7650,"Ġsanguis":7651,"ĠDio":7652,"Ġcrit":7653,"Ġimposs":7654,"Ġimmort":7655,"Ġequitum":7656,"ĠTo":7657,"Ġferv":7658,"Ġdiligentia":7659,"ĠUtrum":7660,"anz":7661,"ĠMem":7662,"Ġstir":7663,"ĠPontificis":7664,"decim":7665,"tax":7666,"ĠStet":7667,"tatus":7668,"ienter":7669,"ennium":7670,"Ġtrit":7671,"Ġvob":7672,"Ġdiscret":7673,"Ġtypis":7674,"ĠPrÃ¦":7675,"ĠMatr":7676,"iva":7677,"ĠNisi":7678,"ĠTiber":7679,"LE":7680,"ĠSancta":7681,"Ġinteger":7682,"Ġdixerit":7683,"ĠPhilippi":7684,"Ġconsuetudinem":7685,"Ġconsum":7686,"Ġdiut":7687,"Ġpate":7688,"rus":7689,"ipidis":7690,"ment":7691,"Ġfertur":7692,"Nihil":7693,"Ġcustodi":7694,"Ġnequaquam":7695,"Ġpages":7696,"Ġdoctus":7697,"Ġcircumd":7698,"ectos":7699,"Ġtestis":7700,"ego":7701,"igit":7702,"Ġnequit":7703,"Ġseptimo":7704,"Ġforis":7705,"ogit":7706,"Ġcontemn":7707,"Ġhumanitatis":7708,"Ġago":7709,"ĠGre":7710,"Ġofficii":7711,"Ġfidelis":7712,"ĠEpic":7713,"Ġaus":7714,"atil":7715,"Ġtet":7716,"Ġecclesiis":7717,"ĠAlexander":7718,"Ġinterdic":7719,"ĠEpistola":7720,"Ġparva":7721,"Ġcerti":7722,"ode":7723,"Ġnimirum":7724,"Ġduorum":7725,"ham":7726,"Ġpertr":7727,"Ġsolem":7728,"occ":7729,"Ġcontrarium":7730,"Ġfrug":7731,"Ver":7732,"ĠIohannes":7733,"nem":7734,"Ġlicentia":7735,"Ġnaturali":7736,"Ġexor":7737,"Ġhereditatem":7738,"atenus":7739,"Ġcaed":7740,"ĠHieros":7741,"Ġatting":7742,"Ġquali":7743,"iab":7744,"Num":7745,"icere":7746,"UNT":7747,"Ġpatern":7748,"Ġcontraria":7749,"ĠOrig":7750,"åĪ":7751,"ĠSion":7752,"Ġqualiter":7753,"ĠCn":7754,"eld":7755,"berti":7756,"Ġdecet":7757,"Ip":7758,"ection":7759,"Ãª":7760,"ĠReli":7761,"Ġaquas":7762,"Ġamo":7763,"Ġvultus":7764,"Ġhorr":7765,"Ġtub":7766,"Ġbal":7767,"Ġlate":7768,"ĠAaron":7769,"ipublicae":7770,"Ġpopulis":7771,"ĠQuando":7772,"ĠNovum":7773,"ring":7774,"Ġfacultatem":7775,"Ġexpr":7776,"Ġsalus":7777,"Ġ43":7778,"Ġsigno":7779,"ĠPontifex":7780,"Ġinterm":7781,"ĠHebrae":7782,"Hab":7783,"Ġpav":7784,"ĠMea":7785,"IBUS":7786,"Ġstudiorum":7787,"Ġintegre":7788,"Ġapostolorum":7789,"RIS":7790,"Ġintu":7791,"Ġpoterant":7792,"Ġhumanum":7793,"Ġesto":7794,"Ġnotare":7795,"Ġnoctem":7796,"Ġsyll":7797,"Ġoporteat":7798,"ĠGuill":7799,"Ġros":7800,"ĠAnte":7801,"Le":7802,"Ġutinam":7803,"Ġfesto":7804,"ĠNat":7805,"erae":7806,"Ġpromov":7807,"Ġabstin":7808,"ĠDef":7809,"Ġcorporibus":7810,"ĠIacobi":7811,"Ġreperi":7812,"Ġessentia":7813,"Ġrepente":7814,"atiae":7815,"icÃ¦":7816,"Ġconsue":7817,"Ġassid":7818,"Ġvitia":7819,"ĠCH":7820,"alc":7821,"Ġaetas":7822,"anitas":7823,"Ġveteris":7824,"pond":7825,"Ġrepraesent":7826,"Ġlongius":7827,"Ter":7828,"Ġobcaecati":7829,"Ġsuscepit":7830,"Ġtransfer":7831,"ymp":7832,"ĠHuius":7833,"ĠVidetur":7834,"Ġvocat":7835,"Ġanimalia":7836,"ercit":7837,"Ġaffic":7838,"Ġmathemat":7839,"Ġhabebant":7840,"Ġagens":7841,"eus":7842,"Ġforet":7843,"Ġlacr":7844,"Ġmos":7845,"son":7846,"Ġlibr":7847,"tram":7848,"Ġaetatem":7849,"imento":7850,"Ġdeliber":7851,"ĠPel":7852,"Ġlen":7853,"utae":7854,"Ġpauca":7855,"ĠLXX":7856,"Ġmasc":7857,"Ġquandoque":7858,"ĠJos":7859,"Ġauribus":7860,"zim":7861,"abilibus":7862,"Ġimmut":7863,"Ġbrach":7864,"Ob":7865,"itudines":7866,"Ġcuiusque":7867,"ĠHispania":7868,"Sal":7869,"ĠÃ¦ter":7870,"Âº":7871,"ĠChristiani":7872,"Ġnimium":7873,"Ġangelus":7874,"Ġabl":7875,"Ġassump":7876,"Ġgeograph":7877,"ĠVos":7878,"essu":7879,"Ġimago":7880,"ĠSacra":7881,"ĠRic":7882,"aphys":7883,"Ġful":7884,"ĠAuctor":7885,"Ġsenatum":7886,"Ġintegrum":7887,"Ġbreviter":7888,"ĠEus":7889,"averint":7890,"Ġfalsa":7891,"Ġinclus":7892,"ĠGloria":7893,"ood":7894,"Ġdivino":7895,"eius":7896,"ĠHas":7897,"ĠSyst":7898,"Ġprimae":7899,"Ġasser":7900,"Ġhyp":7901,"Ġemin":7902,"Ġducis":7903,"rat":7904,"Ġaquis":7905,"Ġnobiscum":7906,"udo":7907,"Ġmultae":7908,"Ġcognitionem":7909,"vert":7910,"Ġrespici":7911,"Ġvisus":7912,"Ġhol":7913,"Ġlacrim":7914,"ĠRich":7915,"ĠÂ§.":7916,"Ġmagistri":7917,"Ġparticul":7918,"ej":7919,"Ġgenuit":7920,"eric":7921,"Ġanimas":7922,"ĠAM":7923,"Ġsermones":7924,"Ġprudentia":7925,"uissent":7926,"Ġcopiis":7927,"Ġperfecta":7928,"exus":7929,"ĠVind":7930,"Ġfix":7931,"ĠTen":7932,"Ġpraesentia":7933,"Ġeosdem":7934,"Ġproinde":7935,"voc":7936,"ĠGraeca":7937,"quebatur":7938,"Ġvictoria":7939,"Ġpuerum":7940,"ĠEucharis":7941,"Ġaquil":7942,"rad":7943,"ĠEli":7944,"Ġmagnitudinem":7945,"Ġpotestatis":7946,"ĠPhys":7947,"Ġnaves":7948,"Ġmeritis":7949,"Ġinl":7950,"Ġwelch":7951,"Vir":7952,"ĠRegem":7953,"Ġhaeres":7954,"ĠMCM":7955,"Ġgens":7956,"Ġfasc":7957,"ĠMont":7958,"ĠMaur":7959,"ĠBasile":7960,"ĠTurc":7961,"Gen":7962,"Ġaucta":7963,"Ġtantam":7964,"NI":7965,"Ġvendit":7966,"ĠSedis":7967,"onos":7968,"text":7969,"Ġconfund":7970,"Ġaquarum":7971,"Ġpraecipit":7972,"Ġpulchr":7973,"pendium":7974,"Ġlegatos":7975,"Ġingens":7976,"ĠLig":7977,"Ġregnavit":7978,"ĠOR":7979,"Ġplurimis":7980,"Ġseptu":7981,"Ġmora":7982,"post":7983,"Ġfecisse":7984,"emiae":7985,"Ġprofer":7986,"ĠProb":7987,"Ġmutationem":7988,"iph":7989,"Ġnovis":7990,"Ġnobilis":7991,"Ġtomus":7992,"ĠEg":7993,"ogen":7994,"Ġpraesidium":7995,"Ġiudicia":7996,"Ġtimor":7997,"ĠThis":7998,"Ġmic":7999,"ILI":8000,"ueret":8001,"Ġeditum":8002,"encia":8003,"Ġpene":8004,"eritas":8005,"Ġludus":8006,"enob":8007,"Ġvino":8008,"Ġmeorum":8009,"alitate":8010,"Ġ48":8011,"ĮĹ":8012,"ĠHannib":8013,"Ġpecuniae":8014,"ĠGermania":8015,"ĠST":8016,"Ġmortuis":8017,"Ġdetraxit":8018,"acis":8019,"ĠPass":8020,"Ġpopulos":8021,"etas":8022,"onsul":8023,"ID":8024,"Ġmanifestum":8025,"Ġconvoc":8026,"./":8027,"Ġactione":8028,"Ġecclesiarum":8029,"Ġtantummodo":8030,"Ġimmol":8031,"ĠHil":8032,"ĠPresbyter":8033,"borum":8034,"Ġmajor":8035,"Mat":8036,"Ġcultus":8037,"Ġpart":8038,"adi":8039,"ĠScoti":8040,"ĠMort":8041,"ĠReges":8042,"Ġtestamentum":8043,"ĠIulius":8044,"Ġioc":8045,"Ġmomenti":8046,"Ġneglig":8047,"Ġpraecepit":8048,"ings":8049,"Ġutitur":8050,"otes":8051,"Ġpersonarum":8052,"Acc":8053,"Ġadop":8054,"Is":8055,"äº¬":8056,"alitatem":8057,"icium":8058,"Ġsocietatis":8059,"Ġconventus":8060,"ĠPrael":8061,"ongo":8062,"Ġterrestr":8063,"Ġuxoris":8064,"Ġaudivit":8065,"Ġsimiles":8066,"Ġfecerat":8067,"iano":8068,"Ġmandamus":8069,"Ġvidemus":8070,"ibili":8071,"sump":8072,"Ġincrem":8073,"yt":8074,"Ġputa":8075,"Ġmontibus":8076,"Ġpretio":8077,"Ġiustum":8078,"ĠGoogle":8079,"Ïī":8080,"Ġconfid":8081,"Ġmorum":8082,"Ġherb":8083,"ĠMonaster":8084,"picit":8085,"ks":8086,"Ġillae":8087,"Ps":8088,"Ġapostolica":8089,"Ġeris":8090,"Ġopes":8091,"Ġdicendi":8092,"Ġsigni":8093,"ĠBell":8094,"ka":8095,"Ġomnesque":8096,"Ġconver":8097,"Corpus":8098,"Ġcarmina":8099,"Ġdomos":8100,"Ġpersuas":8101,"Page":8102,"Ġuniversum":8103,"ĠPaul":8104,"Ġdivinis":8105,"peret":8106,"Ġterre":8107,"Ġabhor":8108,"ĠScriptorum":8109,"Ġceleberr":8110,"Ġutilitatem":8111,"ĮĹäº¬":8112,"Ġfus":8113,"Ġnoctur":8114,"raverunt":8115,"Ġconsuetudine":8116,"Ġset":8117,"Ġvestram":8118,"ĠQuaestiones":8119,"gressus":8120,"Ġgradum":8121,"ford":8122,"hinc":8123,"ĠScientiarum":8124,"Ġquing":8125,"ĠSecundus":8126,"gno":8127,"Ġveram":8128,"ĠMei":8129,"uxerunt":8130,"aeo":8131,"Ġhonori":8132,"allus":8133,"Ġornatus":8134,"Ġsignis":8135,"ĠWal":8136,"ĠChristianorum":8137,"Ġapostolus":8138,"Ġcli":8139,"Ġdomn":8140,"Ġapostoli":8141,"uribus":8142,"Ġparentibus":8143,"Ġinstituta":8144,"Ġvester":8145,"Ġphilosophi":8146,"ĠBenedictus":8147,"Ġaffectus":8148,"ĠAntiqu":8149,"ensio":8150,"Ġquaerere":8151,"Ġequites":8152,"Ġcontumeli":8153,"Ġnoli":8154,"ellarum":8155,"Ġsimilia":8156,"Ġcense":8157,"imata":8158,"Ġcooper":8159,"Ġcrudel":8160,"inensis":8161,"sub":8162,"Ġiusta":8163,"Ġjub":8164,"etarum":8165,".).":8166,"ĠPL":8167,"Ġcivilis":8168,"Ġpetere":8169,"Ġsord":8170,"Ġiussu":8171,"thol":8172,"Ġpositum":8173,"Ġquaest":8174,"Ġoccident":8175,"out":8176,"Luc":8177,"ĠPtol":8178,"Ġpraeceptum":8179,"Ġtoler":8180,"ĠAmericae":8181,"ĠHar":8182,"Ġintegr":8183,"Ġlinea":8184,"Ġparc":8185,"Ġnecessitas":8186,"Ġinvis":8187,"Ġpossis":8188,"ĠEo":8189,"issimas":8190,"Ġegressus":8191,"Ġingenii":8192,"Ġtend":8193,"ĠMir":8194,"Ġdefinitionem":8195,"ullum":8196,"Tu":8197,"Ġkasd":8198,"ĠTom":8199,"ometr":8200,"Ġcetero":8201,"Ġfacil":8202,"Ġaliena":8203,"Ġinstar":8204,"Ġram":8205,"Ġoris":8206,"Ġministerium":8207,"itutum":8208,"Ġundec":8209,"ĠVers":8210,"ĠMarch":8211,"Ġgrand":8212,"ĠPraedic":8213,"Ġvestrae":8214,"TIT":8215,"Ġconfic":8216,"Ġmortui":8217,"Ġdissert":8218,"fo":8219,"Ġinuti":8220,"Ġgoth":8221,"ĠLuth":8222,"Ġvenisset":8223,"andri":8224,"Ġabscond":8225,"Ġomitt":8226,"Ġiun":8227,"Ġfabulas":8228,"Ġlinguis":8229,"Ġsepulc":8230,"Ġadolesc":8231,"Ġnic":8232,"essa":8233,"Conc":8234,"oniensis":8235,"Ġexac":8236,"Sch":8237,"This":8238,"ĠTor":8239,"Ġproxima":8240,"Ġhar":8241,"secund":8242,"Ġcommentariis":8243,"Ġdignus":8244,"ĠAP":8245,"Ġmatre":8246,"Ġpoti":8247,"ĠNicolai":8248,"Ġpropheta":8249,"Ġlegitime":8250,"ĠEpistolae":8251,"ĠGraecae":8252,"Sp":8253,"ĠGeorgius":8254,"Ġdeleg":8255,"Ġamicum":8256,"TION":8257,"Prae":8258,"Ġjudicium":8259,"Ġpugna":8260,"Ġinfid":8261,"Ġrenunti":8262,"Ġerig":8263,"ĠAfrica":8264,"Ġgestis":8265,"Ġreligionem":8266,"Ġdecreto":8267,"Ġsid":8268,"ĠBor":8269,"undis":8270,"Ġcultum":8271,"terr":8272,"Ġfiet":8273,"antius":8274,"Ġquendam":8275,"Ġtenuit":8276,"Ġcrucem":8277,"Ġextremum":8278,"Ġoccidit":8279,"ardum":8280,"ĠPont":8281,"ĠEvangelium":8282,"Ġargentum":8283,"ymph":8284,"Ġsanctam":8285,"Ġeditio":8286,"Ġconveni":8287,"Ġserp":8288,"ĠRub":8289,"Ġelectus":8290,"Ġjac":8291,"Ġimmin":8292,"Ġarbitrio":8293,"otan":8294,"Ġvixit":8295,"levit":8296,"Ġlongum":8297,"Ġfacer":8298,"Ġever":8299,"Ġoppon":8300,"Ġferro":8301,"Ġtakimata":8302,"Ġutile":8303,"http":8304,"Ġvobiscum":8305,"iori":8306,"Ġens":8307,"ucid":8308,"Ġremans":8309,"Ġexemplar":8310,"Ġphilosophus":8311,"inio":8312,"Ġiras":8313,"Ġconsump":8314,"Ġlitterae":8315,"ĠAntonio":8316,"Ġ49":8317,"Ġunitate":8318,"ĠHac":8319,"Ġpropin":8320,"ĠterrÃ¦":8321,"Ġferunt":8322,"Ġpopulorum":8323,"ialibus":8324,"ATION":8325,"Ġvisa":8326,"ĠHÃ¦c":8327,"Ġrecepit":8328,"Ġanimis":8329,"Ġpulcherr":8330,"Ġcibum":8331,"entiÃ¦":8332,"Ġobj":8333,"ĠAlexandri":8334,"escat":8335,"Ġquaeso":8336,"ck":8337,"Ġspoli":8338,"Ġfierent":8339,"Ġsinistr":8340,"Ġingenium":8341,"ĠHispaniae":8342,"ĠInnoc":8343,"Ġvidisse":8344,"QUE":8345,"Ġ60":8346,"Ġpuella":8347,"Ġconson":8348,"ivid":8349,"Ġpersonis":8350,"Ġoves":8351,"Ġponitur":8352,"ĠGregorii":8353,"Ġ46":8354,"Ġegit":8355,"Ġprosper":8356,"elo":8357,"Ġpdf":8358,"ĠTrident":8359,")]":8360,"aldi":8361,"Ġmanuscrip":8362,"ĠPropter":8363,"Ġrecit":8364,"UD":8365,"Ġinstr":8366,"Ġsubstantiam":8367,"ĠĠĠĠĠĠĠĠĠĠĠ":8368,"imini":8369,"Ġclav":8370,"BUS":8371,"Ġreced":8372,"Ġauctores":8373,"ger":8374,"Ġdisciplinam":8375,"Ġevid":8376,"elmo":8377,"dixit":8378,"ĠIllud":8379,"Ġregionem":8380,"Ġdescriptio":8381,"PR":8382,"ĠMoyses":8383,"Ġannunti":8384,"ĠExplic":8385,"ova":8386,"Sac":8387,"Ġquaeritur":8388,"Ġcopias":8389,"ues":8390,"ĠVig":8391,"ĠTam":8392,"ibilia":8393,"Ġmulierem":8394,"add":8395,"Ġdii":8396,"Ġillustrata":8397,"ĠĠĠĠĠĠĠĠĠĠ":8398,"Ġbi":8399,"Ġutpote":8400,"naeus":8401,"emum":8402,"gredi":8403,"Ġfrequenter":8404,"bant":8405,"Un":8406,"rammat":8407,"Ġdifficile":8408,"Ġars":8409,"ĠMAR":8410,"ĠPlant":8411,"ĠConsequ":8412,"Ġsexto":8413,"Ġregionis":8414,"Ġfunc":8415,"ĠTemporibus":8416,"TUS":8417,"Ġiv":8418,"Ġvota":8419,"Ġtranqu":8420,"ove":8421,"Ġsingulorum":8422,"ĠCatil":8423,"Ġrespectu":8424,"eder":8425,"Ġimagin":8426,"Ġparo":8427,"Ġputat":8428,"ĠMagister":8429,"Ġci":8430,"eries":8431,"ĠConcilium":8432,"Ġregina":8433,"UC":8434,"inium":8435,"stitu":8436,"initatis":8437,"ĠÃ³":8438,"Ġiudici":8439,"Ġopusc":8440,"ĠMM":8441,"Ġideoque":8442,"Ġconcili":8443,"ĠWest":8444,"Ġconsulatu":8445,"Ġlumine":8446,"Ġadn":8447,"Ġsustent":8448,"Ġpietate":8449,"Ġvirginis":8450,"Ġdeterr":8451,"uad":8452,"Ġartibus":8453,"ĠImperator":8454,"]:":8455,"exi":8456,"Ġdoming":8457,"ĠEtenim":8458,"Ġstatuit":8459,"prae":8460,"Ġcultu":8461,"erto":8462,"ensu":8463,"ĠLexicon":8464,"ĠAem":8465,"Ġposterum":8466,"Ġpraesidio":8467,"assent":8468,"Ġusurp":8469,"ĠHispani":8470,"Ġeuripidis":8471,"ĠÃĨgyp":8472,"Ġ47":8473,"ĠStephani":8474,"ĠDicit":8475,"igr":8476,"âĢŀ":8477,"Ġcontrah":8478,"Ġregiones":8479,"Ġlegiones":8480,"Ġdocendi":8481,"Ġpub":8482,"Ġconsili":8483,"ĠTol":8484,"ĠPostea":8485,"Ġobscur":8486,"atig":8487,"igen":8488,"tata":8489,"Class":8490,"Ġtitle":8491,"Ġincolum":8492,"ulerit":8493,"Ġtemere":8494,"ematis":8495,"Ġaliisque":8496,"Ġquocumque":8497,"Ġnegotio":8498,"Ġcatholica":8499,"ĠLeon":8500,"ĠTerra":8501,"agesimo":8502,"ĠMissa":8503,"ĠHispan":8504,"ĠBeatae":8505,"ĠIlli":8506,"Ġconscientia":8507,"Ġlatus":8508,"udit":8509,"Ġpauci":8510,"allum":8511,"amma":8512,"ĠQuos":8513,"ĠPomp":8514,"ĠMercur":8515,"XC":8516,"Ġbeneficio":8517,"Ġvenerit":8518,"ĠPoloniae":8519,"NO":8520,"lice":8521,"acensis":8522,"ĠĠĠĠĠĠĠĠĠ":8523,"averis":8524,"Ġdecretum":8525,"BER":8526,"ĠDI":8527,"yb":8528,"Ġsupp":8529,"ISS":8530,"Ġaedibus":8531,"Ġveritus":8532,"Ġpertinax":8533,"Ġbeatum":8534,"Ġtard":8535,"struc":8536,"Ġcrimen":8537,"Ġwas":8538,"erium":8539,"Ġfals":8540,"Ġmaiore":8541,"ultatis":8542,"anÃ¦":8543,"aces":8544,"Ġreversus":8545,"alum":8546,"ÃŃn":8547,"iliam":8548,"Ġdiutius":8549,"issus":8550,"Ġquaerit":8551,"Ġportam":8552,"Ġaem":8553,"hem":8554,"Ġdono":8555,"Ġconiung":8556,"oncili":8557,"Ġiniquitatem":8558,"Ġcircuitu":8559,"lev":8560,"Ġinquantum":8561,"Ġeiusmodi":8562,"Ġcoeperunt":8563,"estia":8564,"Ġtestamento":8565,"Ġnumquid":8566,"Ġamat":8567,"Ġeorumque":8568,"Ġmagistratus":8569,"hetor":8570,"log":8571,"Ġrud":8572,"Cic":8573,"Ġperfecto":8574,"Ġservos":8575,"Ġconspic":8576,"Ġnascitur":8577,"ĠNO":8578,"fam":8579,"Ġinfam":8580,"ĠColum":8581,"cm":8582,"Ġvitium":8583,"Ġpuls":8584,"quem":8585,"ĠCeterum":8586,"Ġodium":8587,"Ġveris":8588,"Ġamen":8589,"Ġagri":8590,"Ġpernici":8591,"Ġhumanis":8592,"his":8593,"ĠIr":8594,"Ġartium":8595,"ĠOn":8596,"Ġdein":8597,"ĠApostoli":8598,"Ġgraviter":8599,"note":8600,"phem":8601,"Ġtollit":8602,"Sa":8603,"emini":8604,"Ġextit":8605,"Ġcatholicae":8606,"Ġtractatus":8607,"ectura":8608,"ĠPag":8609,"ĠVenetiis":8610,".âĢĻ":8611,"Ġindoc":8612,"Ġancillae":8613,"Ġoccis":8614,"ĠMichaelis":8615,"Ev":8616,"Ġconstituta":8617,"ĠAntonii":8618,"Ġps":8619,"Ġmazim":8620,"ĠParisiis":8621,"Ġintellegebat":8622,"Ġauxili":8623,"escunt":8624,"annis":8625,"Ġfornic":8626,"ĠPapae":8627,"Ġliteris":8628,"Ġungu":8629,"sim":8630,"aeorum":8631,"Ġmilitiae":8632,"Ġiniuria":8633,"Coll":8634,"Ġgraeco":8635,"ĠDux":8636,"Ġoccurrit":8637,"ĠXXIII":8638,"Ġgothica":8639,"Ġprobat":8640,"ĠBeati":8641,"Ġlapide":8642,"sitan":8643,"Ġpraestare":8644,"ulatus":8645,"ĠUsu":8646,"Ġcreatura":8647,"auguralis":8648,"Ubi":8649,"Ġdioecesis":8650,"Ġaccepta":8651,"Ġvelim":8652,"Ġstare":8653,"Ġconsistit":8654,"Ġcastrum":8655,"Ġalleluia":8656,"ĠGeorgii":8657,"Ġvell":8658,"ĠOce":8659,"Ġcrucif":8660,"Ġaperiri":8661,"Ġperfectum":8662,"Ġcuria":8663,"Ġossa":8664,"Ġfeliciter":8665,"Ġfugi":8666,"Ġumb":8667,"Ġnovit":8668,"Ġobitum":8669,"ĠRegnum":8670,"ĠMariam":8671,"ĠhÃ¦":8672,"Ġcecidit":8673,"hes":8674,"Di":8675,"Ġtempt":8676,"Ġpi":8677,"Ġprosequ":8678,"Ġpotens":8679,"angelium":8680,"Ġaiunt":8681,"Ġsede":8682,"Ġexpetendis":8683,"Ġsollemn":8684,"Ġdexteram":8685,"Ġpresbiter":8686,"ĠNeap":8687,"Vulg":8688,"Ġdynam":8689,"Ġmissa":8690,"Ġimagines":8691,"Ġwhich":8692,"acione":8693,"Ġsimplex":8694,"Ġavar":8695,"Ġepiscoporum":8696,"ĠAegypto":8697,"Ġluna":8698,"Sunt":8699,"Ġvides":8700,"Ġsacerdotibus":8701,"Ġcorda":8702,"ĠAngeli":8703,"elam":8704,"ularium":8705,"Ġartes":8706,"Ġdecreta":8707,"Ġsedis":8708,"Ġlaus":8709,"Ġmaioribus":8710,"morum":8711,"rent":8712,"ĠSecunda":8713,"ĠXIX":8714,"ĠCL":8715,"Ġproelium":8716,"fol":8717,"Ġhabebit":8718,"ĠLut":8719,"emin":8720,"Ġspirit":8721,"Ġaeterno":8722,"Ġpropag":8723,"ARUM":8724,"Ġeditione":8725,"ĠLusit":8726,"ĠPisc":8727,"Ġbeneficium":8728,"Ġil":8729,"ĠCyp":8730,"Ġlegatus":8731,"Ġgravis":8732,"Ġdimic":8733,"Î³":8734,"ĠFratrum":8735,"ĠPRO":8736,"name":8737,"Â»,":8738,"Ġpacific":8739,"Ġignota":8740,"Ġepiscopis":8741,"ĠOrci":8742,"Ġdebeant":8743,"Ġta":8744,"Ġmancip":8745,"Ġvestro":8746,"Ġdiuers":8747,"ĠSocr":8748,"Ġff":8749,"Ġprav":8750,"Ġcasibus":8751,"eunte":8752,"Ġquotidie":8753,"ĠForm":8754,"Ġinventa":8755,"mas":8756,"Ġincip":8757,"Ġtalibus":8758,"Ġiustus":8759,"Ġtrec":8760,"Ġbonae":8761,"Ġiram":8762,"Ġfil":8763,"Ġmembr":8764,"Ġretro":8765,"Ġfen":8766,"Ġmateriae":8767,"aculi":8768,"ĠHeli":8769,"Ġdederunt":8770,"Ġfuere":8771,"cuius":8772,"ĠPan":8773,"Ġqc":8774,"rec":8775,"torium":8776,"Ġsenect":8777,"Ġfortunae":8778,"Ġacquir":8779,"Ġzz":8780,"Ġsacrum":8781,"titiae":8782,"ĠAugustus":8783,"Ġactiones":8784,"Ġope":8785,"ĠFuit":8786,"UB":8787,"ocaus":8788,"ublica":8789,"Ġpenes":8790,"?)":8791,"dix":8792,"Ġlucis":8793,"ATIO":8794,"alitatis":8795,"Ġservo":8796,"tavit":8797,"ĠFort":8798,"ĠIerusalem":8799,"XII":8800,"Ġsoror":8801,"edes":8802,"ĠEz":8803,"uros":8804,"vic":8805,"Ġpraesum":8806,"Ġcurae":8807,"idion":8808,"Ġfactae":8809,"Ġcommor":8810,"Ġ...;":8811,"Ġconsilii":8812,"ĠTib":8813,"TIS":8814,"Ġveniet":8815,"Ġconsulibus":8816,"Ġinh":8817,"Ġservis":8818,"ĠIoanne":8819,"Ġsue":8820,"ĠPrim":8821,"Ġpraetor":8822,"Ġquasdam":8823,"Ġfacias":8824,"Ġcognomin":8825,"Te":8826,"Ġsingulari":8827,"ophon":8828,"Ġexclud":8829,"ĠLugduni":8830,"Ġinimici":8831,"aedrum":8832,"Ġprodig":8833,"ĠScriptura":8834,"Ġopinionem":8835,"ĠCardinalis":8836,"Ġlaborem":8837,"vii":8838,"Ġpoeta":8839,"Itali":8840,"Ġpriusquam":8841,"hen":8842,"sol":8843,"ĠApostolus":8844,"eck":8845,"ez":8846,"tag":8847,"Ġnihilominus":8848,"Ġgentem":8849,"Ġoppress":8850,"Ġhosti":8851,"Ġinfl":8852,"Ġpatriarch":8853,"elit":8854,"Ġvini":8855,"Ġglorific":8856,"ittat":8857,"Ġcursu":8858,"Opera":8859,"Ġpurp":8860,"Ġnee":8861,"ĠPER":8862,"ĠAst":8863,"Ioannes":8864,"hn":8865,"ĠIsaac":8866,"Ġquidquam":8867,"Ġvasa":8868,"ĠRever":8869,"ĠAstronom":8870,"ĠMarci":8871,"Ġproxime":8872,"Ġinfinitum":8873,"Ġuterque":8874,"Ġabbatis":8875,"Aug":8876,"Î¯":8877,"Ġtemer":8878,"lc":8879,"Ġlog":8880,"Ġviderunt":8881,"Ġeor":8882,"Ġconu":8883,"Ġfemina":8884,"Aut":8885,"ĠMihi":8886,"Ġetenim":8887,"ologica":8888,"Ġortus":8889,"fe":8890,"qve":8891,"ĠSANC":8892,"ĠGali":8893,"the":8894,"Ġaciem":8895,"Ġuniversalis":8896,"ĠPyr":8897,"Ġsepulch":8898,"Ġmensibus":8899,"Ġfontem":8900,"Ġpresentibus":8901,"ossa":8902,"ĠGR":8903,"Ġpondus":8904,"Ġattend":8905,"Ġsepeli":8906,"ĠquÃłm":8907,"Ġincho":8908,"erna":8909,"Ġadnot":8910,"iplom":8911,"Ġlatina":8912,"Ġextend":8913,"Ġconstituto":8914,"></":8915,"trorum":8916,"huc":8917,"Ġmorbo":8918,"Ġvaleat":8919,"ĠOt":8920,"æĹ":8921,"Ġoperatur":8922,"Ġprocedit":8923,"ĠDist":8924,"Ġeloquentiam":8925,"ANT":8926,"Ġforum":8927,"rentur":8928,"ise":8929,"Ġcrass":8930,"Fac":8931,"Omnia":8932,"Ġconsiliis":8933,"Ġnonnulli":8934,"ĠSto":8935,"Ġnichil":8936,"Ġeruditi":8937,"Ġconstant":8938,"Ġzzril":8939,"Ġsingulas":8940,"Ġdecus":8941,"ĠXXI":8942,"Ġaeris":8943,"Ġcompetit":8944,"Ġdignitatis":8945,"Ġplerique":8946,"Ġducit":8947,"Ġsapientem":8948,"Ġ...,":8949,"Ġpaucos":8950,"Ġtempli":8951,"Dolor":8952,"Ġannus":8953,"Ġpaulatim":8954,"iebat":8955,"serit":8956,"ĠHierosolym":8957,"Ġcomitatu":8958,"ĠPhilippus":8959,"ĠJacobi":8960,"Ġmaximam":8961,"Ġlangu":8962,"Ġibique":8963,"bri":8964,"ĠLun":8965,"Ġbeata":8966,"ĠAmp":8967,"ĠHungariae":8968,"ĠJuda":8969,"fuit":8970,"Ġcertis":8971,"Ġlibertatis":8972,"Ġnonnullis":8973,"ĠDatum":8974,"Ġeram":8975,"Ġfoliis":8976,"ÌĢ":8977,"erio":8978,"Ġchristianae":8979,"ĠLatinorum":8980,"Ġcapere":8981,"Ġritu":8982,"Ġscripsi":8983,"ĠCaesari":8984,"inÃ¦":8985,"ophras":8986,"Ġumbra":8987,"ĠCongregationis":8988,"olast":8989,"ibil":8990,"Ġfinit":8991,"Ġpercipi":8992,"Ġpraeses":8993,"ĠVar":8994,"Ġfratri":8995,"Ġambo":8996,"Ġigni":8997,"Ġultro":8998,"ĠIur":8999,"ĠNorm":9000,"ultus":9001,"ĠEam":9002,"Ġreus":9003,"ĠAgripp":9004,"hr":9005,"ĠCC":9006,"100":9007,"Ġortum":9008,"ĠDÃ³mine":9009,"ĠSaec":9010,"nm":9011,"eriter":9012,"ĠProvincia":9013,"Ġpasch":9014,"Ġnegotiis":9015,"Ġspecul":9016,"Ġsufficit":9017,"ibit":9018,"Ġafflic":9019,"ĠAfric":9020,"Ġfastid":9021,"Ġhonoris":9022,"ĠPhilosophiae":9023,"Ġfru":9024,"Ġveniunt":9025,"alla":9026,"ĠLatini":9027,"ĠQuir":9028,"Ġdivinam":9029,"ĠFoederat":9030,"Ġconl":9031,"gnus":9032,"Ġverter":9033,"bit":9034,"ĠRuf":9035,"Ġservorum":9036,"ĠEP":9037,"Ġprovinciam":9038,"RIM":9039,"Ġnerv":9040,"Ġauf":9041,"ĠVictor":9042,"ĠRege":9043,"Idem":9044,"Ġhonores":9045,"Ġadmitt":9046,"Ġcollecta":9047,"Ġlegatum":9048,"ik":9049,"Ġdaret":9050,"Ġquaerendum":9051,"alm":9052,"ĠUrbe":9053,"ectibus":9054,"aciter":9055,"Ġeffug":9056,"ÄŃ":9057,"Incipit":9058,"Ġcapitulo":9059,"Ġmorem":9060,"hiop":9061,"atarum":9062,"Ġfugam":9063,"ĠvitÃ¦":9064,"Ġclaram":9065,"ĠViv":9066,"Ġipsas":9067,"Ġsequenti":9068,"unus":9069,"illus":9070,"Ġpercipit":9071,"ĠBatav":9072,"Ġconcilio":9073,"versus":9074,"Ġnolite":9075,"cas":9076,"Ġconcurr":9077,"Ġdissol":9078,"Ġcotidie":9079,"edum":9080,"tib":9081,"liv":9082,"Ġfons":9083,"ĠNicolaus":9084,"Ġacie":9085,"Ġostium":9086,"Ġamicitiam":9087,"igur":9088,"Ġsicuti":9089,"ĠChristianae":9090,"Ġbonam":9091,"Ġinimicos":9092,"Ġingenti":9093,"Ġevangel":9094,"ĠXXV":9095,"Ġrup":9096,"Ġjuv":9097,"Ġrectum":9098,"Ġflagit":9099,"Ġpromulg":9100,"Ġdynamicus":9101,"Ã³rum":9102,"Ġoffendit":9103,"ĠLudovicus":9104,"ĠLibr":9105,"ĠHistorica":9106,"Ġspecialiter":9107,"Ġmere":9108,"eras":9109,"Ġutero":9110,"icius":9111,"Ġnaturaliter":9112,"ĠMess":9113,"Ġquilibet":9114,"Ġargenti":9115,"Ġrequis":9116,"Ġliqu":9117,"Ġcuravit":9118,"Ġsimulac":9119,"Ġextant":9120,"Ġiustific":9121,"ĠScot":9122,"deb":9123,"atior":9124,"Ġdivini":9125,",/":9126,"Ġhy":9127,"Ġsolemn":9128,"Ġreconcili":9129,"Ġimperatorem":9130,"ĠThess":9131,"CCC":9132,"ĠEsse":9133,"Ġincol":9134,"Ġvivendum":9135,"gi":9136,"Ġmarit":9137,"Ġritus":9138,"Ġmontis":9139,"Ġhere":9140,"PL":9141,"ietis":9142,"Ġappellant":9143,"Ġmulieribus":9144,"Ġdicebant":9145,"ĠCarolo":9146,"Ġscripserit":9147,"Dissertatio":9148,"ight":9149,"Ġresponsum":9150,"nt":9151,"ĠÂ».":9152,"Ġnobili":9153,"Ġdivinum":9154,"ĠCOM":9155,"ĠIohannis":9156,"Ġindex":9157,"Ġorationes":9158,"ĠTrinitatis":9159,"Ġctetur":9160,"ĠTestamenti":9161,"Ġmagnae":9162,"erebant":9163,"Ġdid":9164,"Ġvisc":9165,"Ġfamilias":9166,"vere":9167,"Ġconcilium":9168,"Ġfluminis":9169,"Ġiisque":9170,"Ġfuturis":9171,"ank":9172,"Ġtextus":9173,"Ġheredes":9174,"Ġaccurate":9175,"Ġangeli":9176,"Historia":9177,"Ġpostremo":9178,"odami":9179,"Ġmatut":9180,"Ġbar":9181,"Ġponere":9182,"Ġquamdiu":9183,"Ġcomitis":9184,"Ġcursum":9185,"Ġretr":9186,"Ġsale":9187,"Ġdefinitiones":9188,"Ġindivid":9189,"git":9190,"Ġinclud":9191,"ĠNON":9192,"Ġcontentus":9193,"Ġutuntur":9194,"Ġcommiss":9195,"Ġrepar":9196,"Ġdifferentia":9197,"emit":9198,"Ġhabentur":9199,"Ġ55":9200,"ĠFratres":9201,"Ġappos":9202,"Ġmoritur":9203,"iales":9204,"ĠCompl":9205,"ĠJeh":9206,"ĠAlii":9207,"uno":9208,"lish":9209,"Ġaccedit":9210,"ĠMur":9211,"ĠBarthol":9212,"Ġstren":9213,"Ġhabuerit":9214,"ĠHuic":9215,"verb":9216,"Ġperhib":9217,"Ġterminos":9218,"inatis":9219,"ulch":9220,"Ġimpetu":9221,"Ġword":9222,"Ġregnat":9223,"ĠEpistulae":9224,"Ġscripto":9225,"Ġformid":9226,"Ġperitus":9227,"Ġbasil":9228,"Ġnas":9229,"Ġcredunt":9230,"Ġqv":9231,"Ġero":9232,"Ġdebitum":9233,"Ġmiserere":9234,"Ġholocaus":9235,"Ġessem":9236,"Ġmaximo":9237,"UND":9238,"eria":9239,"Ġcos":9240,"utionis":9241,"116":9242,"Ġexar":9243,"elio":9244,"Ġmutat":9245,"Ġpatitur":9246,"Ġfortiter":9247,"Ġdelicata":9248,"ĠHunc":9249,"ĠTibi":9250,"Ġcapta":9251,"ĠCorint":9252,"ĠQuas":9253,"Ġsecutus":9254,"Ġvideantur":9255,"ĠAR":9256,"phab":9257,"Ġcivili":9258,"Ġagros":9259,"Ġaetern":9260,"Ġexceptis":9261,"esimo":9262,"Ġ(=":9263,"Ġamicorum":9264,"Ġadolescens":9265,"oedi":9266,"Ġuxores":9267,"enos":9268,"ĠHein":9269,"Ġcontingit":9270,"por":9271,"ĠIÂª":9272,"Ġpedum":9273,"ĠCyr":9274,"Ã²d":9275,"ĠEiusdem":9276,"ioque":9277,"ĠTypis":9278,"âĢ³":9279,"Ġrecipere":9280,"colum":9281,"XI":9282,"Ġhaered":9283,"picere":9284,"ĠPoss":9285,"Ġveniat":9286,"ĠLiter":9287,"Ġart":9288,"Ġtransire":9289,"Ġintelligere":9290,".),":9291,"Ġhaberent":9292,"serunt":9293,"Ġdocuit":9294,"Ġnoctis":9295,"ĠAL":9296,"Ġchron":9297,"gl":9298,"mur":9299,"Ġitemque":9300,"Ġparentum":9301,"Ġfaciens":9302,"Ġaffert":9303,".[/":9304,"Ġsugg":9305,"ĠlÃ¦":9306,"Ġraro":9307,"ementum":9308,"Ġiniuriam":9309,"Ġquac":9310,"Ġimprimis":9311,"ISC":9312,"Ġexemplis":9313,"ellius":9314,"ĠMagnus":9315,"Ġnullius":9316,"Ġ$":9317,"ĠNomen":9318,"Disputatio":9319,"ĠNativ":9320,"Ġoctav":9321,"Ġcreb":9322,"Ġphaedrum":9323,"Ġmonst":9324,"Ġclasses":9325,"Ġdebita":9326,"ĠWe":9327,"ĠPaulum":9328,"ĠTaur":9329,"ĠPriv":9330,"uique":9331,"Ġoriginem":9332,"idisse":9333,"Ġdissip":9334,"Ġnequ":9335,"Ġfactam":9336,"Ġminores":9337,"Ġsilv":9338,"ĠEcclesiarum":9339,"Ġinstituit":9340,"Ġvestigia":9341,"Ġdictas":9342,"ĠEuseb":9343,"ĠVeneris":9344,"Ġlaudibus":9345,"fa":9346,"Ġcreavit":9347,"teret":9348,"Ġaudivi":9349,"Ġregia":9350,"vus":9351,"Ġinsulam":9352,"Ġsocietatem":9353,"ĠFrancof":9354,"æĹ¶":9355,"ĠSel":9356,"ondit":9357,"wn":9358,"ĠCrass":9359,"Ġsuscit":9360,"ĠLatinum":9361,"Ġsermonis":9362,"Ġoptima":9363,"vertit":9364,"Ġchristifid":9365,"Ġquaestionem":9366,"Ġaliarum":9367,"upp":9368,"Ġsinis":9369,"omb":9370,"Ġsenex":9371,"ĠSeu":9372,"ĠMirum":9373,"Ġnominati":9374,"Ã³r":9375,"ĠFrancisco":9376,"ĠCler":9377,"Ġmanuum":9378,"Ġ53":9379,"Ġdictam":9380,"Ġcustodia":9381,"Imper":9382,"Ġappropinqu":9383,"posita":9384,"Ġsuavitate":9385,"Omnes":9386,"inius":9387,"ĠNer":9388,"Ġfebr":9389,"Ġalim":9390,"Ġvocantur":9391,"ĠSemper":9392,"Ġperpetuam":9393,"Ġmoralis":9394,"Ġonus":9395,"ulare":9396,"Prop":9397,"ĠNatura":9398,"Ġcomprob":9399,"ĠPent":9400,"Ġdiis":9401,"Ġcaud":9402,"ĠHodie":9403,"ĠEnim":9404,"Ġregula":9405,"ĠRhod":9406,"Ġlongo":9407,"Ġtotidem":9408,"Ġaliquibus":9409,"Ġinerm":9410,"Ġatom":9411,"Ġferi":9412,"ĠTex":9413,"Ġtestibus":9414,"ĠDecem":9415,"Ġessentiam":9416,"Ġcompell":9417,"Ġdesiderium":9418,"ĠOm":9419,"ymnas":9420,"Ġcuiusdam":9421,"ĠGraeco":9422,"emplum":9423,"Ġduplex":9424,"aen":9425,"Ġarbit":9426,"ĠAsia":9427,"Ġrelin":9428,"Ġintegra":9429,"Ġmaioris":9430,"Ġmittit":9431,"Ġblas":9432,"Ġagendum":9433,"Ġportas":9434,"Ġquintum":9435,"Ġdomic":9436,"Gl":9437,"Ġtal":9438,"ĠLeo":9439,"Ġgloriatur":9440,"ĠDissertatio":9441,"Ð´":9442,"Ġvast":9443,"Ġcogitationes":9444,"Ġenum":9445,"Ġchoro":9446,"Ġprincipiis":9447,"ĠÅ¿":9448,"Ġsepultus":9449,"aciam":9450,"oquin":9451,"atissimi":9452,"Ġsuscip":9453,"ultum":9454,"ĠTerr":9455,"ĠNonne":9456,"Ġian":9457,"aevola":9458,"Ġquemquam":9459,"Ġfronte":9460,"eratis":9461,"000":9462,"ĠVix":9463,"Ġbonos":9464,"ils":9465,"Ġtantas":9466,"domad":9467,"Ġhoram":9468,"Ġarbitror":9469,"Ġquodammodo":9470,"ĠGeograph":9471,"ĠtuÃ¦":9472,"Ġpersecuti":9473,"ĠDo":9474,"Ġpresent":9475,"IUM":9476,"Ġhonest":9477,"Vide":9478,"Ġprotinus":9479,"ierit":9480,"Ġmisericordiae":9481,"istae":9482,"ĠRE":9483,"Ann":9484,"itteret":9485,"taxat":9486,"agi":9487,"urei":9488,"TIO":9489,"Ġgestarum":9490,"ĠHieronymus":9491,"positio":9492,"ĠFlac":9493,"Ġhumano":9494,"Ġtorquatos":9495,"Ġsummi":9496,"Ġalum":9497,"ĠHort":9498,"ĠHad":9499,"inu":9500,"Ġiung":9501,"abeth":9502,"Ġtrem":9503,"Ġqualibet":9504,"Ġmatrimonio":9505,"Ġofficina":9506,"Ġcm":9507,"ling":9508,"Ġredim":9509,"Ġlectorum":9510,"ĠOrdo":9511,"ĠSede":9512,"use":9513,"Ġstruc":9514,"ĠDign":9515,"Ġmortuum":9516,"emos":9517,"Ġarbitrium":9518,"Ġsumptibus":9519,"ĠBasil":9520,"UG":9521,"iculo":9522,"ĠCancell":9523,"Ġdiap":9524,"Ġconiur":9525,"Ġpueris":9526,"Ġorta":9527,"iretur":9528,"Ġmeridiem":9529,"Ġcredimus":9530,"Ġnomini":9531,"gra":9532,"ensionem":9533,"Ġtabulas":9534,"ĠMaximi":9535,"Sancti":9536,"ĠMass":9537,"erito":9538,"piam":9539,"Ġgente":9540,"Ġextrema":9541,"Ġsuperioribus":9542,"ĠSum":9543,"Ġdiscern":9544,"Ġpulchra":9545,"Ġfrag":9546,"ĠLatinis":9547,"Ġgenerali":9548,"Ġrecipit":9549,"ĠProm":9550,"Ġevert":9551,"Ġgign":9552,"Ġdisced":9553,"Ġmittere":9554,"Ġexplicari":9555,"bur":9556,"ĠAdm":9557,"ĠSanct":9558,"Ġpublici":9559,"antas":9560,"Ġterminum":9561,"Ġcongru":9562,"ĠRod":9563,"Ġprobatur":9564,"Ġsacramento":9565,"Italiane":9566,"Ġconcessit":9567,"Excepteur":9568,"Ġquique":9569,"Ġvidens":9570,"ecumen":9571,"Ġrecuper":9572,"ĠOrbis":9573,"Ġfacili":9574,"Ġadventu":9575,"ĠBarb":9576,"Ĥ¬":9577,"esch":9578,"Ġproximi":9579,"ĠNumquid":9580,"Ġmonachi":9581,"Ġresponde":9582,"Ġvolupt":9583,"Ġimpossibile":9584,"Ġscriptura":9585,"ĠBasileae":9586,"Ġdemocr":9587,"Ġredit":9588,"cam":9589,"ĠViri":9590,"istere":9591,"Ð¼":9592,"Ġagrum":9593,"ĠRegi":9594,"ĠâĨ":9595,"Ġopinio":9596,"Ġaperte":9597,"Ġmm":9598,"Ġsexus":9599,"Ġconform":9600,"Ġvictoriam":9601,"tima":9602,"enci":9603,"oso":9604,"ĠPalat":9605,"neri":9606,"Atque":9607,"ĠREG":9608,"Ġlibertas":9609,"Ġconsuetudo":9610,"ĠDies":9611,"ĠCrucis":9612,"Ġquor":9613,"Ġintellegat":9614,"ĠGeneralis":9615,"Ġmuneribus":9616,"Cant":9617,"etiae":9618,"Datum":9619,"Ġlectores":9620,"ĠHebra":9621,"Ġcivitatum":9622,"Ġliberavisse":9623,"ĠĠĠĠĠĠĠĠĠĠĠĠĠ":9624,"Ġcarmen":9625,"imorum":9626,"lae":9627,"Ġintercess":9628,"Ġprobatus":9629,"Fl":9630,"Ġsocietate":9631,"ĠSeb":9632,"ĠNew":9633,"Sit":9634,"Ġpotentiae":9635,"Ġsexaginta":9636,"Ġinstaur":9637,"Ġpraeterm":9638,"Ġra":9639,"ĠPatriarch":9640,"ock":9641,"Ġcase":9642,"Ġbeneficia":9643,"Î¿Î½":9644,"ensione":9645,"Ġvitiis":9646,"ĠPhara":9647,"olio":9648,"Ġmortuo":9649,"Ġperfici":9650,"ĠArgent":9651,"Ġconatus":9652,"Ġamicitiae":9653,"Be":9654,"ĠPA":9655,"Ġproi":9656,"Ġtimere":9657,"Ġeripuit":9658,"Ġfoss":9659,"ĠHomo":9660,"Ġweb":9661,"Ġcondicione":9662,"Ġpercussit":9663,"Ġexinde":9664,"ĠSystema":9665,"Ġlaetitia":9666,"Ġdiligit":9667,"Sim":9668,"Ġredig":9669,"Ġquotiens":9670,"ĠGaud":9671,"Ġdecor":9672,"ĠScriptur":9673,"RA":9674,"ĠAlp":9675,"isses":9676,"Ġeamque":9677,"Ġdixisse":9678,"Ġreligio":9679,"ecesis":9680,"aric":9681,"Ġnumeri":9682,"ĠIpsa":9683,"idica":9684,"Ġsenserit":9685,"Ġnavibus":9686,"esaurus":9687,"Ġfrequent":9688,"we":9689,"Ant":9690,"Ġej":9691,"ĠCirca":9692,"Ġdato":9693,"Ġrursum":9694,"Ġcivis":9695,"Ġviae":9696,"Ġgladium":9697,"ĠLinguae":9698,"Ġamico":9699,"annus":9700,"Ġmoderatius":9701,"Ġfert":9702,"Ġoffend":9703,"ĠInscrip":9704,"ĠEpiscopis":9705,"Ġnullis":9706,"Ġfabula":9707,"Ġfacis":9708,"ĠMarti":9709,"Orig":9710,"Ġcaelis":9711,"Ġinstrumentum":9712,"ĠPrincipis":9713,"ĠåĮĹäº¬":9714,"tre":9715,"ĠAdv":9716,"Ġbo":9717,"Ġcohort":9718,"Ġredire":9719,"Ġplat":9720,"Ġsati":9721,"Ġvn":9722,"Ġsag":9723,"ĠBellum":9724,"ationalis":9725,"Ġeoque":9726,"ĠAsiae":9727,"Ġsecundam":9728,"ĠTHE":9729,"Ġenarr":9730,"Ġ52":9731,"ĠSuec":9732,"ance":9733,"Summa":9734,"Ġreddidit":9735,"ÃŃc":9736,"ĠMonach":9737,"Ġpersonas":9738,"Ġcru":9739,"ason":9740,"Ġerrore":9741,"ĠEng":9742,"Ġsacrorum":9743,"Ġdisciplinae":9744,"Ġfecimus":9745,"dal":9746,"Ġdumtaxat":9747,"ĠRot":9748,"iosus":9749,"Ġforsitan":9750,"Oratio":9751,"Ġobnox":9752,"ĠAquit":9753,"Ġdesiderat":9754,"Ġcreatus":9755,"Ġcoc":9756,"Ġcognitio":9757,"Ġceleriter":9758,"Ġexalt":9759,"Ġuniversae":9760,"Ġargente":9761,"ĠAristoteles":9762,"Ġpatientia":9763,"Ġ(-":9764,"Ġsubstantiae":9765,"archum":9766,"Ġtranst":9767,"Ġadimpl":9768,"Ġdecimum":9769,"Ġministri":9770,"Ġpoenas":9771,"Ġscriptorem":9772,"Ġaudiv":9773,"Ġhoris":9774,"Ġadventum":9775,"Ġvictus":9776,"?'":9777,"Ġsolidos":9778,"ĠTyr":9779,"ĠprÃ¦ter":9780,"Ġfratern":9781,"Ġphil":9782,"ĠEjus":9783,"Ġplenum":9784,"acio":9785,"Ġverus":9786,"Ġputent":9787,"ĠFerr":9788,"Ġphilosophorum":9789,"Ġeciam":9790,"[/":9791,"arae":9792,"Ġvocum":9793,"Ġimmedi":9794,"Ġseg":9795,"Miss":9796,"ork":9797,"ĠTertio":9798,"Ġnationes":9799,"Ġaccedunt":9800,"ĠLang":9801,"Ġurbanitas":9802,"Ġhabeatur":9803,"ĠOvid":9804,"Ġcolore":9805,"Ġintelligi":9806,"Ġcodice":9807,"Ġcontentiones":9808,"As":9809,"Ġuniversale":9810,"Ġvidimus":9811,"Ġaustr":9812,"Ġfacio":9813,"ĠPraem":9814,"Ġinsidias":9815,"unquam":9816,"Ġconn":9817,"Ġconp":9818,"tini":9819,"Ġdeserto":9820,"Ġpercep":9821,"atÃ¦":9822,"epos":9823,"Ġcognitione":9824,"Ġdifferentiis":9825,"ibilem":9826,"ĠSimiliter":9827,"Ġoleum":9828,"ĠCos":9829,"Ġastero":9830,"ĠAgr":9831,"Ġnar":9832,"Ġpauperes":9833,"Ġcalumn":9834,"ĠCato":9835,"unum":9836,"Ġvaletud":9837,"ulti":9838,"ĠAmor":9839,"enius":9840,"Ġadesse":9841,"Ġmeliore":9842,"eng":9843,"estem":9844,"Ġmanere":9845,"ĠCae":9846,"Ġscrut":9847,"amina":9848,"Ġ2018":9849,"ags":9850,"Ġpugnam":9851,"Ġrespondere":9852,"Ġpotui":9853,"ĠSm":9854,"ĠBooks":9855,"Ġventi":9856,"Ġhomic":9857,"Ġvelis":9858,"Ġcodicum":9859,"ĠNaz":9860,"Ġprisc":9861,"ĠJam":9862,"itura":9863,"CCLES":9864,"Ġpostmodum":9865,"ĠOpp":9866,"eff":9867,"Ġconstitutum":9868,"Ġsever":9869,"Ġ54":9870,"Ġspon":9871,"ĠGrammat":9872,"ĠÏĢ":9873,"Ġdederit":9874,"ĠLudovici":9875,"Ġhonestatis":9876,"atoria":9877,"etam":9878,"unx":9879,"Vulgate":9880,"ĠHam":9881,"ALIS":9882,"Ġmilibus":9883,"ĠBrevi":9884,"ĠEvangelii":9885,"Ģå":9886,"olf":9887,"ĠCath":9888,"ĠPostquam":9889,"ĠNaturae":9890,"Ġlegunt":9891,"Ġlapidem":9892,"Ġrespondens":9893,"Ġpraecl":9894,"Ġnotitiam":9895,"Ġnecessitatem":9896,"ĠCommentarii":9897,"Ġscientiarum":9898,"Ġaeternae":9899,"Ġsecuti":9900,"Ġastronom":9901,"atom":9902,"Ġ51":9903,"Ġdevor":9904,"Ġresurrectionem":9905,"Ġlaudes":9906,"ĠContr":9907,"Ġcaritatem":9908,"Ġ2013":9909,"Ġinstrumenta":9910,"Ġimpetum":9911,"Ġwww":9912,"Ġdixisset":9913,"ĠOcta":9914,"ĠCatholicae":9915,"ĠRev":9916,"ĠFel":9917,"onstr":9918,"Ġtenentur":9919,"Ġnuptias":9920,"Ġadversarium":9921,"ĠFili":9922,"Ġflumine":9923,"Ġsitu":9924,"Ġeumdem":9925,"Germ":9926,"insecus":9927,"ĠStephanus":9928,"Ġaffer":9929,"initate":9930,"ĠJulii":9931,",.":9932,"Ġprobo":9933,"alam":9934,"Ġdictat":9935,"Ġelementa":9936,"Ġcing":9937,"Ġquales":9938,"Ġnostre":9939,"ulares":9940,"Ġfoedus":9941,"Op":9942,"âĢī":9943,"Ġoritur":9944,"dolor":9945,"ĠColoniae":9946,"Ġfalli":9947,"Ġapostolicae":9948,"Ġmembris":9949,"Ġproposita":9950,"Ġservare":9951,"Ġpericulos":9952,"Ġfluvium":9953,"Ġuniversam":9954,"Ġpoterunt":9955,"ĠĠĠĠĠ":9956,"ĠMOR":9957,"Ġexclus":9958,"Ġlug":9959,"Ġconclusionem":9960,"Î´":9961,"Ġpublicus":9962,"ĠQuÃ¦":9963,"olorum":9964,"Ġcommunionem":9965,"Ġfilias":9966,"Ġcertamen":9967,"ursu":9968,"Ġconsuetudium":9969,"Ġsubsequ":9970,"Ġuirtut":9971,"Ġoctavo":9972,"Ġsacro":9973,"Ġvenerabilis":9974,"atorium":9975,"Ġnotae":9976,"ĠCivitatum":9977,"Ġconfl":9978,"ĠDoctr":9979,"Ġevad":9980,"ĠCatalogus":9981,"978":9982,"Ġmediet":9983,"Ġrescrip":9984,"Ġdixitque":9985,"Ġecclesiasticis":9986,"tori":9987,"Ġsecundi":9988,"omnia":9989,"imentis":9990,"ĠHipp":9991,"ĠSimon":9992,"rid":9993,"ĠCael":9994,"Ġcommov":9995,"Ġele":9996,"Ġfabric":9997,"ĠChrysost":9998,"Ġmulierum":9999,"Ġsilentio":10000,"tern":10001,"Ġuniverso":10002,"idiam":10003,"Ġatqui":10004,"Ġcanonici":10005,"Ġwe":10006,"ĠAri":10007,"unis":10008,"Ġinsulae":10009,"Ġinvit":10010,"Ġsinu":10011,"ĠFerdin":10012,"Ġpia":10013,"Ġperfectionem":10014,"Ġprincipe":10015,"Ġinstitutum":10016,"arorum":10017,"Ġridens":10018,"Ġfuissent":10019,"Ecclesia":10020,"Ġprovis":10021,"column":10022,"Ġcommunia":10023,"Ġuolunt":10024,"odis":10025,"Ġagris":10026,"Pub":10027,"aque":10028,"uz":10029,"Ġecc":10030,"Ġgratis":10031,"Ġagam":10032,"Tabula":10033,"Ġlapides":10034,"ĠSing":10035,"orii":10036,"Ġvillam":10037,"eses":10038,"ĠGraecos":10039,"ĠLam":10040,"Ġterrib":10041,"Ã©s":10042,"unci":10043,"Ġdoctorum":10044,"lit":10045,"Ġlignum":10046,"ĠAugustae":10047,"ĠAndreas":10048,"Ġrequiritur":10049,"Ġvivific":10050,"idiac":10051,"xis":10052,"Anglice":10053,"ĠAnglorum":10054,"Paginae":10055,"Ġsoci":10056,"ĠÎº":10057,"Ġfrang":10058,"ĠVeni":10059,"iscus":10060,"Ġquale":10061,"urrexit":10062,"ĠAccedunt":10063,"ĠVat":10064,"Ġexitus":10065,"ĠVim":10066,"Ġseren":10067,"Arg":10068,"uld":10069,"Ġoppida":10070,"Anti":10071,"Ġministerio":10072,"Ġrobor":10073,"Ġdivisa":10074,"ĠBibliothecae":10075,"Ġnobiles":10076,"Ġdamnum":10077,"Ġpesti":10078,"ĠParth":10079,"Ġsuperiore":10080,"Î¿ÏĤ":10081,"ĠLev":10082,"Ġsexta":10083,"Ġviderer":10084,"Ġiudicii":10085,"atui":10086,"ĠIlla":10087,"Ġtestamenti":10088,"Ġfacimus":10089,"ephi":10090,"ĠIacobus":10091,"Ġconsurg":10092,"Ġiuvent":10093,"Ġdives":10094,"Ġpectore":10095,"Ġdivitias":10096,"Ġexitum":10097,"Ġdivi":10098,"Ġcc":10099,"ulisse":10100,"pan":10101,"Ġconfug":10102,"onica":10103,"Ġproposito":10104,"Ġ70":10105,"ped":10106,"Ġtuarum":10107,"rom":10108,"ĠPil":10109,"Ġdul":10110,"ĠGenti":10111,"Ġaltum":10112,"ĠAndreae":10113,"ĠGod":10114,"ĠComitatus":10115,"Sub":10116,"Ġputas":10117,"Ġultimo":10118,"ĠFR":10119,"Ġsacramenta":10120,"Ġparoec":10121,"Ġfatig":10122,"Ġhospit":10123,"Ġsuspend":10124,"rio":10125,"idas":10126,"aram":10127,"Ġmoderat":10128,"uy":10129,"Ġhisce":10130,"ĠquÃ²d":10131,"ĠEadem":10132,"ĠBernardus":10133,"Ġulterius":10134,"ï»":10135,"Ġremov":10136,"uriam":10137,"Ġnect":10138,"onorum":10139,"Ġurbibus":10140,"epta":10141,"Ġdit":10142,"Ġperpend":10143,"usta":10144,"ĠLeonis":10145,"Graec":10146,"ï»¿":10147,"ubern":10148,"ĠPyth":10149,"ĠNab":10150,"ooks":10151,"ĠAugusto":10152,"Bibliotheca":10153,"Ġminorem":10154,"Ġfirma":10155,"ĠPrag":10156,"Ġnatu":10157,"ĠJoannem":10158,"Ġaliquos":10159,"Ġ118":10160,"Ġdextera":10161,"ĠPhilist":10162,"Ġsimilem":10163,"Ge":10164,"ĠProt":10165,"Ġsynonym":10166,"Ġjudicio":10167,"Ġtestimonio":10168,"utorum":10169,"Ġpaginam":10170,"Ġdetur":10171,"ander":10172,"Ñĥ":10173,"Ġanimalibus":10174,"Ġgraeci":10175,"Ġgrad":10176,"Ġaltern":10177,"Ġhumanam":10178,"Ġcontulit":10179,"Ġconsor":10180,"Ġiracundia":10181,"Ġagunt":10182,"Ġnaturalem":10183,"entissimi":10184,"tare":10185,"Ġcustodiam":10186,"Ġunic":10187,"Ġforti":10188,"Ġmagistro":10189,"ĠLo":10190,"Ġerrorem":10191,"Pos":10192,"ĠDil":10193,"Ġaudiam":10194,"Ġmulieris":10195,"Ġinnumer":10196,"Ġpotuisse":10197,"ixus":10198,"ĠThem":10199,"Ġdot":10200,"Ġbenevol":10201,"Ġimpet":10202,"Ġdisser":10203,"ATIS":10204,"Ġcognovit":10205,"Ġveniens":10206,"Ġpersuad":10207,"ĠDeb":10208,"Ġauctorem":10209,"Home":10210,"ĠIovis":10211,"ĠCorporis":10212,"Ġreprob":10213,"iusque":10214,"Ġcorpori":10215,"Ġiudice":10216,"Ġsummis":10217,"Ġpromis":10218,"ĠAngelus":10219,"iciam":10220,"ineant":10221,"PS":10222,"agor":10223,"ĠGraeciae":10224,"arij":10225,"Ġstetit":10226,"Ġhoras":10227,"Ġcruce":10228,"Ġnonnulla":10229,"Ġerub":10230,"venire":10231,"Ġhistorica":10232,"Ġhonoribus":10233,"Ġconstitutus":10234,"illam":10235,"Ġproceditur":10236,"Ġpig":10237,"endarum":10238,"Ġoccasionem":10239,"Ġmensura":10240,"Ġiudicabit":10241,"pectus":10242,"Ġflumina":10243,"quibus":10244,"ĠImm":10245,"Ġtabernaculum":10246,"Ġcommuniter":10247,"Ġmysterium":10248,"itto":10249,"Ġclerici":10250,"ĠSor":10251,"Ġspeciali":10252,"ĠSacri":10253,"quando":10254,"Ġfata":10255,"Ġoculorum":10256,"Ġaequo":10257,"Ġcaptus":10258,"Ġhonorific":10259,"AND":10260,"Ġdebit":10261,"ĠAnnae":10262,"ĠOM":10263,"Ġpostulant":10264,"ĠLoth":10265,"Ġsalva":10266,"super":10267,"Ġbibliotheca":10268,"Rerum":10269,"ĠSan":10270,"ĠMeth":10271,"ĠEtr":10272,"Ġimpend":10273,"Ġsuperbia":10274,"Ġmess":10275,"Ġve":10276,"Ġcaelorum":10277,"Quaestio":10278,"Ġferme":10279,"Ġaevi":10280,"ectionum":10281,"ĠJacobus":10282,"ĠCust":10283,"Ġexsec":10284,"eratio":10285,"Ġsymb":10286,"Ġcaeteris":10287,"over":10288,"ĠQuidam":10289,"Ġlet":10290,"Ġfiguris":10291,"ĠRegum":10292,"Ġfortitudo":10293,"Ġducere":10294,"Ġmiracula":10295,"Ã§":10296,"Ġcancell":10297,"cem":10298,"ĠSalomon":10299,"ĠCornelius":10300,"Catalogus":10301,"aturque":10302,"Ġcognita":10303,"Ġrelicta":10304,"ĠMetr":10305,"ean":10306,"Ġvulner":10307,"Ġdedisti":10308,"eos":10309,"ĠPii":10310,"IG":10311,"Ġauctoris":10312,"Ġdistric":10313,"Ã»":10314,"Ġmortua":10315,"ulerat":10316,"ĠCarm":10317,"Ġfame":10318,"TH":10319,"ĠRegina":10320,"aneum":10321,"Ġnegat":10322,"Ġpraesump":10323,"Ġseru":10324,"ĠIure":10325,"peri":10326,"ÂĹ":10327,"Ġrediit":10328,"acionem":10329,"Ġpotuerit":10330,"Ġfelix":10331,"ĠSyri":10332,"ĠDig":10333,"urreret":10334,"ja":10335,"ĠQuapropter":10336,"Ġfacultas":10337,"ĠMonte":10338,"âľ":10339,"ĠCris":10340,"Ġcin":10341,"Ius":10342,"ralis":10343,"ĠMas":10344,"ĠTeub":10345,"Ġsurrexit":10346,"Ġpriore":10347,"Ġprouinc":10348,"Ġaccommodare":10349,"for":10350,"Ġoblique":10351,"Die":10352,"Ġdecore":10353,"Ġual":10354,"revit":10355,"opol":10356,"ren":10357,"Ġpertinacia":10358,"Ġaccesserunt":10359,"Ġsuspendisse":10360,"pons":10361,"los":10362,"enna":10363,"ĠMundi":10364,"ĠĠĠĠĠĠĠ":10365,"Ġpridem":10366,"Ġceler":10367,"Ġinfinita":10368,"ĠMonumenta":10369,"Ġ56":10370,"Ġstatuta":10371,"ĠMai":10372,"Ġiudico":10373,"ĠPatres":10374,"Ġnovus":10375,"Ġvivis":10376,"Ġfiducia":10377,"igni":10378,"Ġteneri":10379,"quoniam":10380,"Ġcomit":10381,"Ġnutr":10382,"icensis":10383,"Ġquodsi":10384,"Ġmovetur":10385,"Ġsoleat":10386,"Ġantepos":10387,":]":10388,"Ġcircumst":10389,"/.":10390,"ĠSamuel":10391,"ĠVale":10392,"ĠBre":10393,"Ġvocis":10394,"pha":10395,"Ġabsur":10396,"Ġaf":10397,"Ġsud":10398,"Ġessenti":10399,"ANI":10400,"Caes":10401,"Ġnavis":10402,"ĠSenec":10403,"die":10404,"primis":10405,"ĠLXXX":10406,"Ġunitatem":10407,"enb":10408,"Ġtun":10409,"Itaque":10410,"Ġcrimine":10411,"uras":10412,"Ġsimus":10413,"Ġmissi":10414,"Ġnegotia":10415,"ÏĮ":10416,"Ġscriptoribus":10417,"Ġliceret":10418,"rique":10419,"Ġpatrim":10420,"Ġargumenta":10421,"Ġadest":10422,"tab":10423,"Ġpluv":10424,"Ġimport":10425,"ĠPius":10426,"Ġarchiepiscopus":10427,"ĠHist":10428,"Ġdoctor":10429,"ĠMulti":10430,"Ġpactum":10431,"ĠRegiae":10432,"zig":10433,"Ġelegit":10434,"Ġinani":10435,"Ġsitis":10436,"Ġcoerc":10437,"ĠMaxim":10438,"Ġtumultu":10439,"Ġpercipitur":10440,"Ġpil":10441,"ĠQuadrag":10442,"iensi":10443,"uin":10444,"ĠRobertus":10445,"Ġepicurei":10446,"Ġpetentium":10447,"estra":10448,"Ġ65":10449,"olph":10450,"ĠPlaut":10451,"Ġstipul":10452,"ecess":10453,"Ġscis":10454,"Ġopibus":10455,"Ġtrep":10456,"Ġmerita":10457,"comm":10458,"ĠSod":10459,"Leg":10460,"olium":10461,"Ġoptimus":10462,"Ġpuero":10463,"ecerit":10464,"edis":10465,"Ġutamur":10466,"Ġperit":10467,"Ġfluc":10468,"Î¬":10469,"Ġapprehend":10470,"Ġpraedicta":10471,"Ġlicentiam":10472,"Ġflamm":10473,"Ġduodec":10474,"ĠTrib":10475,"ĠSuet":10476,"ĠTerrae":10477,"edam":10478,"ĠPolit":10479,"FIC":10480,"ĠAff":10481,"Ġgood":10482,"Ġconventu":10483,"ĠIudaeorum":10484,"ĠSEC":10485,"ittimus":10486,"Ġfundamentum":10487,"Ġdefiniebas":10488,"Ġaurea":10489,"Ġiudicem":10490,"Ġche":10491,"ĠĠĠĠĠĠĠĠĠĠĠĠĠĠĠĠĠĠĠĠ":10492,"Ġlegatis":10493,"Ġirae":10494,"Ġexsequ":10495,"ĠEpit":10496,"Ġsustinere":10497,"Ġplenam":10498,"ĠAngli":10499,"Ġpraeceptis":10500,"Ġping":10501,"osius":10502,"ĠEbor":10503,"Ġnosc":10504,"Ġimplic":10505,"ĠGuili":10506,"ĠOst":10507,"Ġseipsum":10508,"Ġaccidens":10509,"etri":10510,"Ġferrum":10511,"ĠNostr":10512,"Ġfontes":10513,"Ġfacinus":10514,"Ġsolebat":10515,"ĠPros":10516,"ĠSint":10517,"ĠÃ¡":10518,"ecom":10519,"ĠMarie":10520,"ĠBartholom":10521,"Ġhabuerunt":10522,"Ġloquar":10523,"Col":10524,"Ġses":10525,"Ġomittam":10526,"ey":10527,"agis":10528,"anguine":10529,"Ġvivendo":10530,"Ġbut":10531,"ĠIustin":10532,"Ġinteresset":10533,"Ġresurg":10534,"ĠMaximus":10535,"Ġfacerent":10536,"Ġsob":10537,"ĠJohn":10538,"Ġhabuisse":10539,"uitas":10540,"Ġauctoribus":10541,"vero":10542,"Ġcodicibus":10543,"Ġvidisset":10544,"Ġinvas":10545,"Ġdeclaravit":10546,"ĠBritanniae":10547,"Ġequis":10548,"ĠAnglia":10549,"ĠSo":10550,"XVI":10551,"ĠUna":10552,"Ġcompend":10553,"Ġsubti":10554,"ĠMagnific":10555,"Ġ2012":10556,"indic":10557,"ÃŃr":10558,"Ġfuturus":10559,"Ġiuvenes":10560,"Ġpeperit":10561,"Ġefficiantur":10562,"Ġmichi":10563,"Ġpriores":10564,"Ġpapae":10565,"Ġinterpretatione":10566,"Ġamare":10567,"ĠSC":10568,"ĠNoc":10569,"Ġdissentiunt":10570,"ullo":10571,"Ġulc":10572,"Ġdisplic":10573,"Ġdebuit":10574,"Ġexplan":10575,"mate":10576,"egoria":10577,"ĠHal":10578,"Ġnoctu":10579,"Ġimplet":10580,"Ġpeper":10581,"Ġdistribu":10582,"Ġloquor":10583,"Ġpectus":10584,"ipsi":10585,"Ġcoelo":10586,"Ġeasdem":10587,"Ġdepend":10588,"Ġaev":10589,"Ġvideret":10590,"Ġprocre":10591,"mentum":10592,"ĠIste":10593,"enorum":10594,"Ġsermonibus":10595,"Dum":10596,"Ġedoc":10597,"Ġdatis":10598,"ĠUnum":10599,"Ġexaudi":10600,"ĠXXIV":10601,"ĠRhenum":10602,"Ġiurisdic":10603,"Ġpoetae":10604,"ĠRedemp":10605,"Ġdiscipulos":10606,"ĠSee":10607,"Ġscelus":10608,"tuum":10609,"mam":10610,"ĠSaxoniae":10611,"Ġsignif":10612,"onas":10613,"ĠTulli":10614,"Ġlinguarum":10615,"Ġcontex":10616,"Ġsententiarum":10617,"Ġlaboribus":10618,"urti":10619,"ĠAureli":10620,"Ġteste":10621,"Ġ57":10622,"omnes":10623,"oliis":10624,"Apud":10625,"ectas":10626,"istit":10627,"ubus":10628,"Ġtradita":10629,"istens":10630,"ian":10631,"ste":10632,"Ġequo":10633,"Ġsursum":10634,"ĠElis":10635,"iov":10636,"ĠDescriptio":10637,"ĠSucc":10638,"Ġpenit":10639,"Ġcreaturae":10640,"Ġobviam":10641,"ĠECCLES":10642,"Ġaene":10643,"ittunt":10644,"Ġfacete":10645,"ĠOmnibus":10646,"Ġdoloris":10647,"Ġcreditur":10648,"ĠDisput":10649,"Ġimpedi":10650,"Ġepistolae":10651,"Ġignomin":10652,"Ġvotum":10653,"Ġtraditur":10654,"Ġclassis":10655,"aturam":10656,"Ġlabitur":10657,"Ġausus":10658,"Ġsempiternum":10659,"batur":10660,"net":10661,"Ġreferre":10662,"Ġacies":10663,"ĠConra":10664,"ulsus":10665,"ĠEthic":10666,"Ġirasc":10667,"Ġimperatore":10668,"idius":10669,"Ġresol":10670,"ker":10671,"END":10672,"Ġintellegam":10673,"Ġassue":10674,"ERE":10675,"ĠClaudius":10676,"Ġcornu":10677,"Ġambig":10678,"Ġconsuet":10679,"issione":10680,"Ġseq":10681,"Ġquindecim":10682,"ĠLaurentii":10683,"Ġ`":10684,"Ġquom":10685,"Ġvalent":10686,"ee":10687,"els":10688,"Ġmode":10689,"ĠPrinceps":10690,"Ġliteras":10691,"Ġpauperum":10692,"igram":10693,"Ġinser":10694,"ĠNovem":10695,"Ġinscrib":10696,"Ġmatrimonii":10697,"åĪĨ":10698,"ularibus":10699,"??":10700,"Ġobsec":10701,"echn":10702,"Ġauctoritatis":10703,"LXX":10704,"Ġ58":10705,"ĠDoctoris":10706,"Ġvil":10707,"ĠFin":10708,"Ġeorundem":10709,"Ġtraduc":10710,"Ġcrimin":10711,"Ġoctog":10712,"ĠHenrico":10713,"Ġspiritualis":10714,"ĠÃ¦qu":10715,"ĠUrbis":10716,"ĠâĨĴ":10717,"Ġdatus":10718,"Ġlaque":10719,"Ġaffectu":10720,"Ġabomin":10721,"Ġsingularis":10722,"Ġgessit":10723,"ĠEqu":10724,"ĠMarg":10725,"Ġcoeli":10726,"emi":10727,"ĠSy":10728,"ĠCali":10729,"La":10730,"Ġdices":10731,"aca":10732,"Ġmira":10733,"idii":10734,"Ġpraefectus":10735,"Ġsecundae":10736,"ĠROM":10737,"Ġrefug":10738,"Ġostenditur":10739,"OLOG":10740,"Ġiudicare":10741,"Ġnominavi":10742,"ĠQuaestio":10743,"Ġpoc":10744,"NA":10745,"Ġpie":10746,"ï¿½ï¿½":10747,"uistis":10748,"ĠAuth":10749,"Ġacquis":10750,"Ġmons":10751,"Ġaltaris":10752,"Ġpunctum":10753,"Ġrati":10754,"Ġape":10755,"sti":10756,"Ġvultu":10757,"Ġposuerunt":10758,"Ġalta":10759,"ĠIbid":10760,"ĠCypri":10761,"Ġcomprehensam":10762,"Ġinex":10763,"Ġdisputando":10764,"Ġduplici":10765,"Ġportum":10766,"uk":10767,"Ġnor":10768,"ialium":10769,"Ġopprim":10770,"doc":10771,"Ã¦i":10772,"Ġjug":10773,"ĠGrÃ¦c":10774,"lici":10775,"Ġfabellas":10776,"ĠNav":10777,"prud":10778,"ĠChristianus":10779,"ĠAlia":10780,"ĠGermani":10781,"Ġreformid":10782,"Ġdicendo":10783,"Ġintest":10784,"Ġpuellae":10785,"Ġiratus":10786,"ĠCro":10787,"Ġatomorum":10788,"Ġsalvum":10789,"ĠCup":10790,"ilibet":10791,"Ġgrave":10792,"Ġinvidia":10793,"ĠSU":10794,"Ġferia":10795,"Ġmortuorum":10796,"Ġadha":10797,"ĠMathemat":10798,"ĠGreek":10799,"Ġbenedi":10800,"Ġconqu":10801,"Ġplum":10802,"Ġinimicorum":10803,"Ġdominis":10804,"Ġinsolens":10805,"Ġmodicum":10806,"Ġquorundam":10807,"uriae":10808,"ĠSusc":10809,"entissimus":10810,"ĠSaepe":10811,"ĠIIÂª":10812,"Ġnoluit":10813,"sicut":10814,"Ġmentio":10815,"elae":10816,"ĠPompei":10817,"Ġremedium":10818,"Ġmoli":10819,"ondin":10820,"uari":10821,"Ġregr":10822,"Ġsacerdoti":10823,"Ġreliquum":10824,"Temporibus":10825,"Ġanath":10826,"Ġtantis":10827,"Ġiusti":10828,"âľĶ":10829,"Ġnoluisse":10830,"Ġcopiam":10831,"Ġfortunam":10832,"ĠMoses":10833,"Ġremissionem":10834,"Ġpoenae":10835,"Ġcommerc":10836,"ĠCatholica":10837,"XV":10838,"Ġcontigit":10839,"ĠPS":10840,"Ġ\".":10841,"Ġeft":10842,"Ġagatur":10843,"Ġcaelestis":10844,"riae":10845,"ĠIoh":10846,"ĠPho":10847,"Ġinventi":10848,"Ġcoelum":10849,"Ġfini":10850,"Ġperfecti":10851,"Ġevas":10852,"Ġmandato":10853,"ĠAuctore":10854,"Ġmentionem":10855,"emata":10856,"Ġinvol":10857,"Ġmonachis":10858,"Sen":10859,"Ġsanctos":10860,"Ġfecisset":10861,"Ġmaximi":10862,"Ġforas":10863,"Ġpondere":10864,"Ġtibique":10865,"Ġmiserunt":10866,"Ġpervenire":10867,"Ġbenedictionem":10868,"ĠVeteris":10869,"Ġfamam":10870,"Ġprovincias":10871,"oma":10872,"enberg":10873,"ĠMart":10874,"Ġxv":10875,"Ġfuror":10876,"Ġecclesiasticae":10877,"edaem":10878,"Ġoti":10879,"Ġconcub":10880,"ĠPontifice":10881,"Ġdetrah":10882,"Ġcomplectens":10883,"Ġalti":10884,"Ġmuneris":10885,"tui":10886,"numquam":10887,"ĠPompeius":10888,"ĠUsque":10889,"ophrastus":10890,"ifer":10891,"Ġsubiectum":10892,"Ġpraesentem":10893,"Ġagi":10894,"ĠPRAE":10895,"Ġorientem":10896,"Ġconfici":10897,"ennae":10898,"Ġexstant":10899,"Ġdomibus":10900,"Ġproj":10901,"ĠFre":10902,"ĠSolis":10903,"Ġaccedere":10904,"ĠChristian":10905,"ĠPontificatus":10906,"Ġeditionem":10907,"irca":10908,"ĠSeren":10909,"ĠHiberniae":10910,"Ġexpetenda":10911,"Ġverecund":10912,"ELL":10913,"IR":10914,"Ġprodest":10915,"Ġmaiora":10916,"Ġcep":10917,"ĠGalliam":10918,"ĠIsid":10919,"Ġisdem":10920,"Ġgenerationem":10921,"Ġcandid":10922,"ĠMA":10923,"Ġdocere":10924,"ĠHieronymi":10925,"zi":10926,"Ġsitus":10927,"Ã¦s":10928,"ĠTempore":10929,"Ġincrep":10930,"ÏĨ":10931,"Ġinstituti":10932,"Iam":10933,"tice":10934,"Ġdrac":10935,"Ġincl":10936,"ĠSignum":10937,"utor":10938,"Ġmutuo":10939,"Ġinsequ":10940,"Ġcalli":10941,"Ġvolens":10942,"ilig":10943,"Ġprimogen":10944,"Ġinterpretaris":10945,"minibus":10946,"ĠSever":10947,"Ġcoronam":10948,"Ġsacrosanc":10949,"Ġoleo":10950,"Ġerrores":10951,"Ġponderum":10952,"ĠDownload":10953,"Ġcantus":10954,"Edit":10955,"Ġsq":10956,"ĠEpiscopum":10957,"ĠIc":10958,"Ġinveniri":10959,"Ġprodesset":10960,"Ġsuccessoribus":10961,"Ġdas":10962,"ĠNol":10963,"Ġcadav":10964,"XIII":10965,"Ġappetere":10966,"Ġseptuaginta":10967,"Ġ112":10968,"Ġlibellus":10969,"Ġtestatur":10970,"Ġeffig":10971,"Ġcarcere":10972,"enarum":10973,"Ġsuperior":10974,"âĸ":10975,"Ġcommis":10976,"Ġdecep":10977,"Ġfragmenta":10978,"Ġcomitatus":10979,"Ġsemine":10980,"ĠTertia":10981,"fn":10982,"Ġdefendere":10983,"irem":10984,"Ġorationibus":10985,"uns":10986,"Ġstipula":10987,"Ġdicte":10988,"Ġconjug":10989,"Ġtitulus":10990,"ĠCogn":10991,"ĠFridericus":10992,"Vita":10993,"Ġorth":10994,"Ġgratul":10995,"Ġuers":10996,"more":10997,"Ġjuven":10998,"Ġconstituam":10999,"ĠAccus":11000,"Ġalieno":11001,"Ġmentitum":11002,"Ġsolvere":11003,"ĠSine":11004,"Ġlaudis":11005,"Ġannu":11006,"Ġutilis":11007,"Ġinterrete":11008,"Ġfest":11009,"Ġsolam":11010,"Ġanteposuerit":11011,"Ġconstr":11012,"ĠMS":11013,"Ġeffund":11014,"Ġaduersus":11015,"opp":11016,"LXXX":11017,"Ġlast":11018,"Ġvocatus":11019,"Ġexh":11020,"Ġdial":11021,"Ġinimicis":11022,"Ġposc":11023,"tino":11024,"Ġsuscipiantur":11025,"ologus":11026,"Ġvestras":11027,"Ġxxx":11028,"Ġnow":11029,"Ġdextra":11030,"Ġdeform":11031,"haer":11032,"ĠCollegii":11033,"Ġnovissima":11034,"ixa":11035,"Ġpraestant":11036,"ĠLatinam":11037,"ĠPRIM":11038,"ĠRei":11039,"ĠRud":11040,"TIC":11041,"Ġdummodo":11042,"ĠPAR":11043,"Ġimpugn":11044,"ĠAe":11045,"Ġfeminae":11046,"TE":11047,"Ġvestimenta":11048,"Ġtela":11049,"Ġsciat":11050,"ixi":11051,"ĠArm":11052,"zo":11053,"ĠTER":11054,"Ġinqui":11055,"Ġpontifex":11056,"ectig":11057,"ĠProvinciae":11058,"Ġsatur":11059,"Ġperinde":11060,"ĠLy":11061,"Ġindicat":11062,"Ġpriu":11063,"retur":11064,"Ġcommunione":11065,"Ġexcipi":11066,"cyc":11067,"issae":11068,"Ġtesti":11069,"uppiter":11070,"mar":11071,"ical":11072,"ĠÃ¦dific":11073,"Ġvo":11074,"Ġpoteris":11075,"ivum":11076,"Ġ80":11077,"sumus":11078,"estri":11079,"Ġconveniunt":11080,"abitis":11081,"ĠChriste":11082,"Ġeae":11083,"iograph":11084,"ĠRomanam":11085,"Ġ64":11086,"ĠBoni":11087,"irian":11088,"ipzig":11089,"ĠBos":11090,"Ġsententias":11091,"Ġadu":11092,"averant":11093,"minis":11094,"alo":11095,"Ġtypi":11096,"Pater":11097,"Ġ59":11098,"Ġconceptam":11099,"mp":11100,"Ġostendere":11101,"Ġurbium":11102,"ĠPersarum":11103,"Ġinsignis":11104,"igne":11105,"Ġexord":11106,"Ġopinor":11107,"Ġargumentis":11108,"ĠecclesiÃ¦":11109,"Ġfonte":11110,"nesarchum":11111,"ĠAmpli":11112,"ebri":11113,"Ġipsae":11114,"Ġheredit":11115,"Ġapt":11116,"Ġfuturi":11117,"Ġmeret":11118,"Ġintern":11119,"ĠIoan":11120,"arist":11121,"Ġuos":11122,"Quoniam":11123,"ya":11124,"etica":11125,"ĠCamer":11126,"Ġproportion":11127,"ĠAns":11128,"Ġplacere":11129,"Ġterritorio":11130,"Î¸":11131,"Ġclara":11132,"ĠFriderici":11133,"Ġoculus":11134,"laus":11135,"ĠEsa":11136,"Ġmusica":11137,"ĠConcilio":11138,"ĠBud":11139,"ĠPlut":11140,"autem":11141,"Ġinteresse":11142,"Ġlevi":11143,"quebantur":11144,"Ġheredem":11145,"Ġdimisit":11146,"Ġpersequeris":11147,"nihil":11148,"sen":11149,"atrix":11150,"ĠPraecip":11151,"Ġcommunes":11152,"aros":11153,"icitur":11154,"Ġmoenia":11155,"etia":11156,"urriculum":11157,"Ġmedii":11158,"Ġcurios":11159,"ĠOctav":11160,"iuers":11161,"Ġtog":11162,"Ġurbi":11163,"Ġantiquae":11164,"Consectetur":11165,"Ġintellex":11166,"isco":11167,"Ã©runt":11168,"Ġmemori":11169,"Ġsapientes":11170,"Ġfum":11171,"elles":11172,"inctio":11173,"Ġaddidit":11174,"Ġcogitare":11175,"Ġalac":11176,"Ġallig":11177,"Ġediti":11178,"Ġsubtil":11179,"Ġpraemia":11180,"Ġefficit":11181,"esop":11182,"Ġnoll":11183,"ct":11184,"Ġefficere":11185,"Ġvicit":11186,"Ġaccusata":11187,"Ġdenunti":11188,"Ġdeprehend":11189,"ĠLacedaem":11190,"Ġdesin":11191,"Ġquadring":11192,"Ġreipublicae":11193,"Ġspei":11194,"Ġortu":11195,"Ġsomno":11196,"Ġduci":11197,"Ġimmediate":11198,"ĠAntonium":11199,"Ġcen":11200,"ĠPraedicatorum":11201,"runt":11202,"Ġpontificum":11203,"Ġplerisque":11204,"ernis":11205,"ĠQuinti":11206,"Ġ2015":11207,"Ġcommentarii":11208,"opam":11209,"Ġutram":11210,"Ġ01":11211,"Ġvarias":11212,"Evangelium":11213,"ws":11214,"Ġiunc":11215,"Ġdesiderio":11216,"ĠDÃ³minus":11217,"ĠBav":11218,"Ġducibus":11219,"ĠHebr":11220,"Ġris":11221,"Ġconturb":11222,"reant":11223,"Ġsentire":11224,"ĠSti":11225,"Ġtenebr":11226,"Ġsuppos":11227,"Ġconstructio":11228,"ĠAegyptum":11229,"ĠMemor":11230,"Ġtransit":11231,"Co":11232,"Ġgenerum":11233,"Ġsalutare":11234,"ĠEuropa":11235,"ĠDominica":11236,"Ġblasphem":11237,"Ġincumb":11238,"Ġepit":11239,"sem":11240,"Ġseptentrion":11241,"Ġtantae":11242,"Ġpredicta":11243,"Ġfate":11244,"ĠJer":11245,"Ġprioribus":11246,"Ġmuros":11247,"Ġepicuri":11248,"Ġcorrumpit":11249,"ilus":11250,"Ġdomina":11251,"ĠLep":11252,"ĠDemocr":11253,"ipso":11254,"Ġintelligitur":11255,"Ġup":11256,"Ġinciderint":11257,"Ġefficiendi":11258,"Ġscaevola":11259,"Ġcitra":11260,"Ġdudum":11261,"Ġsalub":11262,"Ġverae":11263,"ennio":11264,"Ġfestiv":11265,"ĠCanonici":11266,"Ġdisciplin":11267,"Ġconferre":11268,"omet":11269,"Ġlegendos":11270,"Ġrecognita":11271,"esim":11272,"Ġagric":11273,"Ġgenu":11274,"Ġreliquias":11275,"esa":11276,"ĠTub":11277,"TIN":11278,"Ġprofit":11279,"color":11280,"Ġinuen":11281,"Ġvivum":11282,"estris":11283,"ĠAnnales":11284,"Opus":11285,"Ġretrib":11286,"Ġtorr":11287,"Ġobiectum":11288,"isa":11289,"Ġpauperibus":11290,"rica":11291,"Ġnefas":11292,"imen":11293,"esserit":11294,"Ġdocumenta":11295,"Ġnubes":11296,"ortus":11297,"Ġconsulem":11298,"Ġeuch":11299,"ugurth":11300,"ĠHo":11301,"Ġsequens":11302,"ĠNostra":11303,"ĠLIBER":11304,"ibilium":11305,"Ġconcessa":11306,"ĠGot":11307,"Ġliterarum":11308,"orius":11309,"Ġiucund":11310,"ativum":11311,"etsi":11312,"Ġconsequens":11313,"Ġconter":11314,"Ġangelis":11315,"Ġplebem":11316,"Ġcorona":11317,"Ġactis":11318,"ĠEphra":11319,"ĠTandem":11320,"Ġtitulum":11321,"ĠBaptistae":11322,"Ġiuvenis":11323,"odox":11324,"Ġhoste":11325,"ĠMand":11326,"Ġforensibus":11327,"Ġregulam":11328,"Lex":11329,"Ġ119":11330,"ĠMDC":11331,"ĠDC":11332,"ĠSententia":11333,"Ġvellent":11334,"Benedic":11335,"iscere":11336,"acium":11337,"Ġpe":11338,"Ġquisquis":11339,"ĠFoederatarum":11340,"Ġsplendide":11341,"Ġinventus":11342,"ĠDomus":11343,"Ġacer":11344,"ĠLap":11345,"Ġdere":11346,"Ġamar":11347,"Ġaccepimus":11348,"Ġapostolicam":11349,"Ġpersp":11350,"ĠHadri":11351,"urt":11352,"Ġdeline":11353,"Ġmeruit":11354,"Ġmagistrum":11355,"Ġregionum":11356,"Ġmetropolit":11357,"Ġlegitima":11358,"Ġmnesarchum":11359,"usti":11360,"elus":11361,"Missale":11362,"ÑĮ":11363,"Ġcorrip":11364,"Ġdicas":11365,"ource":11366,"osam":11367,"Ġvitio":11368,"Ġnou":11369,"Ġabest":11370,"Ġmaiori":11371,"Ġvulgus":11372,"omach":11373,"ĠLup":11374,"Ġequos":11375,"ĠAutem":11376,"Ġvbi":11377,"!\"":11378,"itz":11379,"Ġ2009":11380,"Ġ2010":11381,"Ġmandatis":11382,"orvm":11383,"Ġhil":11384,"Laud":11385,"ĠprÃ¦f":11386,"ĠXXVI":11387,"Ġsanctitatis":11388,"Ġveteribus":11389,"Ġdoctoris":11390,"ĠFrater":11391,"Ġrecensere":11392,"Ġapeirian":11393,"ĠDr":11394,"Ġsequentibus":11395,"Ġdiutur":11396,"Ïĩ":11397,"tero":11398,"ĠIllum":11399,"Ġnemini":11400,"ĠMetaphys":11401,"Ġdivinitus":11402,"ĠLevit":11403,"Ġnono":11404,"ĠFragm":11405,"Ġmalus":11406,"ĠPu":11407,"Offic":11408,"Ġpositus":11409,"Ġvocari":11410,"ricus":11411,"Ġinstructior":11412,"Ġfron":11413,"Ġyour":11414,"eae":11415,"ĠLiturg":11416,"Ġdominica":11417,"ĠValentini":11418,"ENSIS":11419,"Jo":11420,"Ġagimus":11421,"Ġemendata":11422,"ALI":11423,"Ġprecep":11424,"Ġantiquo":11425,"Ð°ÑĤ":11426,"ĠDixitque":11427,"Ġlapidibus":11428,"Ġschola":11429,"Ġmartyrum":11430,"Ġnemore":11431,"ianum":11432,"ried":11433,"ĠJuris":11434,"Ġaudita":11435,"elinqu":11436,"Ġfuturo":11437,"Ġvelint":11438,"Ġinferius":11439,"Download":11440,"Ġiuvaret":11441,"Ġpraemium":11442,"Ġdignitas":11443,"Ġaequum":11444,"facta":11445,"Ġcomitem":11446,"arat":11447,"Ġquoties":11448,"oriam":11449,"Ġsequentes":11450,"Ġregimen":11451,"ĠBeatus":11452,"Ġeumque":11453,"ĠSeries":11454,"inf":11455,"Ġexplicantur":11456,"rob":11457,"Ġoboedi":11458,"alb":11459,"Ġmediocritatem":11460,"af":11461,"Ġibid":11462,"Ġfirmiter":11463,"onias":11464,"sae":11465,"orp":11466,"Ġvenisse":11467,"ĠIdus":11468,"Arch":11469,"Ġpraecipua":11470,"Ġpraesentibus":11471,"Ġassentior":11472,"icomm":11473,"Ġcapitulum":11474,"ĠAfricae":11475,"ĠIndice":11476,"Ġmediocrem":11477,"Ġfaciebat":11478,"ĠSoph":11479,"Ġheredibus":11480,"ĠUS":11481,"Ġ2014":11482,"ibiles":11483,"ĠNovae":11484,"Ġdiscipulus":11485,"Ġceterum":11486,"Ġsciens":11487,"ĠSecret":11488,"ĠBabylonis":11489,"ĠMach":11490,"Ġincogn":11491,"Ġtimorem":11492,"Ġfacultate":11493,"Ġqualem":11494,"Ġ115":11495,"Ġamant":11496,"Ġabsit":11497,"Ġsaluti":11498,"Ġcitius":11499,"Ġpermans":11500,"Ġfacin":11501,"Ġconsent":11502,"ĠLi":11503,"ustravit":11504,"udicium":11505,"...]":11506,"Ġjustitiam":11507,"ĠImperium":11508,"Ġsententiis":11509,"Ġsynonymis":11510,"endorum":11511,"Ġloquuntur":11512,"idonium":11513,"Ġscimus":11514,"Ġplurimi":11515,"astis":11516,"Ġdeneg":11517,"Ġobtinuit":11518,"estigationes":11519,"Ġinnot":11520,"Ġdictae":11521,"ESS":11522,"Ġpassuum":11523,"ĠMark":11524,"Ġpartiendo":11525,"ĠFlav":11526,"erpta":11527,"echi":11528,"Ġconloc":11529,"Ġalienis":11530,"Ġconstet":11531,"ĠGraecia":11532,"ĠRoman":11533,"Ġmedicinae":11534,"Â·":11535,"Ġmonumenta":11536,"Ġpalud":11537,"sh":11538,"Ġligna":11539,"Ġ63":11540,"Ġnecessariis":11541,"Ġvade":11542,"Ġdecrev":11543,"ĠSanctis":11544,"ĠJan":11545,"ĠSicilia":11546,"den":11547,"Ġvii":11548,"abas":11549,"Ġmaluisset":11550,"ebor":11551,"Ġmedici":11552,"Ġpens":11553,"Ġexhort":11554,"Ġaudisset":11555,"Ġtabulae":11556,"Ġsacrileg":11557,"Â£":11558,"unxit":11559,"xerunt":11560,"osae":11561,"egori":11562,"ĠChristianis":11563,"Ġcopiosae":11564,"Ġdeque":11565,"Ġappend":11566,"ĠÃ³mn":11567,"istarum":11568,"Ġparatus":11569,"ĠHolm":11570,"Ġapta":11571,"Ġuniuers":11572,"Ġopinione":11573,"Ġdebetur":11574,"Ġmedicus":11575,"abul":11576,"ĠĠĠĠĠĠ":11577,"Ġconsule":11578,"ĠPraeside":11579,"Ġanimadvers":11580,"Ġxii":11581,"ĠME":11582,"teris":11583,"gnis":11584,"Ġperl":11585,"Unde":11586,"Ġantiquorum":11587,"Ġabbati":11588,"Ġeffus":11589,"ĠNig":11590,"Ġbellis":11591,"ĠClementis":11592,"ĠCop":11593,"Ġabd":11594,"Ġhave":11595,"ĠBurgund":11596,"Ġsculp":11597,"Ġrogo":11598,"ĠMulta":11599,"ĠQuasi":11600,"Ġdisting":11601,"Ġscriptur":11602,"ĠPontificum":11603,"homin":11604,"ĠÂ£":11605,"Ġconsulto":11606,"ticam":11607,"eatis":11608,"Ġminoris":11609,"Ġ75":11610,"Ġquiet":11611,"ĠQuamquam":11612,"ĠEth":11613,"ĠJoanne":11614,"ĠAmst":11615,"Ġludos":11616,"iro":11617,"ĠScipio":11618,"Ġculpam":11619,"ĠComes":11620,"ĠIob":11621,"utiones":11622,"ĠOccident":11623,"disc":11624,"iculis":11625,"ĠManu":11626,"Ġaureum":11627,"phon":11628,"ĠMay":11629,"ĠSilv":11630,"Ġargento":11631,"oly":11632,"Ġrepudiare":11633,"Ġexal":11634,"Ġjej":11635,"Ġretinere":11636,"Ġconditione":11637,"Ġquodque":11638,"Ġobservationibus":11639,"Ġrespondet":11640,"Ġdeterruisset":11641,"Ġtempestate":11642,"Ġcatholicam":11643,"Ġdemonstraverunt":11644,"oviae":11645,"Ġexclam":11646,"Vel":11647,"Ġventum":11648,"ĠNumquam":11649,"Sicut":11650,"alon":11651,"Ġcorrep":11652,"ĠCret":11653,"Ġfacienda":11654,"Histor":11655,"Ġterminus":11656,"Ġsess":11657,"Ġ110":11658,"Ġreferrentur":11659,"Ġtestimonia":11660,"Ġreprehendunt":11661,"osci":11662,"ĠJohanne":11663,"ĠSym":11664,"ulisset":11665,"Ġbeato":11666,"Ġquaero":11667,"Ġcuc":11668,"Ġsumo":11669,"onath":11670,"Ġregiae":11671,"ĠSea":11672,"Ġplenus":11673,"Ġcentrum":11674,"Ġoccisus":11675,"ĠLem":11676,"Ġcardinalis":11677,"Ġrequ":11678,"Ġlegentis":11679,"ĠIM":11680,"Ġpriori":11681,"ĠSententiarum":11682,"Ġprompta":11683,"Ġdemocritum":11684,"Ġsacerdotem":11685,"Ġplene":11686,"Ġtenent":11687,"Ġostent":11688,"Ġscribentur":11689,"Ġreformidans":11690,"No":11691,"ĠDat":11692,"ĠLibrorum":11693,"Ġepistolam":11694,"Ġquodcumque":11695,"san":11696,"Ġvotis":11697,"Ġmurum":11698,"Ġnegl":11699,"Ġreplet":11700,"Ġhero":11701,"Ġpraedam":11702,"Ġvituperata":11703,"Ġactibus":11704,"Ġeamdem":11705,"Ġviis":11706,"Ġhiis":11707,"tinam":11708,"Ġalicujus":11709,"._":11710,"Ġsanctu":11711,"ĠLitterae":11712,"Ġcharacteribus":11713,"ĠFon":11714,"ĠIng":11715,"Ġangelorum":11716,"ĠHof":11717,"Ġaccept":11718,"ama":11719,"Ġtarn":11720,"Ġdesertum":11721,"Ġmonachorum":11722,"Ġfactionis":11723,"ĠDoctor":11724,"Ġdeberet":11725,"Ġplatonem":11726,"Ġprophetae":11727,"Ġmanifesta":11728,"audi":11729,"ĠLatino":11730,"Ġreverentia":11731,"Â°.":11732,"Ġdilexit":11733,"Ġprogredi":11734,"Ġindoctum":11735,"matis":11736,"Ġmusc":11737,"ĠPotest":11738,"Ġloquendi":11739,"ĠEnn":11740,"Ġmonachus":11741,"olini":11742,"back":11743,"Ġconsoci":11744,"Ġopem":11745,"Ġlegionibus":11746,"Ġseacula":11747,"Ġiact":11748,"Ġinsitam":11749,"Ġlata":11750,"Ġmonumentis":11751,"ĠMCC":11752,"dae":11753,"avitque":11754,"ĠExercit":11755,"Ġvincit":11756,"Ġdefici":11757,"Ġcoh":11758,"Ġglob":11759,"Ġcell":11760,"ĠDominis":11761,"Ġexplet":11762,"ribus":11763,"Ġmatri":11764,"Ġnescit":11765,"ĠMut":11766,"Ġoppid":11767,"Ġversibus":11768,"Dixit":11769,"Ġpueros":11770,"Ġacti":11771,"actu":11772,"ĠAE":11773,"ungitur":11774,"onensi":11775,"Ġ66":11776,"Ġdimitt":11777,"Ġversa":11778,"Ġexercere":11779,"Ġherc":11780,"aba":11781,"uu":11782,"ĠNas":11783,"Ġcohor":11784,"Ġprovinciis":11785,"ĠFranciscum":11786,"Ġquovis":11787,"âĢĿ]":11788,"Ġmortuos":11789,"Ġpel":11790,"ĠAddit":11791,"ĠComp":11792,"ĠDiac":11793,"ĠChristiana":11794,"Ġcondidit":11795,"Ġrecteque":11796,"Ġpraefer":11797,"Ġdeseruisse":11798,"Ġ61":11799,"Ġevoc":11800,"Ġvarietate":11801,"ĠDaniel":11802,"iol":11803,"Ġmeritum":11804,"eorum":11805,"iosum":11806,".\",":11807,"ĠCy":11808,"Ġiudicis":11809,"Ġequum":11810,"Ġpietas":11811,"alus":11812,"site":11813,"amin":11814,"Ġamis":11815,"Ġcognoscit":11816,"Ġmenandri":11817,"ĠLyc":11818,"agium":11819,"Ġfundamenta":11820,"Ġmeliorem":11821,"Ġcanis":11822,"ĠPe":11823,"Ġvident":11824,"Ġgeneribus":11825,"ĠFidei":11826,"Ġjustitia":11827,"Ġinermis":11828,"ĠAper":11829,"Ġ114":11830,"Ġdetracto":11831,"cs":11832,"Ġalto":11833,"ĠGallorum":11834,"ĠBras":11835,"Ġsummus":11836,"Ġsociorum":11837,"ĠTempus":11838,"Ġubicumque":11839,"Ġgratiarum":11840,"ĠTres":11841,"Ġmedicina":11842,"Ġextoll":11843,"ĠMartyrum":11844,"ĠMun":11845,"ĠRome":11846,"ellit":11847,"Â§.":11848,"Ġcibus":11849,"Ġfar":11850,"ĠScrib":11851,"Ġmoveri":11852,"ĠLondini":11853,"Ġpuni":11854,"Ġprobare":11855,"Omnis":11856,"Ġbeate":11857,"ĠRav":11858,"Ġunicum":11859,"\")":11860,"Ġpenetr":11861,"leo":11862,"Ġavid":11863,"ĠPlato":11864,"Volup":11865,"Mt":11866,"Ġlunae":11867,"estes":11868,"Ġconversus":11869,"llam":11870,"Ġinterea":11871,"ĠEug":11872,"TUM":11873,"Ġ62":11874,"Ġnumeris":11875,"Ġcadit":11876,"Ġplebe":11877,"igh":11878,"piae":11879,"Ġ90":11880,"Ġbenedictus":11881,"Ib":11882,"Ġterg":11883,"ĠJunii":11884,"Ġton":11885,"Ġvivo":11886,"ĠEdw":11887,"Ġdissimul":11888,"ĠIord":11889,"Cas":11890,"Ġchris":11891,"verat":11892,"eraque":11893,"ĠBernardi":11894,"itioni":11895,"Ġpotuisset":11896,"Ġlector":11897,"ĠErasmi":11898,"Ġlus":11899,"Ġgravius":11900,"iculus":11901,"Novum":11902,"Ġpropugn":11903,"Ġpropius":11904,"Ġ68":11905,"Ġdiversas":11906,"Ġinest":11907,"ilit":11908,"ĠMolesti":11909,"sanc":11910,"Ġinsipi":11911,"Ġplaga":11912,"''":11913,"Ġanimadver":11914,"ĠHerod":11915,"Ġlibras":11916,"Ġcontrario":11917,"Ġ2008":11918,"Ġmaria":11919,"Ġsuccessit":11920,"Petr":11921,"ĠLondin":11922,"ĠpÅĵ":11923,"uter":11924,"Ġvocent":11925,"Ġeditus":11926,"ĠGuil":11927,"Ġpan":11928,"Ġnosse":11929,"ĠInterim":11930,"ĠTert":11931,"Ġinstitutis":11932,"grav":11933,"world":11934,"ĠDOMIN":11935,"Ġhier":11936,"Ġilia":11937,"Ġhaus":11938,"ĠPraet":11939,"Ġinep":11940,"ĠSta":11941,"ĠAlc":11942,"Ġlius":11943,"Ġ113":11944,"Ġpassionis":11945,"Ġlaboramus":11946,"ĠDucis":11947,"Ġsacramenti":11948,"Ġotium":11949,"Ġpage":11950,"initas":11951,"timo":11952,"ĠAfricam":11953,"Joh":11954,"ATE":11955,"Ġconscientiae":11956,"Ġnexus":11957,"nr":11958,"Ġmensam":11959,"Ġeleemos":11960,"ĠDissert":11961,"Ġrequiem":11962,"Ling":11963,"esu":11964,"ĠSeptentrion":11965,"Ġalbum":11966,"ĠSchol":11967,"Ġmediam":11968,"ĠMuli":11969,"Br":11970,"Ġanx":11971,"Ġconsequi":11972,"teri":11973,"Ġintuit":11974,"Ġfalso":11975,"bos":11976,"Ġadscrip":11977,"Ġderiv":11978,"Ġassueverit":11979,"Ġdetin":11980,"Ġconcordia":11981,"ĠVoluptatem":11982,"ticorum":11983,"Ġmensuram":11984,"idth":11985,"Ġscholarum":11986,"Ġrepertus":11987,"Ġvoluptaria":11988,"Ġnominum":11989,"Ġnovas":11990,"Ġagat":11991,"Ġscripturae":11992,"ĠSiciliae":11993,"Ġneglegentur":11994,"ĠCathed":11995,"ĠRoter":11996,"Ġnep":11997,"Ġpeter":11998,"ref":11999,"ĠHugo":12000,"rh":12001,"itiarum":12002,"Ġuobis":12003,"ĠByz":12004,"itores":12005,"Ġteneatur":12006,"Ġlapis":12007,"iteri":12008,"Ġauditis":12009,"Ġclericis":12010,"sse":12011,"Ġparticipes":12012,"Ġtempla":12013,"riet":12014,"ĠAquinatis":12015,"ĠRespons":12016,"Ġcotidieque":12017,"Ġfamiliam":12018,"Ġdulcis":12019,"Ġpraen":12020,"Ġdioecesi":12021,"Ġexult":12022,"Ġfontibus":12023,"exa":12024,"Ġrar":12025,"Ġaddic":12026,"ĠHIS":12027,"ĠScyth":12028,"Ġomittantur":12029,"Ġillarum":12030,"titas":12031,"Ġdisputationi":12032,"ĠMartis":12033,"Ġmartyris":12034,"Ġquiesc":12035,"ĠGabri":12036,"ĠIap":12037,"Ġevertitur":12038,"ĠÃ©":12039,"iamur":12040,"ĠPun":12041,"Ġvalere":12042,"ĠAbbas":12043,"Ġcuriam":12044,"Ġdetest":12045,"ULI":12046,"Ġmontium":12047,"ĠPart":12048,"Ġstipend":12049,"Ġtristis":12050,"Ġpersius":12051,"Ġligno":12052,"Ġparab":12053,"ogra":12054,"Ġseptentr":12055,"Ġmunicipium":12056,"enso":12057,"title":12058,"Ġpeccatores":12059,"Ġpatrioque":12060,"ĠErn":12061,"Ġistos":12062,"Ġveteri":12063,"ĠAmplifica":12064,"ĠFe":12065,"Ġmutare":12066,"abar":12067,"ĠLibrary":12068,"Ġinterretialis":12069,"Quin":12070,"ĠSancte":12071,"ĠCord":12072,"Ġtrid":12073,"ĠSalvatoris":12074,"Ġhie":12075,"Ġabhorreant":12076,"Ġho":12077,"ĠInterpret":12078,"omina":12079,"Ġdicet":12080,"Ġoccasum":12081,"Ġrid":12082,"Ġfamiliar":12083,"Ġstric":12084,"aldo":12085,"Ġarmorum":12086,"ĠLit":12087,"Ġdomui":12088,"Ġcertus":12089,"estu":12090,"Ġfideicomm":12091,"Ġposidonium":12092,"ĠIntr":12093,"VA":12094,"itiva":12095,"Ġpus":12096,"Ġsucced":12097,"Ġutramque":12098,"Ġsalutatus":12099,"ĠImperatoris":12100,"Ġnau":12101,"Ġbreve":12102,"oram":12103,"erno":12104,"ĠOtt":12105,"Ġeique":12106,"ange":12107,"liamentum":12108,"Ġgut":12109,"Ġinstituto":12110,"Ġdefuncti":12111,"Ġmercedem":12112,"Ġclericus":12113,"itii":12114,"ĠRen":12115,"Ġconfestim":12116,"Ġquadrup":12117,"Ġvoto":12118,"Ġgeneratione":12119,"Ġnavem":12120,"Ġvicesimo":12121,"cio":12122,"Ġverear":12123,"âĢĺ":12124,"Ġsicc":12125,"atorio":12126,"ĠAccessit":12127,"Ġaedes":12128,"Ġpertinentibus":12129,"ily":12130,"ĠDioc":12131,"Ġquacumque":12132,"ĠSulp":12133,"Ġpassionem":12134,"ĠMinorum":12135,"nisi":12136,"ĠPatav":12137,"ĠEvangel":12138,"Ġincorrupte":12139,"itato":12140,"Ġvincula":12141,"ĠPlinius":12142,"Ġinhabit":12143,"issam":12144,"Ġmandavit":12145,"ĠVetus":12146,"Ġacceperunt":12147,"ĠEle":12148,"Ġ117":12149,"Ġgrata":12150,"Ġdiscrimen":12151,"ĠVt":12152,"Ġvivendi":12153,"Ġimmun":12154,"ĠCUM":12155,"Ġprovinciarum":12156,"XVII":12157,"oniorum":12158,"Ġauxilia":12159,"uunt":12160,"Ġaliorumque":12161,"ĠNotis":12162,"ĠAed":12163,"Ġintellegi":12164,"Ġsigniferumque":12165,"idos":12166,"ench":12167,"egr":12168,"urge":12169,"Ġnimia":12170,"ultis":12171,"Ġsiti":12172,"ĠUnus":12173,"Ġceciderunt":12174,"Ġqualisque":12175,"ĠPall":12176,"Ġatq":12177,"Ġgratum":12178,"Ġflore":12179,"ĠBritannia":12180,"Ġtribuit":12181,"ĠSabb":12182,"Ġunicuique":12183,"inv":12184,"ĠAdri":12185,"Ġpriorem":12186,"urea":12187,"Ġmiseri":12188,"Ġprioris":12189,"Ġoriente":12190,"Ġoptimis":12191,"ĠArchiepiscopus":12192,"Ġexempli":12193,"Ġcampo":12194,"Ġabsolute":12195,"Ġlucilius":12196,"?]":12197,"Ġ2011":12198,"ĠAethiop":12199,"Ġdiscept":12200,"Ġepiscopos":12201,"ĠHistoriarum":12202,"alogi":12203,"ĠVelit":12204,"ĠExempl":12205,"Ġ08":12206,"Ġvidebantur":12207,"Ġprocedere":12208,"Ġdissentias":12209,"Ġmili":12210,"wi":12211,"Ġequi":12212,"Ġcalce":12213,"Chris":12214,"ĠAve":12215,"Ġreque":12216,"Ġmilitaris":12217,"retum":12218,"Ġexire":12219,"Ġrespicit":12220,"bor":12221,"Ġseque":12222,"Ġmensa":12223,"worldcat":12224,"elum":12225,"EST":12226,"hol":12227,"Ġue":12228,"ĠHec":12229,"ĠKon":12230,"Ġconclusionemque":12231,"Ġpuncto":12232,"Ġtueri":12233,"Ġmediae":12234,"ĠTimothe":12235,"iatum":12236,"Ġcommin":12237,"ostes":12238,"Io":12239,"Ġcontendit":12240,"Ġtaur":12241,"umento":12242,"elmum":12243,"Ġventris":12244,"Ġpraesc":12245,"Ġliquid":12246,"ĠPascha":12247,"Ġservire":12248,"Ġfastidii":12249,"ĠSev":12250,"opolis":12251,"Ġcausarum":12252,"ĠĠĠĠĠĠĠĠĠĠĠĠĠĠ":12253,"Ġgeometr":12254,"iscing":12255,"ĠAmet":12256,"Ġlectiones":12257,"Ġdiffert":12258,"Ġtractatos":12259,"enii":12260,"Ġquartus":12261,"ĠMarcum":12262,"ĠOrationes":12263,"Ġcomposita":12264,"entissimum":12265,"Ġdilectus":12266,"ĠClaritas":12267,"roc":12268,"Ñı":12269,"ĠMÃ¼":12270,"Ġparochi":12271,"Ġoperi":12272,"ĠVenerabilis":12273,"Ġvolumine":12274,"Ġobsecro":12275,"Ġconstituti":12276,"ĠDisputatio":12277,".~":12278,"ecenas":12279,"ĠRespondit":12280,"Ġconcludaturque":12281,"Lud":12282,"ĠPhilippo":12283,"Ġmethodo":12284,"itionum":12285,"Ġseduc":12286,"ĠsÃ¦":12287,"Ġsedet":12288,"td":12289,"Ġantiopam":12290,"Ġsacerdotis":12291,"Ġcoetus":12292,"Ġincommod":12293,"Ġpastores":12294,"Ġlatinae":12295,"Ġcomiti":12296,"Ġabn":12297,"aeis":12298,"aviae":12299,"Ġabduc":12300,"Ġprophetam":12301,"ĠEphes":12302,"Ġdissentiet":12303,"Ġappellat":12304,"obrem":12305,"Ġfrui":12306,"Ġdelicatissimi":12307,"Ġmaximis":12308,"ĠParliamentum":12309,"Ġnumeros":12310,"ĠNa":12311,"Ġlaes":12312,"Patr":12313,"Ġsocietas":12314,"ectarum":12315,"Ġquartam":12316,"Ġ67":12317,"Ġchristiana":12318,"ĠFrancicum":12319,"Ġimple":12320,"Ġaccurat":12321,"ĠâĢİ(":12322,"Ġveste":12323,"NE":12324,"Ġarchidiac":12325,"ASS":12326,"OB":12327,"Ġsilentium":12328,"Ġalphab":12329,"Ġrelictis":12330,"ĠSE":12331,"ĠHy":12332,"Ġocurreret":12333,"Ġcomplures":12334,"Ġmucius":12335,"Ġsubinde":12336,"ĠPlatonis":12337,"Ġelecti":12338,"Ġordinibus":12339,"Ġmiraculis":12340,"Ġimmob":12341,"Ġinsidiis":12342,"Ġopul":12343,"ĠMissae":12344,"ĠPH":12345,"Ġnuc":12346,"astas":12347,"ĠGratia":12348,"Ġarchiepiscopi":12349,"Ġconfort":12350,"Ġdefl":12351,"ĠThrac":12352,"ĠCodex":12353,"ĠAssyri":12354,"Ġvaleant":12355,"omas":12356,"Ġlaed":12357,"Ġacceper":12358,"VD":12359,"Ġoptimo":12360,"Ġinflam":12361,"Ġmalefic":12362,"tica":12363,"port":12364,"ĠNeg":12365,"Ġpossessione":12366,"Ġpraeda":12367,"Ġlitig":12368,"Ġpassio":12369,"Ġsuperioris":12370,"Ġdixerat":12371,"ĠMog":12372,"Ġfortes":12373,"Ġdiplom":12374,"Ġoccidere":12375,"ĠSocietate":12376,"Ġrevera":12377,"Ġignosc":12378,"ĠSeneca":12379,"ĠLivius":12380,"Ġtranquill":12381,"Ġseriem":12382,"ĠprÃ¦sens":12383,"istat":12384,"Ġsuperfl":12385,"Ġfructibus":12386,"Ġsonet":12387,"ĠSermo":12388,"Ġaenean":12389,"Ġlocuti":12390,"Ġcommodum":12391,"Ġmirabilia":12392,"ĠXXVII":12393,"Ġtritani":12394,"itui":12395,"erebatur":12396,"Ġinopia":12397,"ĠCatilina":12398,"MA":12399,"Ġevenit":12400,"lac":12401,"Ġsuppon":12402,"Ġindicibus":12403,"ĠConsul":12404,"Ġintravit":12405,"ĠQuintus":12406,"Ġpares":12407,"Ġvivunt":12408,"ĠSalomonis":12409,"Sol":12410,"atica":12411,"Ġbotan":12412,"Ġdictorum":12413,"Ġiuribus":12414,"ĠVerr":12415,"Ġbel":12416,"Ġistorum":12417,"Ġacerb":12418,"ilias":12419,"Ġvestros":12420,"Ġexec":12421,"Ġcertamine":12422,"Ġvivamus":12423,"Ġvenerat":12424,"ĠAltera":12425,"Ġpontificis":12426,"Ġpedem":12427,"ĠEc":12428,"ĠHym":12429,"vt":12430,"IIS":12431,"ĠEccl":12432,"Ġassequ":12433,"icias":12434,"Ġsalutandi":12435,"Ġerrem":12436,"ĠUniversitate":12437,"\";":12438,"Ġevangeliz":12439,"ĠIudaei":12440,"Ġtheophrastus":12441,"Ġmedica":12442,"Ġequitibus":12443,"ÑģÑĤ":12444,"Ġaddita":12445,"othek":12446,"XIV":12447,"Ġeverti":12448,"imique":12449,"ĠverÃ²":12450,"ĠGem":12451,"Ġvituperatoribus":12452,"ĠCerte":12453,"Ġtenebat":12454,"Tunc":12455,"Ġrett":12456,"Ġcruci":12457,"Ġdicebatur":12458,"Ġrapi":12459,"ĠIanu":12460,"Ġdominium":12461,"Ġsororem":12462,"Ġinvad":12463,"ĠErr":12464,"GH":12465,"nia":12466,"Ġvariae":12467,";\">":12468,"Ġvectig":12469,"Ġobtulit":12470,"ĠPac":12471,"Ġnonumes":12472,"brum":12473,"Ġstra":12474,"Ġmigr":12475,"Ġmonumentum":12476,"Ġeparch":12477,"Ġverterem":12478,"Ð¿":12479,"quos":12480,"Ġnepot":12481,"Ġarrip":12482,"Ġsextum":12483,"Ġrecusabo":12484,"Ġhabitatores":12485,"ated":12486,"Ġfolia":12487,"Ġconcinn":12488,"enciam":12489,"Ġexorn":12490,"ensionis":12491,"Ġflex":12492,"Ġhonestum":12493,"Ġcreata":12494,"Ġuita":12495,"enburg":12496,"Rex":12497,"ĠKalendas":12498,"Rep":12499,"Ġelectionem":12500,"ĠFund":12501,"quamur":12502,"Ġcordibus":12503,"Ġdesid":12504,"ĠPtolem":12505,"Ġvoluerunt":12506,"Ġfiguram":12507,"Ġaudito":12508,"ĠRegione":12509,"berto":12510,"Ġfueris":12511,"Ġauctorum":12512,"Mi":12513,"Ġprand":12514,"uitate":12515,"ĠLingua":12516,"ĠHungar":12517,"Ġsuscipere":12518,"ĠAh":12519,"Ġdigni":12520,"Ġsocii":12521,"Ġpeti":12522,"Ġhabitare":12523,"Ġorigo":12524,"ylv":12525,"Ìģ":12526,"Ġlink":12527,"Ġaltius":12528,"ĠAthanas":12529,"ĠTR":12530,"igil":12531,"Ġsimilibus":12532,"Ġdiaboli":12533,"unia":12534,"ĠTullius":12535,"Ġtergo":12536,"____":12537,"å¼":12538,"otos":12539,"Ġmalitia":12540,"Ġfont":12541,"Tempus":12542,"amentorum":12543,"arrac":12544,"lock":12545,"Red":12546,"val":12547,"orth":12548,"aneis":12549,"Praef":12550,"ĠVnde":12551,"Ġmerces":12552,"ĠHofmann":12553,"Ġantis":12554,"Ġsinistra":12555,"Ġvidentes":12556,"Ġaurem":12557,"oqui":12558,"irurg":12559,"Ġfeceris":12560,"ĠZach":12561,"Ġexcepto":12562,"erni":12563,"ederunt":12564,"Ġnominatur":12565,"ĠPuer":12566,"lica":12567,"Ġleguntur":12568,"Ġinterfecit":12569,"Ġpervers":12570,"Ġdignatus":12571,"ION":12572,"vail":12573,"Ġ69":12574,"Ġintelligit":12575,"Ġrelinquere":12576,"Ġnatione":12577,"ĠRel":12578,"ĠCantab":12579,"Ġconjunc":12580,"Ġuerum":12581,"ĠPla":12582,"ĠÃ¨":12583,"Ġgeneri":12584,"Ġbeneficiis":12585,"ĠOrdinarii":12586,"Ġdifferunt":12587,"Ġexperientia":12588,"XVIII":12589,"mer":12590,"Ġuxori":12591,"Ġexsult":12592,"Ġincidit":12593,"Ġseries":12594,"Se":12595,"ĠNep":12596,"Urb":12597,"Ġ09":12598,"Ġpermitt":12599,"ĠCivitatis":12600,"page":12601,"Ġmomento":12602,"ĠVerbi":12603,"Ġrecessit":12604,"Ġmortalium":12605,"ĠAgn":12606,"Ġvesc":12607,"ebamus":12608,"unensis":12609,"iur":12610,"ÎŃ":12611,"aea":12612,"Ġmetum":12613,"ĠLitterarum":12614,"Ġalioquin":12615,"ULUS":12616,"Ġevol":12617,"Ġductus":12618,"matum":12619,"ĠTob":12620,"Ġalbucius":12621,"ĠArmen":12622,"Ġ978":12623,"ĠTamen":12624,"Ġliberam":12625,"ĠConstantinopolit":12626,"oi":12627,"Ġobtinere":12628,"Ġgenerat":12629,"Ġinspir":12630,"ĠVirgine":12631,"Ġmonstrat":12632,"nd":12633,"Ġavers":12634,"Ġabscondit":12635,"Ġinveniuntur":12636,"Ġrepper":12637,"Ġpraesentis":12638,"Ġtristitia":12639,"Ġcanticum":12640,"Ġutrique":12641,"poss":12642,"Ġprog":12643,"Ġquemque":12644,"Ġpurto":12645,"Ġattr":12646,"lick":12647,"Ġminore":12648,"lip":12649,"ĠNostrum":12650,"Ġstatutum":12651,"other":12652,"ijs":12653,"Mon":12654,"Ġprovidentia":12655,"ĠPrior":12656,"Ġclericorum":12657,"ĠSebasti":12658,"!!":12659,"Ġcic":12660,"Paris":12661,"ng":12662,"Ġpraetorio":12663,"VER":12664,"Ġpisces":12665,"Ġitineris":12666,"libero":12667,"Ġfiduciam":12668,"Ġstim":12669,"Ġaffectum":12670,"opsis":12671,"Ġtimeam":12672,"Ġgaudet":12673,"ĠCharta":12674,"Ġ72":12675,"ĠCONS":12676,"Ġelemos":12677,"Ġutilitate":12678,"Ġincertum":12679,"Ġprivilegiis":12680,"Ġalternative":12681,"estae":12682,"iator":12683,"Ġdiscord":12684,"lab":12685,"ĠSP":12686,"atumque":12687,"ĠTheodor":12688,"ĠPann":12689,"Ġobseru":12690,"Ġcasum":12691,"Ġpestil":12692,"Ġsolvit":12693,"ovis":12694,"Ġalleg":12695,"Ġinvenerunt":12696,"Ġelaboraret":12697,"Ġprivata":12698,"ĠFris":12699,"ĠErud":12700,"Ġaperuit":12701,"Ġferat":12702,"Ġtransc":12703,"Ġvirgines":12704,"Ġvidebitur":12705,"ĠFal":12706,"Ġnaut":12707,"iculi":12708,"ocus":12709,"Ġapr":12710,"Ġcopul":12711,"erata":12712,"dictum":12713,"Î¿Ïħ":12714,"Ġusi":12715,"Ġinstru":12716,"ologiam":12717,"Ġabsolutam":12718,"ĠMaxime":12719,"Ġpeccare":12720,"?âĢĿ":12721,"Ġdecis":12722,"ĠMoysi":12723,"Ġdimin":12724,"Ġdistincta":12725,"Ġtenebras":12726,"opus":12727,"terium":12728,"Ġpane":12729,"Ġsaperet":12730,"Ġarea":12731,"Ã¡b":12732,"Ġ116":12733,"Ġsollemnes":12734,"ĠUT":12735,"Ġpostulat":12736,"Ġconvic":12737,"Ġhonesta":12738,"Ġvap":12739,"ĠCommiss":12740,"Ġreliquos":12741,"Ġarbores":12742,"Ġargumento":12743,"Ġdocti":12744,"quaque":12745,"Ġagendi":12746,"Ġsimulque":12747,"Ġproponit":12748,"Ġpromisit":12749,"ĠIugurth":12750,"Ġvicissim":12751,"Ġadiung":12752,"Ġepistula":12753,"Ġabstr":12754,"col":12755,"Ġvertit":12756,"aliae":12757,"Po":12758,"Ġpius":12759,"ĠArchiepiscopi":12760,"fecit":12761,"ĠParisiensis":12762,"Ġinstitutione":12763,"Ġnu":12764,"Ġital":12765,"Ġpossibile":12766,"ĠAsper":12767,"ĠCot":12768,"ĠLand":12769,"heim":12770,"Ġconcilii":12771,"Ġpraesentes":12772,"Ġplenius":12773,"ype":12774,"Ġpeccat":12775,"ING":12776,"Ġpresbyteri":12777,"erare":12778,"Ġarca":12779,"Ġportae":12780,"ueretur":12781,"Ġmissam":12782,"Ġjussu":12783,"Ġcomites":12784,"Ġnascuntur":12785,"inxit":12786,"Ġhumiliter":12787,"ĠLeipzig":12788,"Ġsuccessores":12789,"ĠRatione":12790,"Ed":12791,"Ġexpresse":12792,"Ġ77":12793,"Ġzril":12794,"Ġchristiani":12795,"Ġponam":12796,"ĠGloss":12797,"Ġvideamus":12798,"otae":12799,"Ġperfecte":12800,"Ġventus":12801,"Ġcustodes":12802,"dia":12803,"amine":12804,"ĠMinerv":12805,"Ġdamp":12806,"athi":12807,"ĠfÅĵ":12808,"Ġpersolv":12809,"ĠAnnot":12810,"ilitate":12811,"Ġpossessio":12812,"^.":12813,"imet":12814,"ortet":12815,"rea":12816,"etails":12817,"Ġcuiuslibet":12818,"Ġmagnitudo":12819,"Ġpaulum":12820,"Ã¹s":12821,"Conf":12822,"Ġcastrorum":12823,"vailable":12824,"aberis":12825,"Ġimpud":12826,"Ġejusque":12827,"Ġpast":12828,"Ġarbor":12829,"Ġtextu":12830,"Ġpeditum":12831,"Ġimmacul":12832,"Ġcogitatione":12833,"Ġcoloris":12834,"Ġvictim":12835,"Ġaperi":12836,"Ġvultum":12837,"urrere":12838,"Ġvenia":12839,"Ġrepl":12840,"uatur":12841,"Ġsocialis":12842,"ĠBatavorum":12843,"Ġquamuis":12844,"Ġunitas":12845,"ĠAtqui":12846,"Ġvinculis":12847,"pressum":12848,"ologicae":12849,"Ġbenigne":12850,"Ð·":12851,"å¿":12852,"Ġvolumen":12853,"Ġpredictis":12854,"phona":12855,"Ġpatrocin":12856,"Ġquint":12857,"Ġpridie":12858,"Ġaequales":12859,"Ġsuperiores":12860,"Ġmedioc":12861,"ĠHere":12862,"Ġfacite":12863,"ĠVarr":12864,"Ġsh":12865,"stant":12866,"Ġdoctores":12867,"Ġexul":12868,"ĠSh":12869,"Ġtranseunt":12870,"Ġconvertit":12871,"aremus":12872,"Ġspero":12873,"Ġlae":12874,"Ġingressi":12875,"Ġnasci":12876,"ĠOMN":12877,"ĠLog":12878,"Ġscelere":12879,"Ġpep":12880,"Ġpositis":12881,"Ġdict":12882,"Ġrepos":12883,"elia":12884,"Ġdiluc":12885,"entie":12886,"Ġimplor":12887,"Ġmaecenas":12888,"incta":12889,"Ġcarmine":12890,"oniz":12891,"ĠPapam":12892,"Ġrobur":12893,"ĠChristianos":12894,"Ġprivatis":12895,"Ġpraestat":12896,"Ġmovere":12897,"Ġviii":12898,"ĠFrat":12899,"secundum":12900,"Ġjuc":12901,"Ġintendit":12902,"Ġaccipiat":12903,"bl":12904,"ĠCarmina":12905,"vr":12906,"Ġelectram":12907,"temper":12908,"ĠCand":12909,"ĠAct":12910,"ĠSecundi":12911,"obard":12912,"Ġhabebis":12913,"Ġquaeris":12914,"Ġferoc":12915,"Ġquanti":12916,"imates":12917,"olim":12918,"ĠLibros":12919,"Ġrhetor":12920,"ĠPostr":12921,"bergae":12922,"Ġsuperfic":12923,"ĠElect":12924,"ĠSuppl":12925,"ĠFa":12926,"plur":12927,"fon":12928,"stat":12929,"CIP":12930,"Ġmysteria":12931,"Vid":12932,"ĠEvangelio":12933,"ĠOfficium":12934,"ĠFecit":12935,"ĠPropterea":12936,"Ġcompositum":12937,"Ġpietatem":12938,"Ġgus":12939,"ĠAquil":12940,"ĠCle":12941,"Ġinaequ":12942,"row":12943,"ĠAlleluia":12944,"ĠHir":12945,"ĠAuctoritate":12946,"Ġaeccles":12947,"Ġpuerorum":12948,"Ġrefertur":12949,"ado":12950,"Ġdescription":12951,"Ġconsensus":12952,"Ġproteg":12953,"Ġpraesto":12954,"Ġlibellum":12955,"Ġpoenitentiam":12956,"ĠVr":12957,"ĠAdj":12958,"Ġdicerent":12959,"ĠFirm":12960,"Ġmilitem":12961,"Ġconfessione":12962,"Ġhaur":12963,"ĠCond":12964,"ĠMontis":12965,"ĠNecess":12966,"lla":12967,"Johann":12968,"Ġ76":12969,"ĠSib":12970,"ĠApostolicam":12971,"Ġaudierunt":12972,"Ġpraecipi":12973,"Ã±":12974,"atuum":12975,"Ġlatius":12976,"Ġmusicae":12977,"Ġpossessiones":12978,"ĠCausa":12979,"avere":12980,"Ġsidera":12981,"Nova":12982,"ĠLae":12983,"ĠDesider":12984,"Ġcuiquam":12985,"sac":12986,"anna":12987,"ĠNoster":12988,"ituri":12989,"ICI":12990,"Ġtestific":12991,"ĠSemin":12992,"Ġprohibet":12993,"Ġinventum":12994,"Ġdilat":12995,"Ġsarc":12996,"Ġprincipi":12997,"Henr":12998,"Ġapparatu":12999,"Ġbaptismum":13000,"ĠSECUND":13001,"Ġstella":13002,"Ġcot":13003,"Ġnegare":13004,"Gal":13005,"IST":13006,"ĠPontificem":13007,"Ġdereli":13008,"è®":13009,"Ġinsp":13010,"ĠGraecum":13011,"ĠCul":13012,"Ea":13013,"inea":13014,"Ġfamiliaris":13015,"Ġreprimique":13016,"Ġpraedestin":13017,"Ġinsigni":13018,"Ġsupplicium":13019,"Ġone":13020,"iciunt":13021,"Ġexced":13022,"ĠVero":13023,"VIT":13024,"ĠGentium":13025,"Ġdiabolus":13026,"Ġdixisti":13027,"ĠPhilisth":13028,"Ġproin":13029,"Ġcustos":13030,"Ġpraecepto":13031,"Ġrestituit":13032,"Ġquotquot":13033,"Ġeosque":13034,"ĠCoc":13035,"Ġdiocesis":13036,"ĠAlexandro":13037,"Ġplurimos":13038,"ĠSacrosanc":13039,"ĠItali":13040,"Ġlacrimis":13041,"Ġvolebat":13042,"Ġminoribus":13043,"Ġear":13044,"Ġmilitari":13045,"Ġarcam":13046,"imil":13047,"ĠMinis":13048,"ĠLoqu":13049,"ĠApoc":13050,"ĠSamu":13051,"ĠBerg":13052,"Ġpugnae":13053,"ĠScripta":13054,"Ġlevis":13055,"abilius":13056,"uero":13057,"ĠIllyr":13058,"Ġreperiuntur":13059,"anica":13060,"Ġexquis":13061,"Ġboves":13062,"SL":13063,"Go":13064,"Ġvigilia":13065,"Ġmissis":13066,"ĠOpusc":13067,"ĠMagno":13068,"ĠGulielmus":13069,"entissimo":13070,"Ġtradere":13071,"Ġdubia":13072,"ample":13073,"ĠOrdine":13074,"Ð³":13075,"Ġimput":13076,"Ġhistoriarum":13077,"114":13078,"Ġ(\"":13079,"ĠJoan":13080,"Ġdiscrimine":13081,"ĠBonum":13082,"ĠGro":13083,"Ġpleni":13084,"ĠCarthagini":13085,"string":13086,"ĠVenus":13087,"Ġeffectu":13088,"ĠConsilium":13089,"ernum":13090,"Ġbrute":13091,"Ġflux":13092,"ĠEpiph":13093,"Ġung":13094,"Ġcoqu":13095,"Ġlitteram":13096,"ĠSenatus":13097,"Ġsonus":13098,"ulgo":13099,"escio":13100,"Ġfacultates":13101,"iform":13102,"Ġsemit":13103,"Ġquaestionibus":13104,"ĠIl":13105,"Ġportus":13106,"Ġprincipalis":13107,"Ġrecognosc":13108,"ĠHoll":13109,"Ġplaus":13110,"ĠVER":13111,"ĠCarol":13112,"å½©ç":13113,"Ġavert":13114,"Magna":13115,"Georg":13116,"enatis":13117,"Ġattig":13118,"ierint":13119,"Ġorare":13120,"Ġsystematis":13121,"Ġsorte":13122,"Ġcommentarius":13123,"cur":13124,"riter":13125,"èµ":13126,"Ġmultitudinis":13127,"Hodie":13128,"Monumenta":13129,"ĠFortun":13130,"Ġnuntium":13131,"ericus":13132,"ĠRecogn":13133,"Liv":13134,"loqu":13135,"Ġmentes":13136,"Ġelectione":13137,"Ã¡re":13138,"Ġmaritus":13139,"Ġquesti":13140,"Ġvocabulum":13141,"Ul":13142,"irma":13143,"Ġmagisque":13144,"Ġaperta":13145,",)":13146,"Verum":13147,"ĠDol":13148,"Ġflamma":13149,"etc":13150,"ĠMDCCC":13151,"ĠInvestigationes":13152,"Ġomnim":13153,"Ġfrumenti":13154,"Ġpract":13155,"ĠOecumen":13156,"Ġfurore":13157,"Ġloquebatur":13158,"ĠSid":13159,"Ġillustris":13160,"110":13161,"Ġmilli":13162,"Ġparati":13163,"ĠAdhuc":13164,"anii":13165,"Ġusui":13166,"Ġinauguralis":13167,"Ġsemina":13168,"ĠLucret":13169,"opo":13170,"ĠImmo":13171,"ĠLuna":13172,"Ġsacramentis":13173,"Ġcuris":13174,"Ġdimidium":13175,"Ġinjus":13176,"Ġ71":13177,"dio":13178,"ĠFur":13179,"Ġsceleris":13180,"Ġsuffici":13181,"Latina":13182,"Ġanimadvert":13183,"mort":13184,"Ġaccepi":13185,"ĠAnni":13186,"allem":13187,"Ġabsolv":13188,"ĠSequitur":13189,"Ġegressi":13190,"ĠDid":13191,"Ġpraeside":13192,"Ġdebes":13193,"LIT":13194,"Ġhereditate":13195,"iana":13196,"Ġgn":13197,"ular":13198,"ĠBaptista":13199,"abulum":13200,"Ġ%":13201,"ĠFland":13202,"ĠFasc":13203,"Ġsolummodo":13204,"Ġwebsite":13205,"Ġhabeas":13206,"Ġmorti":13207,"Ġpercuss":13208,"ÅĤ":13209,"Ġcith":13210,"Ġvoluc":13211,"ĠDen":13212,"Ġdesol":13213,"rin":13214,"Ġaltari":13215,"ĠIncarn":13216,"Ġpoetarum":13217,"Ġgess":13218,"Ġpraescripta":13219,"ibunt":13220,"ĠVarro":13221,"ĠPraeter":13222,"Ġornatum":13223,"âĢı":13224,"Ġsentit":13225,"Ġancilla":13226,"ĠGallis":13227,"Ġlitore":13228,"ĠMox":13229,"Ġdesunt":13230,"Ġarcem":13231,"endix":13232,"Ġiacet":13233,"orf":13234,"Ġflores":13235,"Ġsecreto":13236,"ĠAgric":13237,"Ġresta":13238,"Ġcommitt":13239,"Ġtacimates":13240,"yrum":13241,"Christi":13242,"ĠDionysius":13243,"Ġaffect":13244,"Ġconscientiam":13245,"Ġamplect":13246,"Ġgregem":13247,"ĠAustriae":13248,"oam":13249,"Ġlacte":13250,"Ġmonet":13251,"Ġcomite":13252,"Ġmansit":13253,"ĠFlorent":13254,"aturi":13255,"Ġ85":13256,"Ġpraeval":13257,"ardin":13258,"Ġcommissa":13259,"ĠIpsi":13260,"Ġillustravit":13261,"Ġscholast":13262,"ĠAz":13263,"ĠPOS":13264,"Ġvictoriae":13265,"Lab":13266,"ĠElem":13267,"Ġappellatus":13268,"å¿«":13269,"Ġscholae":13270,"ĠFactum":13271,"Ġoperae":13272,"Ġoccult":13273,"ATUS":13274,"ĠVirginem":13275,"!)":13276,"emis":13277,"Ġspati":13278,"Ġreperitur":13279,"Ġpanes":13280,"ĠCrit":13281,"ĠMagnum":13282,"ĠValerius":13283,"*.":13284,"ĠHistoriam":13285,"Ġdestruc":13286,"Ġintrare":13287,"iose":13288,"Epistola":13289,"ations":13290,"Ġquibuscumque":13291,"Ġcontent":13292,"Ġvulnera":13293,"ĠGermanorum":13294,"ĠFul":13295,"Ġtrucid":13296,"Ġmanifeste":13297,"Ġfoederis":13298,"PH":13299,"EB":13300,"Ġimpro":13301,"Ġinfirmitate":13302,"Ġenunti":13303,"Ġintegro":13304,"Ġseculo":13305,"ĠDÃ³minum":13306,"Ġpertrans":13307,"Ġhoneste":13308,"Ġdicamus":13309,"Ġsequatur":13310,"ĠAsiam":13311,"Ġnupti":13312,"elunc":13313,"veniens":13314,"ĠEphraim":13315,"Deinde":13316,"emplo":13317,"yli":13318,"Ġcoactus":13319,"ĠCalvin":13320,"ĠRect":13321,"ĠQuint":13322,"Ġodor":13323,"Ġtue":13324,"Ġrecto":13325,"Ġcredidit":13326,"Ġreuer":13327,"Ġcirculi":13328,"Ġhabenda":13329,"Ġsimilitudo":13330,"ĠGaius":13331,"Eodem":13332,"ĠRam":13333,"Ġmb":13334,"Ġitidem":13335,"ĠFugit":13336,"Institu":13337,"Ġacceptum":13338,"Ġincit":13339,"Ġgaudia":13340,"Ġadsum":13341,"ĠSamn":13342,"Ġperfect":13343,"Sanctus":13344,"odio":13345,"mihi":13346,"Ġpull":13347,"Ġmaneat":13348,"ĠActum":13349,"Ġinquiet":13350,"Ġlitus":13351,"ĠAf":13352,"Ġspeciei":13353,"Ġradices":13354,"Ag":13355,"ye":13356,"Ġiidem":13357,"Ġlax":13358,"ĠSenecae":13359,"ĠEup":13360,"Ġdesuper":13361,"Tum":13362,"agen":13363,"Ġpresentes":13364,"Ġjejun":13365,"';":13366,"Ġmendacium":13367,"Ġpraebet":13368,"ces":13369,"rara":13370,"iosi":13371,"Ġmuro":13372,"Ġhabetis":13373,"Ġtribunal":13374,"ĠPut":13375,"utere":13376,"Ġcivitati":13377,"ĠVerba":13378,"Ġiudiciis":13379,"ediae":13380,"Ġdens":13381,"ĠNatus":13382,"ĠIndi":13383,"Ġveniret":13384,"Ġvalid":13385,"via":13386,"Ġaver":13387,"untibus":13388,"LIBER":13389,"biit":13390,"ĠJac":13391,"Ġprophetarum":13392,"rici":13393,"Ġacerr":13394,"Ġlacrym":13395,"ĠSacrorum":13396,"ĠOptim":13397,"ĠDCC":13398,"Ġpeculiari":13399,"Ġprodesse":13400,"Ġnarrat":13401,"Ġinsigne":13402,"Ġavailable":13403,"Missa":13404,"pul":13405,"Ġgallic":13406,"Ġspatia":13407,"ko":13408,"Ġpir":13409,"IIII":13410,"Ġresistere":13411,"ĠSlav":13412,"iper":13413,"Ġdeorsum":13414,"Ġcanonum":13415,"118":13416,"Ġcy":13417,"trans":13418,"Ġoppidi":13419,"ĠMaior":13420,"Ġeventus":13421,"Ġvisu":13422,"ĠCollection":13423,"ĠHenricum":13424,"nob":13425,"Ġfugere":13426,"pes":13427,"Ġsuperv":13428,"ĠNaturalis":13429,"Ġarcus":13430,"Ġaltitudinem":13431,"Ð¹":13432,"ĠMars":13433,"ĠMoysen":13434,"Ġeligere":13435,"Ġdeserta":13436,"Ġdeest":13437,"Ġfraude":13438,"Cod":13439,"Ġundecim":13440,"Ġmediis":13441,"acius":13442,"ĠCAR":13443,"ĠCent":13444,"ĠEorum":13445,"ANNES":13446,"Ġinvenies":13447,"Ġâĸ":13448,"anei":13449,"Ġvultis":13450,"Ġoccasio":13451,"Ġconscripti":13452,"Äķ":13453,"ĠChald":13454,"Ġaspici":13455,"ĠAudi":13456,"Ġsummae":13457,"¥ĸ":13458,"Ġparall":13459,"Ġfutur":13460,"Bib":13461,"ropcap":13462,"Isa":13463,"illos":13464,"Ġdominio":13465,"ĠCCC":13466,"Ġvicem":13467,"Ġcaret":13468,"Ġmajorem":13469,"Ġfastig":13470,"tinum":13471,"Ġduarum":13472,"Ġpred":13473,"Ġoss":13474,"ĠMot":13475,"Ġmensur":13476,"ĠEcclesiis":13477,"Ġá½":13478,"Ġdirip":13479,"Ġhumilis":13480,"Ġconuers":13481,"tant":13482,"Ġsop":13483,"ĠLicet":13484,"Ġ73":13485,"Ġsuperiori":13486,"ĠMartyrolog":13487,"ĠVenit":13488,"tina":13489,"ĠMagdal":13490,"ĠFrancofurti":13491,"Ġbl":13492,"ĠâĤ¬":13493,"Ġlacum":13494,"annum":13495,"Ġdiscess":13496,"Ġdiligentius":13497,"ĠDub":13498,"ĠUtr":13499,"Ġconcipi":13500,"Ġprofug":13501,"Ġstatuimus":13502,"ĠLinnaeus":13503,"iunc":13504,"ĠVill":13505,"Ġmagnas":13506,"CAPUT":13507,"Ġnationibus":13508,"ĠGott":13509,"Ġcommoda":13510,"itudini":13511,"ĠprÃ¦cip":13512,"ĠJohannem":13513,"Cred":13514,"Ġdant":13515,"Ġpartum":13516,"ĠAccedit":13517,"Ġexisti":13518,"Ġvirginem":13519,"Ġnaturalium":13520,"Ġperpetr":13521,"amet":13522,"ĠInferi":13523,"Ġfestis":13524,"Ġageret":13525,"Ã©c":13526,"ĠCredo":13527,"ilitas":13528,"Ġmarito":13529,"Ġscholis":13530,"Ġconcedimus":13531,"onici":13532,"Quomodo":13533,"Ġstellarum":13534,"ĠHerac":13535,"Ġtecta":13536,"etera":13537,"ĠLucius":13538,"Ġlub":13539,"ĠXXVIII":13540,"Ġimaginibus":13541,"117":13542,"aculorum":13543,"Ġgall":13544,"Ġaegrot":13545,"Doc":13546,"Ġdura":13547,"Ġgradibus":13548,"Ġsuperest":13549,"ensque":13550,"ener":13551,"edus":13552,"HR":13553,"Ġcontinuandum":13554,"evit":13555,"Ġpredicti":13556,"Ġperfectio":13557,"ĠIuppiter":13558,"Ġaudiens":13559,"Ġauthore":13560,"Ġfrumentum":13561,"Ġregiam":13562,"ĠHolmiae":13563,"âĢ¡":13564,"Ġpraefecto":13565,"Ġeduxit":13566,"Ġcarcerem":13567,"Bas":13568,"ĠCollegium":13569,"Ġmuliere":13570,"cin":13571,"Ġreligiosi":13572,"omine":13573,"ject":13574,"Ġquaelibet":13575,"ĠProinde":13576,"ĠCornelii":13577,"atro":13578,"Ġjustific":13579,"Ãºn":13580,"Tractatus":13581,"Ġviderit":13582,"ĠSyracus":13583,"Ġactionis":13584,"Ġclare":13585,"hard":13586,"Ġpress":13587,"ĠDucatus":13588,"ĠAgrippinae":13589,"Ġeditionis":13590,"Ġadire":13591,"ĠDesc":13592,"ives":13593,"acionis":13594,"Ġnotam":13595,"Argumentum":13596,"Ġexpressa":13597,"ĠSimul":13598,"Super":13599,"ĠDamasc":13600,"Ġvana":13601,"Ġcalig":13602,"Ġnatalis":13603,"ĠAmerica":13604,"Joann":13605,"Ġvern":13606,"ĠOv":13607,"ĠSyriae":13608,"stad":13609,"ĠCujus":13610,"Ġeditis":13611,"odos":13612,"ĠArs":13613,"Ġproclam":13614,"ĠVindob":13615,"Ġrector":13616,"Ġdormi":13617,"Ġinstantis":13618,"timur":13619,"entissima":13620,"Ġjussit":13621,"ebimus":13622,"ĠquÃ¦r":13623,"Ġquoquo":13624,"Ġcontroversia":13625,"ĠCad":13626,"aturos":13627,"ĠJustin":13628,"Ã¼ck":13629,"Ġconcessum":13630,"onicae":13631,"Ġquamdam":13632,"Ġgeneratio":13633,"Ġcoenob":13634,"ĠNamque":13635,"Ġspiritualibus":13636,"ituit":13637,"RIP":13638,"ĠDir":13639,"ilo":13640,"ogallic":13641,"Ġphantas":13642,"Ġ[-":13643,"Ġthr":13644,"Ġmensem":13645,"Val":13646,"Ġritum":13647,"ĠAnnum":13648,"Ġpraedictis":13649,"ĠHispaniam":13650,"Ġdesp":13651,"escant":13652,"Ġpetiit":13653,"Ġpotestis":13654,"Ġhumilitate":13655,"Petrus":13656,"umbr":13657,"ett":13658,"Ġinterfici":13659,"ĠGentiles":13660,"ortum":13661,"ĠAthenis":13662,"Ġconspectum":13663,"ovi":13664,"Ġlam":13665,"Ġdecimam":13666,"Ġadditis":13667,"Ġplacitum":13668,"Ġasserv":13669,"Ġpossidet":13670,"agus":13671,"fc":13672,"actae":13673,"irch":13674,"Ġ05":13675,"utos":13676,"Ġexilium":13677,"Ġdedisse":13678,"Ġserie":13679,"eruntque":13680,"Da":13681,"Ġnotas":13682,"doi":13683,"Ġsuperiorem":13684,"ĠTerrarum":13685,"ĠTridentini":13686,"Ġtypograph":13687,"Ġaliunde":13688,"Ġliberorum":13689,"Ġvivi":13690,"ĠPropos":13691,"And":13692,"ĠNormann":13693,"Ca":13694,"Ġquiddam":13695,"Ġiniquitas":13696,"Ġconsistere":13697,"oles":13698,"Ġprofund":13699,"niuers":13700,"ĠFacultatis":13701,"ĠSymb":13702,"Ġoperari":13703,"Ġbibliothec":13704,"Ġaemul":13705,"Ġsenes":13706,"Ġproprii":13707,"ĠConstantinopoli":13708,"Ġvideat":13709,"Ġimperat":13710,"euntes":13711,"ĠMans":13712,"Ġbeatam":13713,"ĠTempli":13714,"Des":13715,"ois":13716,"Ġ88":13717,"ĠPublius":13718,"Ġcolumb":13719,"Ġintellegere":13720,"esus":13721,"Ġiuste":13722,"ĠTHEOLOG":13723,"Ġmitte":13724,"ĠEdu":13725,"ĠFide":13726,"Ġdenomin":13727,"ĠProvid":13728,"ĠLutetiae":13729,"Ġaudio":13730,"ĠOmnipot":13731,"Ġuelut":13732,"Ġrelicto":13733,"Ġfundum":13734,"Ġdecernentibus":13735,"ÏĦÎ±":13736,"ĠIO":13737,"ĠTre":13738,"Ġ07":13739,"Ġtollere":13740,"Ġfirst":13741,"Max":13742,"Ġsinus":13743,"Ġquantitatem":13744,"lop":13745,"Ġrecensuit":13746,"Ġoptimi":13747,"ĠTart":13748,"Ġcurare":13749,"Ġordinum":13750,"Ġconsulatum":13751,"Ġdicentem":13752,"ĠRoberti":13753,"Ġtermino":13754,"omp":13755,"Ġexe":13756,"Ġthem":13757,"Ġpudic":13758,"ensam":13759,"ĠâĢł":13760,"Ġpoenis":13761,"ĠÃĨgypti":13762,"Ġopiniones":13763,"Ġmorbis":13764,"ICA":13765,"Ġtabul":13766,"Ġbenedixit":13767,"Homo":13768,"anius":13769,"Ġabstulit":13770,"Ġanal":13771,"Ġsept":13772,"Ġnaturales":13773,"Ġedictum":13774,"Ġauditum":13775,"Ġá¼Ģ":13776,"max":13777,"ativus":13778,"Sequ":13779,"ĠRitu":13780,"ĠQuantum":13781,"Ġhistr":13782,"Ġsecuri":13783,"Ġprofecti":13784,"ĠVirtut":13785,"Anton":13786,"Ġcathedra":13787,"Ġ83":13788,"Ġhabito":13789,"ĠOff":13790,"Ġvidete":13791,"Ġomnipotentis":13792,"Ġnuptiis":13793,"Ġderelinqu":13794,"ents":13795,"Ġprodit":13796,"ĠMant":13797,"Ġpleraque":13798,"Ġmortale":13799,"Ġvinculo":13800,"ÂĶ":13801,"Ġministris":13802,"Ġinferior":13803,"Ġtabernaculi":13804,"Ġadversa":13805,"cemodi":13806,"Ġvocabula":13807,"Ġ2007":13808,"Ġanime":13809,"Ġdirecte":13810,"Ġpaululum":13811,"Ġoblitus":13812,"Ġinsignia":13813,"ullae":13814,"Ġvideris":13815,"Ġorientalis":13816,"IAM":13817,"Ġcollegit":13818,"Ġpago":13819,"risque":13820,"Ġariet":13821,"ĠDominici":13822,"Ġuidetur":13823,"ĠLondon":13824,"ĠVesp":13825,"Ġaccepto":13826,"Ġaesti":13827,"ĠPhr":13828,"Ġappon":13829,"Ġdonavit":13830,"ä¸ī":13831,"Ġregnare":13832,"All":13833,"ATA":13834,"ĠPecc":13835,"Ġstatutis":13836,"enni":13837,"ĠCommentarius":13838,"Ġverisim":13839,"ĠDur":13840,"Ġquiete":13841,"rarum":13842,"Ġelap":13843,"ĠGad":13844,"ulsi":13845,"Ġlustr":13846,"Ġfacillim":13847,"Ġvictum":13848,"Ġpercuti":13849,"Ġconscripta":13850,"ĠPrivileg":13851,"ĠInscriptiones":13852,"*)":13853,"liber":13854,"Ġclamor":13855,"Ġhabentem":13856,"ĠProd":13857,"Ġiugum":13858,"ĠMartyris":13859,"ĠIudaeis":13860,"Ġsero":13861,"inger":13862,"Ġangelum":13863,"Ġvocabulo":13864,"Ġclassem":13865,"Ġunigen":13866,"ĠHorum":13867,"agr":13868,"Ġfloribus":13869,"Ġaula":13870,"Ġecclesiastici":13871,"ĠLipsi":13872,"ĠVl":13873,"Ġactiv":13874,"Ġutilitas":13875,"Ġevangelium":13876,"effic":13877,"Ġcorrump":13878,"ĠAtr":13879,"Ġscriptus":13880,"Ġpassione":13881,"Ġmagnopere":13882,"norum":13883,"Ġdatam":13884,"Ġspelunc":13885,"aneus":13886,"ĠJudÃ¦":13887,"Ġcuilibet":13888,"Ġinterced":13889,".+":13890,"Ġ74":13891,"Ġ95":13892,"Ġgeneraliter":13893,"ĠSaturn":13894,"uoc":13895,"ĠAnna":13896,"Ġcrescit":13897,"ĠQuadrages":13898,"Ġconspici":13899,"ĠâĢİâĢ¡":13900,"Ġsolaris":13901,"ecerat":13902,"Ġrestaur":13903,"Ġtechn":13904,"Ġsermonum":13905,"Ġalso":13906,"Ġagmen":13907,"Ġquaerimus":13908,"Ġsupplicio":13909,"gap":13910,"Ġinvidiam":13911,"Ġautor":13912,"Ġcereb":13913,"Ġdea":13914,"Ġservitium":13915,"Ġsubter":13916,"ĠVolumen":13917,"ĠBacch":13918,"Ġexcerp":13919,"rehendi":13920,"ĠUsum":13921,"Ġclasse":13922,"ĠObservationes":13923,"LL":13924,"Ġvirium":13925,"ley":13926,"Ġnobilium":13927,"uxi":13928,"Ġdisp":13929,"tom":13930,"ĠDomain":13931,"Ġpurific":13932,"Ġanteced":13933,"enes":13934,"ecisse":13935,"ĠTa":13936,"ebuntur":13937,"Ġmolend":13938,"Ġvoluntati":13939,"Ġuitae":13940,"Sep":13941,"Ġamica":13942,"Mus":13943,"Ġdeper":13944,"Ġnumerorum":13945,"Ġaegre":13946,"verint":13947,"Ġuig":13948,"bantur":13949,"fridus":13950,"Ġdiligere":13951,"Ġsilvis":13952,"Ġparvo":13953,"Ġinterpos":13954,"3931":13955,"ĠIndia":13956,"ĠWilhel":13957,"Ġipsarum":13958,"atusque":13959,"ĠCantuari":13960,"Ġinvic":13961,"ĠCodicis":13962,"ĠMex":13963,"Ġanimorum":13964,",âĢ¦":13965,"Ġtenore":13966,"ĠOrdinarius":13967,"ĠArag":13968,"ĠBohemiae":13969,"DC":13970,"inoc":13971,"Ġtimet":13972,"Ġannotationibus":13973,"narum":13974,"Ġservitutem":13975,"ĠMAG":13976,"Ġhomero":13977,"Ġ81":13978,"Ġventurus":13979,"Ġsinum":13980,"Ġcelebratur":13981,"ition":13982,"ĠCarolum":13983,"ĠThomam":13984,"Ġcanonicis":13985,"Ġvalle":13986,"Ġcantu":13987,"wo":13988,"ibo":13989,"ĠReform":13990,"riculum":13991,"Ġimprim":13992,"Ġcordi":13993,"Ġludum":13994,"Ġreligiosis":13995,"ĠQUI":13996,"Ġresurrectionis":13997,"Ġphilosophiam":13998,"Ġvatic":13999,"ĠPentec":14000,"Ġtheologica":14001,"TITLE":14002,"Ġfortuit":14003,"ĠDistinctio":14004,"Ġvestibus":14005,"Ġmiraculum":14006,"ufrag":14007,"ĠOmne":14008,"VE":14009,"ĠÎºÎ±":14010,"Ġvsque":14011,"Ġlongitudinem":14012,"ugh":14013,"ĠFaus":14014,"vas":14015,"ĠCard":14016,"Ġseptima":14017,"aciae":14018,"Ġtribunus":14019,"ĠAntver":14020,"Ġadventus":14021,"Ġsalvus":14022,"Ġquaestione":14023,"Ġsumptus":14024,"Ġantecess":14025,"Ġmagnitudinis":14026,"minum":14027,"Ġfoll":14028,"cia":14029,"Ġax":14030,"ĠPage":14031,"Ġcircuitum":14032,"Ġconvivium":14033,"ĠDicitur":14034,"Matth":14035,"Ġplurium":14036,"ĠMelch":14037,"ĠAmericanus":14038,"ece":14039,"Ġregul":14040,"Ġmeliora":14041,"Ġuide":14042,"Secundum":14043,"Ġadsc":14044,"Ġoppr":14045,"ĠItalicus":14046,"xerit":14047,"ĠDor":14048,"Ġconstitui":14049,"Ġelectio":14050,"ĠRP":14051,"Ġager":14052,"ATOR":14053,"Ġincrementum":14054,"Ġaditus":14055,"Ġconsequenter":14056,"Ġcondicio":14057,"Ġconfirmat":14058,"enium":14059,"ĠResp":14060,"ipse":14061,"Ġdiuis":14062,"ĠNun":14063,"Ġlongis":14064,"Ġsacrament":14065,"Ġremitt":14066,"Ġoculo":14067,"Ġaequalis":14068,"Ġaliquas":14069,"Ġfiguras":14070,"112":14071,"istor":14072,"oriae":14073,"ĠCAP":14074,"istr":14075,"Ġaudacia":14076,"ausa":14077,"Ġlecto":14078,"ĠOlymp":14079,"ĠprÃ¦cep":14080,"âĪ":14081,"Ġvivus":14082,"Ġaves":14083,"Ġrequirit":14084,"ĠSap":14085,"ĠSump":14086,"ĠAit":14087,"Ġeleph":14088,"Curriculum":14089,"oclc":14090,"ĠRest":14091,"El":14092,"Ġpetram":14093,"Ġgraves":14094,"Tab":14095,"ĠMad":14096,"ĠBuc":14097,"Ġproximis":14098,"Ġcongregati":14099,"Ġdicetur":14100,"ĠGil":14101,"Cr":14102,"Ġ79":14103,"Ġvoluptatis":14104,"Ġdividitur":14105,"Ġcaetera":14106,"stanti":14107,"inal":14108,"Ġperfectionis":14109,"Ġsonum":14110,"Ġseculi":14111,"uvium":14112,"ulfus":14113,"ĠUm":14114,"Ġaspectu":14115,"Ġrepon":14116,"Ġtriang":14117,"Ġconsid":14118,"ivo":14119,"ulii":14120,"ĠEmend":14121,"Ġadeptus":14122,"Ġconcit":14123,"ĠTitus":14124,"Ġputet":14125,"ĠChal":14126,"probrium":14127,"Ġzur":14128,"Ġback":14129,"Ġeunt":14130,"eratum":14131,"ĠAlbertus":14132,">,":14133,"uerent":14134,"Ġexequ":14135,"Ġcrediderunt":14136,"Ġgaudere":14137,"ISCOP":14138,"uturum":14139,"ĠLent":14140,"Ġtrop":14141,"ĠLucam":14142,"illim":14143,"Ġfacultatibus":14144,"Ġparatum":14145,"Ġaugur":14146,"Ġcontrariis":14147,"Ġoblivisc":14148,"ava":14149,"ĠGracch":14150,"}}":14151,"Ġeditae":14152,"Ġmanent":14153,"gressi":14154,"Ġprincipatum":14155,"Mag":14156,"iteor":14157,"conc":14158,"ĠAmpl":14159,"ĠLibris":14160,"Ġreversi":14161,"åı":14162,"ehem":14163,"ĠTarquin":14164,"ous":14165,"Ġprest":14166,"ĠJur":14167,"Ġsuburb":14168,"Ġtradunt":14169,"Ġaccipiunt":14170,"Ġcaptum":14171,"Ġoperatio":14172,"umentorum":14173,"ivus":14174,"Ġuniversali":14175,"Ġsortem":14176,"Ġdiligentissime":14177,"Ġscribis":14178,"Ġvirgine":14179,"Ġpraeclara":14180,"ĠTotius":14181,"Ġhyd":14182,"ĠEpistolarum":14183,"Ð½Ð¸":14184,"Ġsubtrah":14185,"Ġconstanter":14186,"Ã¡te":14187,"Ġderelic":14188,"ĠBohem":14189,"Ġclero":14190,"Ġ84":14191,"Ġoperationem":14192,"Ġ78":14193,"Ġturpe":14194,"Ġnaturale":14195,"odam":14196,"rior":14197,"ĠAnastas":14198,"ĠQuaedam":14199,"Ġterminis":14200,"iovanni":14201,"ecutus":14202,"Ġsalvo":14203,"Ġcomplex":14204,"trix":14205,"Ġpropitius":14206,"Ġutilitatis":14207,"Ġacceperit":14208,"burgi":14209,"ĠQuinque":14210,"Ġminori":14211,"ĠBi":14212,"inctus":14213,"Ġquotannis":14214,"Ġplor":14215,"tempus":14216,"car":14217,"XXV":14218,"Ġspeciebus":14219,"Ġiniti":14220,"issemus":14221,"yss":14222,"Ġvenissent":14223,"German":14224,"Ġss":14225,"Fab":14226,"Ġreceperunt":14227,"iosis":14228,"å¼Ģå":14229,"Ġepistolas":14230,"Ġceleritate":14231,"aphras":14232,"Ġlineam":14233,"Ġrationalis":14234,"andorum":14235,"tamin":14236,"Ġtaed":14237,"Ġnuntius":14238,"ĠComitis":14239,"Ġnuntios":14240,"Ġpostero":14241,"ĠEcclesiastica":14242,"Ġhibern":14243,"ĠMatris":14244,"ande":14245,"Ġaccend":14246,"Ġmalign":14247,"Ġprogressus":14248,"Hor":14249,"Ġprudens":14250,"^,":14251,"Ġtabernaculo":14252,"Semper":14253,"idisti":14254,"assis":14255,"Ġuniversos":14256,"ĠXXXI":14257,"uci":14258,
[...]
